#version: 0.2
Ġ t
h e
Ġ a
i n
Ġt he
Ġ o
r e
Ġ w
Ġ s
n d
e r
a t
o n
i s
i t
Ġ b
e n
e d
Ġo f
o u
Ġ h
Ġ c
Ġ f
o r
e s
Ġ Ġ
Ġ m
a r
Ġa nd
a n
in g
Ġt o
Ġ p
l l
Ġ in
a s
Ġ d
Ġt h
l e
o m
i c
â Ģ
Ġ n
Ġ l
a l
Ġ he
i on
Ġb e
a d
s t
o t
Ġ g
en t
Ġ e
v e
o w
u t
Ġ I
s e
l y
i m
Ġ re
c e
i d
l d
Ġw h
g h
i r
u r
Ġo n
Ġth at
a y
v er
Ġw as
it h
c t
e t
r o
Ġ T
Ġ it
Ġ u
Ġf or
Ġ y
c h
Ġ is
a nd
a m
ĠĠ ĠĠ
Ġa s
Ċ Ċ
Ġw ith
t he
Ġw e
r i
Ġ S
Ġs t
Ġh is
Ġ A
t h
t er
Ġ M
Ġ C
Ġy ou
Ġa n
gh t
r a
i l
a ll
i ll
Ġa t
o o
i f
Ġn ot
a in
Ġ B
Ġ H
Ġ 1
re d
k e
ic h
Ġh a
u l
at ion
es s
ou ld
Ġh ad
Ġs e
ĠT he
p e
Ġb y
r om
g e
Ġs u
âĢ Ķ
Ġd e
o re
a c
u s
he r
Ġs h
q u
re s
ĊĊ ĠĠĠĠ
Ġhe r
o l
Ġc on
Ġo r
Ġ P
a b
Ġwh ich
es t
Ġm e
er s
t o
âĢ Ļ
Ġ W
om e
ar d
an t
Ġf rom
Ġha ve
âĢ ľ
Ġ v
Ġs o
p p
Ġe x
u n
is t
ou s
âĢ Ŀ
i ght
at e
e l
Ġ L
o s
u m
Ġn e
Ġa ll
e m
Ġh im
Ġth is
ou r
Ġa re
Ġb ut
Ġ F
u st
Ġ G
Ġ r
Ġ k
i g
ar t
n t
i e
Ġs a
T he
Ġwe re
Ġ D
Ġc h
Ġ le
as t
ĊĊĠĠĠĠ Ġ
' s
Ġw he
Ġthe y
Ġ E
Ġu p
on g
Ġs he
Ġ "
i v
i ve
Ġc om
Ġ R
Ġa l
or t
a p
Ġm y
Ġwh o
it y
Ġp ro
ou t
ver y
Ġthe ir
am e
Ġon e
i es
ou nd
in d
o f
Ġm an
Ġd o
a k
o d
o p
oo d
u re
o st
e ll
Ġa b
Ġthe m
the r
r y
Ġ J
m ent
ou gh
ĠĠ Ġ
Ġ N
Ġw or
a g
re at
ow n
e ct
on e
Ġp l
Ġn o
Ġ O
t e
se l
Ġbe en
c i
c k
p t
in e
is h
. "
id e
it t
Ġo ut
an ce
Ġthe re
n e
u d
Ġw ould
p l
Ġ 2
o se
Ġa r
f f
ĊĊ ĠĠĠ
o nd
a v
Ġw ill
a ce
Ġsa id
as s
he d
oo k
a re
ac k
ab le
c c
Ġ j
p er
a ke
en ce
Ġ âĢľ
Ġ (
i re
all y
Ġc an
ĠH e
e ar
ic e
im e
a u
Ġwhe n
Ġu n
Ġm ore
r u
Ġ qu
ou nt
or d
, "
Ġh as
w e
Ġs p
Ġl i
ion s
Ġ en
Ġa d
Ġo ther
Ġu s
ar y
an s
Ġ im
b er
Ġg o
ad e
e p
Ġa g
Ġ1 9
Ġin to
v en
a ge
Ġs ome
Ġk n
o ve
it e
Ġc l
ay s
Ġt w
Ġan y
sel f
at ed
Ġf e
nd er
n g
re e
Ġ if
Ġ ro
b le
f ter
ĠI t
ot her
res s
f ore
a ct
Ġd is
b e
t ain
Ġit s
ur n
Ġth an
Ġg r
Ġo ur
ing s
o ll
Ġyou r
Ġa m
Ġp r
c l
b l
a ch
Ġt ime
f or
i le
ĠT h
Ġ very
Ġc ould
w n
o y
Ġb r
w h
Ġg reat
Ġp er
. âĢĿ
i a
ic k
i ous
itt le
ou ght
Ġo ver
Ġp art
f e
Ġwh at
v ed
an g
Ġab out
u ch
if e
i ld
i ed
i p
u e
Ġon ly
ĠI n
ar k
re n
in t
Ġli ke
a ve
s o
or y
Ġf l
Ġb l
Ġt r
Ġp re
Ġup on
u ll
ir st
i z
h ing
t y
on s
f ul
m an
in k
ĠC h
Ġn ow
Ġm ay
Ġtw o
ig n
o g
w ard
Ġthe n
Ġd es
at er
Ġl ittle
Ġp e
Ġkn ow
at her
ĠS t
ĠM r
Ġa fter
Ġof f
Ġre s
i an
s h
Ġ V
at h
Ċ ĠĠĠĠ
Ġd id
Ġp o
Ġto o
o ld
Ġcom p
' t
Ġ K
Ġsh ould
Ġm ade
c es
Ġag ain
ic al
it ion
m er
Ġse e
Ġth r
Ġthe se
is e
Ġs c
, âĢĿ
ic t
Ġre m
Ġh and
Ġ ri
n ess
Ġu nder
Ġ 3
ĊĊ Ġ
or n
he n
ation s
ul t
Ġl ong
Ġcon t
os s
Ġsu ch
Ġh ow
d e
Ġf irst
e nd
l and
Ġs pe
is s
en s
f t
Ġim p
Ġbe fore
Ġg ood
a ir
Ġl ook
Ġwor k
Ġy ear
Ġ ra
it s
i ly
Ġwhe re
w ay
Ġbe c
th at
Ġm ust
p h
Ġ Y
he s
Ġm uch
Ġs m
Ġm ost
Ġbe t
c ed
Ġd own
T h
or s
as e
ct ion
d u
Ġcon s
Ġe very
Ġcom m
ĠB ut
Ġwe ll
en er
ĊĠĠĠĠ Ġ
Ġo ld
Ġ1 8
Ġa cc
l es
Ġm en
r an
i al
Ġd ay
i gh
res ent
ou se
l ed
ot h
Ġo wn
ad y
Ġe ven
0 0
a w
? "
Ġo b
r it
Â ©
er v
n ot
Ġa pp
Ġth ose
Ġthr ough
w ith
Ġw ay
Ġbe ing
l i
a il
Ġl ife
Ġman y
o ck
Ġg l
at es
Ġb ack
Ġe ar
u p
on t
ow er
ĠA nd
E R
Ġ U
Ġne ver
au se
ent s
P g
op le
Ġa p
Ġp ass
Ġ ent
ri ed
Ġc ame
. ,
Ġs ay
j ect
t ed
Ġs l
Ġf ound
I t
o ver
pe ct
Ġat t
ut h
i x
v ing
A nd
m ed
Ġc all
e x
. .
it ed
Ġbe l
i ble
k ed
v es
at ter
Ġm ake
Ġhe re
Ġse em
Ġs ame
Ġj ust
l ess
u al
Ġm ight
Ġre p
a red
Ġth ink
H E
Ġc ome
p le
Ġre c
e ver
u nd
W h
Ġc ount
r ow
is hed
Ġle t
Ġsu b
Ġal so
u res
Ġ ke
Ġc ar
c ess
b ut
oll ow
Ġd ist
w as
ak ing
H e
m s
om et
Ġa c
g et
Ġt ra
Ġe y
g g
ul ar
re t
Ġg et
Ġf ar
i b
Ġ 4
Ġe m
Ġne w
m e
re st
Ġe nd
b y
ver s
Ġo p
s s
Ġth ought
ĠS he
k s
er tain
o c
Ġsu pp
g in
Ġl ast
ar s
Ġwith out
ri end
Ġhim self
in ed
ve l
en ed
e w
Ġpe ople
âĢ ĺ
I n
oo l
Ġre g
Ġd if
Ġre l
ĠTh is
Ġn at
Ġch ar
Ġwh ile
o pe
Ġpl ace
Ġyear s
Ġin st
Ġre t
Ġw om
o b
Ġsh all
im es
t ing
s u
c om
Ġse c
he re
Ġst ill
Ġri ght
ĠW h
n ing
Ġt e
! "
v ent
Ġc our
Ġhe ad
a le
al s
in ce
Ġap pe
Ġw ent
e red
d s
Ġs ur
ce pt
we en
Ġp ers
Ġt ake
Ġa ct
n er
ĠThe y
Ġt urn
Ġa way
t on
ĠE ng
t en
Ġs et
Ġf ollow
Ġth ree
t s
Ġst r
Ġch ild
d er
u bl
o h
m ost
a id
Ġ 5
1 7
ent ly
p r
Ġw ar
g an
Ġb o
ire ct
Ġin d
ĠW e
Ġex p
Ġyou ng
c y
in s
Ġ '
ra ct
Ġg iv
at ing
Ġm ar
al f
p s
Ġw r
w ays
Ġg ener
B ut
at t
Ġf riend
ter s
i er
ment s
od y
it ies
a ut
Ã ©
ff ect
Ġp ut
ur ing
Ġp oss
it her
Ġl ar
Ġfe w
Ġw ater
wh ich
Ġp resent
an y
Ġh ouse
Ġne ar
Ġf ind
Ġin te
ĊĊĠĠĠĠ ĠĠĠĠ
Ġin t
f l
Ġn or
Ġo cc
i red
m y
Ġs omet
ow s
Ġw ant
e c
Ġe ver
Ġn ight
re nt
Ġin c
os ed
as on
Ġle ft
el s
Ġe ach
ro ss
Ġey es
Ġbet ween
Ġy et
Ġwor ld
Ġ 6
Ġan other
Ġl ight
Ġth ough
u g
d en
iv ed
Ġ âĢĺ
Ġp ur
et h
ir l
m en
Ġagain st
Ġad d
ĠThe re
Ġc o
is ed
in es
ak en
am p
Ġhe art
th ing
Ġe v
O N
Ġsm all
Ġin ter
re w
g r
ou th
al k
1 8
Ġon ce
Ġb u
Ġt ell
Ġl ove
h is
c ri
in ess
c on
Ġg u
Ġcount ry
Ġg ive
Ġ19 2
if ic
ull y
u b
Ġm in
as ter
I N
Ġt er
Ġf ace
Ġf act
Ġar t
1 5
en e
ant s
Ġre st
Ġm on
ie f
ĠM ar
ne w
Ġs ide
ĠG od
Ġh ome
y s
Ġre ad
c hed
Ġk ind
ap s
oh n
Ġfor m
Ġd on
Ġdis c
er n
pp ed
Ġtoo k
Ġl and
Ġcall ed
? âĢĿ
. âĢĶ
Ġm ind
Ġf am
Ġal ways
Ġsa w
Ġb oth
Ġas s
Ġp le
Y ou
ut e
r ist
l ish
ie ld
Ġh igh
re ad
o ot
Ġc ertain
Ġin s
Ġc le
for m
Ġpo int
b r
Ġc ap
Ġst re
ĠU n
Ġha pp
i et
ĠA s
Ġnot hing
Ġs y
uth or
ĠA r
sel ves
- -
ward s
Ġc are
id er
Ġ1 7
A N
a z
Ġs er
ab ly
ut ion
Ġn um
Ġn ame
ate ly
Ġex t
Ġret urn
Ġu se
Ġc ond
Ġh alf
Ġre f
Ġth ings
) ,
ci al
I I
g ed
Ġwho le
m on
ou n
Ġu nt
Ġ 8
Ġl ess
Ġ19 3
Ġbec ause
mer ic
Ġh um
Ġd ra
Ġam ong
Ġs w
Ġse en
Ġc ol
ĊĊĠĠĠĠ ĊĊĠĠĠĠĠ
Ġlar ge
ur y
id ent
Ġp h
Ġcon f
Ġs k
iv es
c hes
Ġc r
u ally
1 6
Ġad v
Ġp ower
Ġb est
p ro
an ge
ur ch
Ġc ur
Ġd ays
get her
Ġ 7
1 9
ubl ic
Ġhe l
Ġf ather
Ġh ard
le ct
ĠA n
ri ght
Ġso on
ĠY ou
Ġm om
d ay
Ġg ot
Ġha ving
Ġc he
Ġs ent
Ġb oy
Ġne ed
Ġcour se
Ġ ed
at ive
as ed
an k
au gh
ĠI f
f ic
is on
ie w
Ġhand s
Ġfe el
Ġinte rest
ag es
h ad
n ow
te nd
Ġde l
os ition
ud e
Ġc ent
Ġgo ing
Ġb ro
at ch
w or
Ġ Â©
ĠR e
l ing
er y
Ġf ell
W e
Ġg irl
Ġh our
Ġf our
y ou
Ġd et
Ġd one
x t
i ans
n o
Ġdo es
ak es
Ġto ld
Ġs im
Ġth ing
f rom
en se
Ġst and
Ġhow ever
1 4
ĠI nd
Ġt ri
Ġbet ter
et s
Ġv is
Ġdif fe
Ġw ind
ĠA l
Ġf ore
Ġg ra
Ġs erv
Ġm il
us s
un g
Ġin v
ow ed
id es
ar n
Ġunt il
Ġe l
ĠH is
Ġro om
Ġde c
ent ion
a h
a pp
r ic
Ġm other
Ġlook ed
Ġal most
ĠMr s
Ġbel ie
is m
as h
A R
ce ed
Ġpro du
ĠJ ohn
Ġwom an
en g
E S
Ġan s
el t
Ġst e
ou b
Ġm o
b ed
Ġs at
Ġpl ay
Ġm atter
id ed
Ġas ked
st and
Ġus ed
! âĢĿ
Ġcont in
ĠA meric
Ġb ook
il ity
ĠS e
Ġmom ent
Ġpers on
h aps
s p
Ġhe ard
Ġde p
Ġwh om
er ing
Ġrem ain
Ġseem ed
Ġb us
O R
. ;
Ġke ep
Ġbe aut
Ġt ru
C h
Ġf in
1 3
o ice
i o
Ġt aken
i am
Ġre al
Ġ1 5
Ġf r
u red
ur al
one y
Ġop en
e y
ren ch
a pe
Ġ es
ch ool
Ġb re
Ġen ough
Ġt re
Ġs il
und red
ĠA t
Ġgiv en
Ġh or
am es
Ġre ce
T HE
Ġwh ite
us ed
iz ed
orn ing
ar ing
Ġs ays
' ll
ir c
Ġqu ite
Ġl aw
al th
Ġsu ff
ot t
an ces
Ġk new
ol og
Ġor der
Ġp ol
Ġf ull
s c
ard s
N o
Ġof ten
f ect
ĠD e
ac hed
ĠS p
f ort
Ġbe h
per i
Ġc or
a x
Ġv ar
Wh at
E N
Ġhel p
u c
f ully
Ġin de
Ġo pp
Ġm od
a im
ou l
re en
red its
Ġpro v
ĠF or
Ġsomet hing
Ġp ri
i ent
, âĢĶ
Ġad m
est ion
ot e
ĠN ew
) .
The re
Ġg ave
C redits
Ġst ud
Ġ 9
Ġcon st
1 0
Ġ1 6
Ġ2 0
Ġs ince
ress ed
ĠC om
Ġd irect
Ġa uthor
at ure
Ġbr ought
ter n
pe nd
Ġdo or
ist s
Th is
act er
Ċ Ġ
2 0
ĠCh rist
Ġp rom
Ġme m
Ġm et
Ġ1 0
Ġk ing
ĠO n
o int
s on
ir d
ĠĠĠĠ ĠĠĠĠ
T ER
ĠP ro
Ġtr ans
Ġp res
Ġne xt
Ġde ath
Ġst ate
Ġpl ac
Ġother s
C H
ic es
Ġ est
Ġpro p
cc ess
Ġwho se
Ġf all
ĠW hen
h im
em pt
i i
Ġr ound
ren ce
er t
Ġ [
ent y
ĠT HE
Ġe ffect
Ġfe et
S he
Ġ ide
Ġhe av
ran ge
Ġ &
Ġab ove
Ġsh ort
Ġkn own
Ġr ather
ic s
Ġne cess
Ġl o
Ġd ark
sh ip
the y
ĠP r
u se
an n
Ġimp ort
Ġr un
Ġh undred
er m
u ck
Ġst ory
we re
ove red
Ġ ill
h ave
Ġal ong
Ġwor ds
ĠEng lish
Ġd uring
ent le
Ġc ase
ĠThe n
M r
a it
1 2
o ke
ĠL e
Ġsec ond
ĠS o
un t
Ġv al
ĠB r
Ġsub ject
Ġs ix
ĠM iss
Ġm orning
Ġsu n
av es
le y
un e
an e
Ġbe gan
Ġcons ider
ĠO F
Ġle ad
Ġto gether
k ing
iv ing
k en
at s
ĠL ord
Ġstr ong
Ġme an
Ġcan not
Ġre qu
ain t
Ġthem selves
is ter
Th at
Ġs ign
i vers
Ġsp ir
y ing
Ġchild ren
re ady
p ar
g y
Ġturn ed
Ġs le
Ġpo or
et y
ver al
o le
ill ed
ow ing
Ġa ff
Ġex pl
w ell
s he
al ity
Ġa ir
v al
Ġcl ose
Ġth us
w here
Ġsu re
Ġme ans
Ġh on
Ġs ing
r ance
Ġto wn
ĠF rench
ĠC or
Ġd oub
ĠP ar
Ġp ar
ĠN o
Ġwor d
ĠC l
th ough
Ġf ire
Ġgr ound
T o
Ġdiffe rent
Ġb ody
th is
a j
in ci
ount ain
ation al
ous and
ĠB e
Ġst art
Ġt ill
iz e
Ġsu m
Ġre ason
in ation
ĠW ill
ou d
Ġpro per
n ment
Ġl ay
Ġgener al
Ġtru e
qu e
Ġe as
as ure
Ġf elt
Ġcomp le
if ul
Ġ Q
ang er
r ing
Ġc irc
Ġm oney
Ġ1 2
Ġh old
Ġm ark
Ġf a
g es
Ġc oll
Ġt imes
ĠT o
Ġw ond
S t
Ġnum ber
Ġwith in
Ġde v
A P
ne y
Ġp ublic
ĠEng land
Ġf ur
st er
Ġme et
Ġm us
Ġ1 4
em ber
Ġhis t
Ġob s
in ing
Ġchar acter
wh at
ĠN or
Ġbl ack
itt ed
Ġs on
Ġspe c
re am
ic ular
Ġs we
b ers
o or
W hen
Ġe qu
li ke
Ġd iv
. )
Ġse veral
A T
Ġde ep
A s
Ġpro f
en n
ĠC on
Ġd r
Ġe le
c he
er man
Ġsu ccess
it ions
Ġpass ed
Ġwom en
as ion
Ġw ife
Ġp ain
ĠSt ates
Ġv iew
Ġapp ro
ĠK ing
Ġs ol
u es
the ir
st em
' d
ar ch
e k
Ġre pl
Ġm er
Ġa w
Ġv oice
le t
the re
ĠS h
the m
Ġappe ar
Ġle ast
ĠP h
Ġex am
id ence
Ġoff ic
av ing
Ġnat ure
Ġcomm on
pp er
Ġh ope
ĠE d
Ġst ood
ĠC o
Ġcon c
c ing
Ġse a
Ġsh ip
Ġmy self
Ġp ort
Ġhum an
g er
Ġst ru
u ed
Ġd ri
Ġin cl
Ġ1 3
f act
Ġt en
Ġbelie ve
ci ous
al t
Ġg entle
Ġp at
on es
Ġob ject
Ġw ood
Ġv ol
Ġear th
ĠWh at
Ġw rit
Ġhe ld
vel op
b s
Ġs chool
ow ers
Ġab s
Ġfam ily
ar m
Ġre d
is ing
ĠS ir
ord ing
A L
ry ing
as es
Ġc ut
Ġf ree
Ġdoub t
c o
O h
Ġth ousand
ĠB rit
ĠI s
ĠS c
ar r
tain ed
Ġf re
Ġqu estion
w er
Ġe ither
ĠTh at
Ġl ine
ri e
on y
Ġde ar
F or
Ġin f
Ġacc ount
ĠH ow
Ġen g
Ġit self
ĠA d
Ġcle ar
Ġc ity
Ġp ract
ci ent
Ġ ir
il ed
s ide
Ġar ound
Ġper haps
Ġp ap
ot s
Ġm ain
ĠA ll
e or
Ġany thing
Ġal ready
Ġb ed
Ġm aking
Ġbe gin
The y
ious ly
id d
is ion
are nt
Ġf ive
ect ion
I f
in a
Ã ¦
ri gin
Ġposs ible
o es
Ġspe ak
Ġp ast
Ġb ar
2 5
Ġear ly
or m
Ġc e
ess ion
Ġbec ame
A n
re g
ou ra
Ġbus iness
o e
Ġro ad
ber t
00 0
Ġher self
am ent
Ġf air
ound ed
Ġgo ver
att le
Ġde f
re m
ain ed
Ġst ra
cri pt
ĊĊĠĠĠĠ ĠĠĠ
Ġres ult
c ul
Ġthere fore
Ġg one
Ġpur p
th s
Ġl ater
d den
ress ion
Ġbec ome
Ġan im
w o
i ver
te red
Ġr u
I S
w ould
Ġf ear
ust r
Ġspir it
Ġhe ar
Ġb ra
im ent
Ġbr ing
re l
âĢĶ âĢĶ
Ġw all
O n
Ġres pect
ot ion
ll ed
st r
Ġs it
Ġt em
Ġc a
air s
ener al
he ad
iss ion
Ġex pect
Ġal one
Ġdif fic
us h
Ġpro b
Ġpr ot
ri es
Ġf av
Ġb ur
Ġf oot
v ol
Ġrem ark
Ġfollow ing
Ġ ve
Ġf ine
Ġre els
wh o
i ar
Ġ X
. [
h am
Ġunder stand
Ġfriend s
ict ures
Ġt reat
led ge
ĠC ol
augh ter
ĠH er
Ġsu dden
fl u
Ġper fect
Ġl ive
c r
Ġt alk
Ġde ad
Ġle ave
i us
Ġgo ld
Ġpr inci
er ved
med i
Ġex c
ound s
Ġl ow
Ġo rigin
Ġbeh ind
2 3
il t
Ġl ost
Ġe ff
in ter
it er
Ġlet ter
b and
Ġle g
2 4
Ġab le
Ġm is
' m
se qu
Ġinde ed
g o
Ġex cept
u nder
au ght
ra ph
ort s
pl oy
Ġar ri
ond on
e ad
Ġman ner
Ġd ro
or row
ĠB l
in ct
Ġpart icular
Ġm ove
itt en
ro om
ĠCh ar
ri but
or k
Ġl ab
Y es
Ġd est
b o
it al
Ġri ver
if ied
Ġch urch
Ġsh ow
ou ble
u ct
Ġcomm and
Ġm ed
Ġs oul
Ġhor se
Ġf ig
Ġsy stem
ic ally
om an
Ġbu ild
Ġwhe ther
ĉ ĉ
Ġseem s
m p
Ġbr other
b ody
Ġmil es
Ġfor t
Ġke pt
Ġtw enty
in ary
ang ed
ĠIn c
Ġreg ard
as k
Ġre ally
it ude
ci ally
A t
The n
ant ly
l f
Ġle arn
Ġso ld
Ġfr ont
Ġor d
en cy
en ces
. '
m and
Ġp ay
Ġcl ass
Ġde cl
ut es
L E
i um
i od
iv id
Ġwh y
id ge
u ght
Ġv ill
ĠB y
Ġto wards
Ġac ross
R E
Ġe t
o red
l ight
e b
Ġme re
Ġj ud
w hen
ĊĠĠĠĠ ĊĊĠĠĠĠĠ
W ell
Ġc al
o ly
m ore
f ace
c le
Ġbeaut iful
Ġcom ing
Ġrece ived
Ġp ie
M y
ĠCor p
p re
Ġw ild
Ġnear ly
ĠG r
Ġtr uth
y n
AP TER
Ġrepl ied
Ġb es
Ġnecess ary
r on
we red
Ġl ist
Ġex peri
z e
u ff
3 0
ran k
Ġb ene
ust om
Ġde velop
H ow
p ed
ĠM y
c ent
ĠAmeric an
Ġqu ick
Ġch ief
Ġl a
Ġ ut
Ġocc asion
Ġth y
eor ge
w ill
) ;
Ġl ady
Ġa v
L P
' ve
Ġc ried
Ġst ri
us band
Ġm ag
p ri
al d
IN G
c ome
n ight
Ġy e
Ġlook ing
I T
Ġc ross
N D
itt ing
ĠThe se
Ġpr int
ear s
Ġex ist
op s
um e
Ġent ire
Ġbl ood
Ġw ish
ther n
c ons
Ġacc om
ill s
ĠO ne
Ġc old
O U
irect or
Ġinc re
d om
Ġrep resent
ĠG erman
ĠWill iam
ir m
Ġsomet imes
Ġst ep
Ġvis it
Ġp osition
or ies
Ġf if
our s
Ġa ge
Ġcomm un
i or
il m
Ġnat ural
ĠP l
ad d
Ġb it
nd ed
Ġf ield
Ġc ause
se m
h ow
Ġwond er
2 7
Ġb ir
ur ope
Ġar m
f er
Ġex cl
i ers
ĠC ar
og n
Ġw ait
Ġcar ried
c er
em ent
Ġc reat
il s
Ġdra w
Ġel se
Ġm ountain
S o
the n
Ġd ut
l ook
Ġb ad
Ġb ig
Ġper iod
Ġfollow ed
Ġr an
Ġt y
at he
Ġwor th
it le
Ġ2 5
ru ct
s ome
be en
Ġfur ther
ir t
ag ed
em y
Ġreturn ed
Ġh ar
Ġhist ory
ang u
res h
CH APTER
p ort
Ġp op
at ic
2 8
Ġs ight
ĠF rance
eng th
d is
Ġt able
b ur
ĠW ith
pl es
Ġh ur
Ġimport ant
pe cially
Ġpl an
y ond
Ġem ploy
Ġans wered
Ġrel ig
2 6
Ġro ck
Ġac qu
Ġdis p
Ġfor ce
est ed
p art
Ġan n
I L
Ġs ense
Ġre ady
is es
m in
Ġpri v
y l
U n
al es
Ġide a
ro du
ci ety
Ġp ost
Ġhour s
b it
ĠD r
Ġt ou
e v
ĠL ondon
Ġf ail
2 9
id ing
t r
I nd
a f
Ġc ast
Ġpurp ose
Ġe ight
.. .
Ġh ig
Ġes c
ĠC ap
er ve
ĠM ay
g l
c an
ous ly
ĠBrit ish
Ġeven ing
Ġf ac
g u
Ġ2 4
Ġpre t
en ing
n a
Ġin flu
al ked
us ion
Ġha ir
ur s
f ord
Ġo per
Ġswe et
Ġs ort
1 1
ĠR o
h ouse
W ith
Ġw on
g ot
l s
Ġl im
Ġre ached
Ġar ms
Ġfa ith
Ġth ou
Ġl ate
âĢ ĵ
ri age
i res
j oy
Ġso ft
r ough
ct or
Ġ Z
k n
ĠD irector
m it
ive ly
Ġl ed
Ġh ot
ĠE x
ĠH ar
ater ial
bl ed
igh b
Ġch ange
Ġbre ak
Ġpe ace
Ġset t
Ġhe alth
I C
Ġh usband
a ul
Ġatt empt
an ced
Ġop in
Ġl iving
Ġar my
ce ll
Ġpart y
Ġim medi
in n
Ġsupp ort
Ġl ad
aim ed
at or
am ed
Ġf ood
if t
ect ed
Ġm aster
a ff
am s
Ġpl ain
ap pe
r al
ĠE urope
ach ing
Ġt aking
Ġknow ledge
Ġsle ep
Ġim ag
i ol
idd le
o x
Ġc orn
re ct
Ġserv ice
Ġde al
Ġd anger
Ġadd ed
o ved
Ġcomple te
form ation
ing ly
Ġ .
ill e
ivid ual
Ġs ound
Ġst range
ci ence
Ġto p
Ġprob ably
Ġfor mer
for med
Ġey e
iv il
Ġor gan
ell ow
o on
ĠL P
5 0
Ġqu ar
ul ation
Ġlong er
Ġpr ay
Ġf ight
Ġl atter
Ġappe ared
Ġans wer
Ġvar ious
Ġth ick
, '
t ime
Ġse lf
p an
h ood
Ġm ist
Ġbe yond
ĠM ad
Ġacc ording
te en
Ġqu iet
Ġw atch
Ġd ied
h and
Ġnor th
Ġl oc
c ol
Ġcon n
eth od
fe rence
Ġdet erm
Ġw alk
Ġa ffect
O M
ess ed
Ġ ver
Ġplac ed
Ġdo g
re et
in to
Ġas k
Ġ3 0
Ġsl ight
pl ay
Ġo ught
Ġst ay
a fter
d o
h y
Ġocc up
ar row
if f
Ġf un
Ġ2 8
Ġpre p
ĠG eorge
g ing
up on
Ġl ength
ou p
Ġw ide
Ġsat is
Ġs ir
il ing
Ġc ra
Ġest ab
ord s
ĠA fter
Ġsu gg
ab out
c ount
Ġd a
os es
ĠE l
Ġcom es
se t
Ġo bl
M ar
Ġc amp
Ġfor ward
r or
of f
Ġt itle
Ġ2 6
A l
th an
Ġ2 3
Ġpro ceed
ĠUn ited
Ġsl ow
Ġgr ow
A ll
Ġcontin ued
E L
Ġpro cess
Ġw it
r s
c ont
l er
Ġg reen
E D
Ġt ro
Ġde g
it ary
Ġs qu
Ġboy s
ĠY ork
est s
. âĢĻ
Ġcour t
ex t
it or
um st
Ġsc ar
ĠO r
Ġ2 7
I ON
Ġapp l
Ġa ction
' re
Ġpol it
Ġse nd
ers on
oss ible
Ġal though
Ġg ard
Ġwr itten
ru pt
ac her
ĠM an
ous es
Ġc re
e e
Ġto ward
ix ed
am m
Ġatt ention
Ġatt ack
et er
Ġfor th
Ġsec ret
S T
.. ..
ac y
u ke
ors es
d es
Ġpart s
g ar
ĠN ow
Ġsur pr
Ġf ast
ut ure
Ġdes ign
Wh y
Ġh y
ide red
i pp
Ġu nd
i ke
Ġpre v
N ow
ic ation
Ġmus ic
Ġem b
Ġres p
ir ty
at a
ĠPh il
ĠA ND
il ar
Ġj o
Ġgr and
âĢ ²
Ġag o
n or
ĠF rom
h a
Ġw at
w ise
os p
he l
Ġm akes
p id
Ġgreat er
i ence
h as
Ġro se
Ġfell ow
ri ll
Ġtre es
as ant
og raph
um ent
Ġstre ng
in ner
ag er
O f
Ġdid n
Ġb right
s y
Ġes pecially
ĠH en
Ġdiffic ult
olog y
p or
Ġph ys
p ly
Ġj our
ĠA b
ĠF l
Ġint ell
Ġl aid
et t
ast e
B e
Ġpr ison
r ay
oo se
Ġcomp any
al y
j ust
Ġhapp y
Ġm ur
Ġqu e
Ġs al
Ġgl ad
ĠA m
ort un
Ġgover nment
Ġne ighb
us hed
ist ed
Ġm or
um p
A M
ĠB ar
ro ad
Ġc ost
Ġimp ro
ad ed
u ous
Ġs ens
Ġm ass
Ġind ividual
Ġt ree
tend ed
ĠUn ivers
Ġfeel ing
Ġevery thing
wor k
ad es
Ġp en
Ġval ue
Ġj oy
Ġ Â
Ġs outh
Ġdes cri
ĊĊĠĠĠĠĠ ĊĊĠĠĠĠĠ
Ġg un
ab les
Ġb reat
Ġrem ember
Ġm aterial
ĠN ot
Ġdist ance
Ġbel ong
c ould
ru ction
Ġ er
ĠAmeric a
Ġr ich
Ġm ention
Ġ2 9
Ġcomp an
A r
Ġbel ow
Ġl angu
Ġs ac
Ġsuff ic
en ess
Ġre el
Ġp al
Ġpret ty
ict ure
Ġpap er
Ġen joy
wh ile
ĠPar is
Ġgener ally
r ict
Ġdo ing
im ate
Ġmin utes
um b
u ation
aj or
s m
B y
g reat
Ġfre qu
ap t
s pe
Ġan t
er c
: âĢĶ
ĠE m
Ġthe e
iet y
Ġrec ogn
2 2
Ġdel ight
ĠC an
Ġcon cl
Ġcon v
Ġmon ths
Ġde mand
ot ed
se c
Ġsudden ly
O L
Ġac cept
iz ation
Ġre pe
g ress
ĠT r
ire ction
N ot
ve re
Ġd aughter
ĠM P
n ed
Ġsupp ose
ĠM ary
Ġis land
Ġwe ek
i k
ou red
Ġcent ury
M ay
over nment
it ution
Ġd ream
Ġg en
Ġheav y
Ġl ived
it ive
Ġsp oke
ish ing
Ġed uc
ent h
n y
Ġin qu
Ġcon tain
b es
Ġsing le
ĠCh urch
H is
ĠG u
e ch
Ġcom fort
ĠP er
ate ver
Ġbl ue
3 5
Ġ i
m ing
ĠChrist ian
Ġc ry
s aid
it able
i ant
ĠD o
r id
Ġcont r
so ci
ug ust
c ar
ĠJ ack
pl ace
Ġc row
Ġc over
Ġcond uct
Ġbro ad
kn own
Ġc oun
ist ic
Ġcom pl
Ġbo at
in al
ĠNor th
Ġcon sequ
Ġexperi ence
Ġdes p
re me
Ġbe ar
e an
all ed
ag ain
3 6
ch ar
Ġsu per
Ġcertain ly
e ks
ĠP e
un k
Ġincl ud
p ass
e ge
Ġen c
Ġop ened
Ġsay ing
Ġe lect
Ġopin ion
Ġn one
Ġfor med
ĠHe re
ra ce
an cy
Ġf uture
on el
Ġcirc umst
sh ould
h ab
m ber
F rom
Ġrep ort
Ġwant ed
b re
Ġc overed
ĠL a
Ġplac es
Ġvill age
ch ing
ant ed
l ong
Ġbec om
Ġc ustom
Ġm ethod
w ood
o pped
3 4
Ġth ird
ne ver
o v
Ġt ried
Ġinflu ence
Ġm id
ro p
er gy
Ġent ered
h old
o k
Ġm outh
Ġst one
Ġpers ons
ro y
Ġpo et
s pect
ĠG eneral
os op
Ġsa fe
ĠH ouse
om en
3 7
Ġse par
Ġdut y
or ough
O ne
os ing
ll ing
rie f
Ġbeaut y
Ġb attle
Ġf le
all ey
ce ly
bl ing
c il
Ġres ol
Ġf resh
Ġen emy
Ġdep art
Ġstud y
om as
Ġsur face
Ġcom b
ro l
ue en
b ack
ĠInd ian
Ġcond ition
oura ge
T H
Ġch ance
ĠJ u
Ġwind ow
Ġgentle man
Ġbr an
il es
Ġsim ple
I s
ĠS ome
, [
ĠJ ames
re y
es sel
Ġpre vent
Ġh orses
2 1
Ġl ower
Ġeas y
ĠI N
Ġc ru
se e
Ġd en
gg ed
Ġan cient
ĠSt ate
Ġeas ily
Ġan x
c ertain
Ġb ott
Ġremain ed
Ġcons idered
Ġwr ote
Ġs n
Ġd ue
al ed
Ġ Ã
Ġb urn
bl es
Ġa f
o id
h ib
Ġsum mer
ĠS m
c ceed
b et
ru it
Ġt ry
v iew
Ġfam il
Ġspe cial
ri g
our t
is k
Ġc ult
us es
3 8
Ġappear ance
ĠCap tain
c her
Ġex act
ĠF ilm
Ġp ot
um n
st on
ve y
om in
b el
ap ed
Ġl ines
on ly
Ġv ict
Ġocc ur
t wo
Ġstart ed
Ġso cial
Ġof fe
Ġgirl s
Ġlet ters
Ġne ither
ict ion
ed s
as hing
Ġd ress
Ġv essel
l o
Ġ x
Ġl iter
ic ate
Ġsh ore
ing u
Ġl augh
ĠD av
Ġ19 15
Ġb ound
Ġwar m
Ġsa ve
it ation
Ġm ine
ash ion
Ġimmedi ately
Ġtr ust
Ġbro ken
Ġe at
Ġg ame
Ġspec ies
Ġwork s
ick ed
ra id
ul ty
ĠSp an
ĠP ictures
Ġse ason
Ġstreng th
ic ed
res p
ĠC ount
Ġmod ern
Ġam ount
Ġm ill
Ġd irection
Ġf urn
em s
ĠS outh
Ġnot e
S h
Ġ ess
Ġcl ot
to gether
II I
oint ed
ail s
Ġbegin ning
Ġter ri
Ġh op
Ġoff ice
ĠC oll
Ġple asure
Ġdes ire
nd ing
ĠChar les
ĠR uss
ish op
Ġn arrow
est y
u x
ĠW est
Ġint rodu
Ġd i
R e
au g
Ġcon ce
Ġfig ure
ĠQ u
m ade
er ous
Ġa ut
Ġc ivil
re ed
Ġf at
Ġb as
Ġme ant
4 0
3 9
âĢĶ "
ĠG reat
ar ies
st ood
Ġv iol
, âĢĻ
Ġsp ring
ĠO f
Ġstand ing
it es
Ġafter wards
Ġhard ly
Ġinst ead
ĠL et
Ġcon vers
Ġbu ilt
ent ial
ĠD on
ĠL ady
ĠL ou
en ced
f ield
Ġbook s
Ġm ot
b ar
th rough
Ġus ually
ĊĊ ĉĉ
Ġin n
de red
Ġp ubl
ĠT om
Ġgiv ing
Ġcar ry
Ġp ress
Ġsub st
Ġext ra
Ġart ic
Ġra pid
p any
Ġpres ence
Ġp aid
R O
cript ion
Ġw a
Ġw inter
Ġne g
E T
Ġopp ortun
m ay
Ġent er
Ġwe ak
ĠS te
ip s
Ġadv ant
ĠHen ry
m n
Ġan g
no on
il osop
Ġbr own
Ġb orn
Ġt est
Ġwr ong
Ġh ung
ac ed
ab ility
Ġget ting
Ġc ases
Ġg od
Ġorigin al
be fore
Ġarri ved
pp ing
ic ated
Ġs ister
Ġde fe
ib ility
m a
Ġf illed
Ġu ne
Ġl ie
ac es
Ġentire ly
Ġsim ilar
Ġra ce
A S
Ġstra ight
ib ly
cul iar
Ġpie ce
r ish
in ite
ĠF ran
Ġhapp ened
ut ed
n al
Ġsu cceed
Ġde pend
ĠW ell
Ġre du
Ġobs erv
Ġp icture
Ġin formation
A fter
wor th
ist ance
Ġco ast
Ġtr ouble
l ittle
e very
Ġcap t
Ġsh ar
w ing
ar ily
I V
Ġexam ple
ust ri
d ra
Ġbo ard
Ġmere ly
Ġso ciety
Ġgiv es
l ine
re es
Ġli ber
Ġsp ot
Ġprint s
Ġ18 6
ĠA ugust
Ġir on
ang es
ol ute
Ġperson al
A D
Ġle aves
Ġimp ossible
Ġg all
Ġgl ass
Ġs d
Ġc at
Ġdr ink
Ġl ives
as ing
Ġd ie
Ġse ven
e ven
d own
ess or
is c
Ġlangu age
Ġexcl aimed
Ġra ised
ĠWh y
ĠN e
oy al
Ġm iddle
ĠC al
Ġexp ress
d ed
Ġfor ms
EN T
Ġtem per
ly ing
u ge
Ġl oss
Ġp ure
le x
ir ing
A C
est ions
oll y
ĠQ ueen
Ġli ps
Ġall owed
as p
Ġinterest ing
ĠPro du
Ġm ad
Ġar ch
Ġyou th
Ġfore st
if y
Ã ¨
Ġs ong
Ġ1 1
ĠW ar
Ġmag n
m ission
ree k
Ġsur r
o om
Ġs and
Ġb ank
Ġp un
Ġhig her
u el
Ġthink ing
z en
p al
Ġbuild ing
Ġ ii
Ġmo ved
U R
b ing
ĠI I
y le
Ġmem bers
j o
z z
Ġsome what
l in
Ġ ign
Ġout side
Ġknow s
es tern
el ve
Ġyour self
Ġso le
I R
Ġsp read
Ġc aught
g ment
m ar
Ġgard en
Ġc rit
Ġgreat est
ĊĊĠĠĠĠĠĠĠĠ ĠĠĠĠ
Ġus ual
and er
cl ock
Un ited
ose ph
Ġh ost
Ġsp ace
Ġheav en
Ġpriv ate
ol ic
Ġdo ll
Ġdisc uss
Ġp ath
ĠA g
ĠO h
L et
m uch
he st
t ra
Ġhe at
Ġlearn ed
ag ue
Ġb an
C l
ĠJ an
Ġjour ney
Ġsp o
f ast
l or
Ġquick ly
Ġh ast
Ġgra ce
D on
Ġle aving
Ġd inner
our se
the se
b ly
Ġobs erved
m itted
Ġslow ly
Ġdes cr
ang ing
Ġreg ular
Ġk illed
Ġtr ade
ar l
Ġsc ene
Ġh at
Ġaf raid
Ġw is
Ġext reme
Ġcond itions
Ġprodu ced
be red
Ġsh own
Ġh ouses
ĠJ es
ou thern
Ġre ach
Ġwork ing
g en
Ġw alked
Ġwall s
Ġb all
r am
Ġtra in
Ġgu ard
4 4
D o
Ġ $
Ġsm ile
Ġd ry
Ġmar ried
Ġexpect ed
Ġex cell
ain s
Ġproper ty
Ġc up
ĠP res
Ġw est
Ġf ra
Ġoffic ers
ĠM c
Ġchar ge
ill y
in c
Ġcl aim
am b
o cc
Ġgr ad
o is
Ġd rew
Ġth irty
Ġbir ds
Ġfl oor
ĠR ich
Ġsh ad
av en
Ġs now
ent al
Ġexp ression
Ġapp arent
Ġex ec
Ġsil ver
Ġm ach
Ġmin ute
Ġf ing
Ġmeet ing
Ġlike ly
Ġt end
Ġobl ig
a ult
Ġpe culiar
Ġgo es
Ġc it
Ġra re
id s
ĠTh omas
ĊĠ ĊĠ
O T
ĠR ep
Ġsh ot
t ic
ĠP ort
Ġdec ided
aug hed
Ġc op
Ġp ull
ock ed
gy pt
Ġp et
Ġdist inct
ch ange
Ġe gg
Ġth in
Ġsh owed
ĊĊĠĠĠĠĠĠĠĠ ĠĠĠ
Ġf irm
Ġ2 2
s uch
Ġn ation
Ġcircumst ances
g ood
Ġanim als
Ġsupp osed
resp ond
Ġp ale
Ġre vol
ĠP aul
Ġst opped
3 3
ct ions
Ġr ise
Ġle vel
Ġm ess
ĠG overnment
Ġ *
Ġwr ite
lect ed
p et
os ite
Ind ia
Ġstre et
cept ion
Ġoff er
W here
be c
Ġy ellow
um ed
Ġlo ved
Ġconc ern
Ġdisc overed
i qu
L e
Ġs ize
Ġanim al
Ġch ap
Ġadd ition
Ġex per
Ġfl owers
Ġ18 7
ific ation
ke y
I G
Ġconsider able
be ing
ĠC he
h app
Ġv irt
Ġgr oup
l ished
le nd
Ġfore ign
s k
e ed
Ġnew s
Ġnot ice
Ġappe ars
Ġy es
Ġwh atever
per or
p resent
Ġet c
Ġf ool
Ġtro ops
Ġwh is
s l
Ġfif ty
Ġstru ck
Mr s
Ġbo x
H er
Ġev idence
Ġtr ad
Ġstru gg
m b
y our
Ġc ou
f ied
a i
olog ical
Ġfor get
n at
Ġb read
Ġapp re
Ġrequ ired
ens ive
. ]
Ġl if
ie ve
Ġl ord
Ġg rew
ord er
Ġgr ass
Ġdeg ree
r ation
Ġdra wn
m end
he art
v ille
an c
ĠS am
qu is
ock s
k es
Ġs ick
Ġnat ive
in y
ck s
ff ic
Ġ19 16
ĠS w
at ures
ĠSe e
p g
Ġpolit ical
Ġme l
k now
Ġdist ingu
Ġfav or
i ally
Ġsee ing
ĠS u
Ġ ur
Ġcle an
ct s
Ġmon th
ĠJ une
im p
i que
w ater
Ġat tend
Ġde li
Ġgra ve
Ġlaw s
ol es
Ġp ra
im ents
He re
Ġpro gress
iv ity
Ġst op
ĠC r
Ġsp r
av al
ail ed
Ġph ilosop
W ill
P h
pri l
Ġafter noon
Ġre ve
it ch
ish ment
as c
ut ions
ud ed
fort un
k ind
Ġw ays
f it
le g
Ġen v
l ar
um ents
d ing
Â °
Ġesc ape
i ently
Ġh ill
Ġmar riage
hab it
Ġbe g
Ġstre am
Ġqu ant
ĠG l
es e
Ġd u
Ġsil ence
le ment
Ġar g
Ġrun ning
f irst
Ġinst ance
Ġru le
um ber
Ã ¢
Ġas soci
Ġl aughed
Ġut ter
Ġr id
Ġno ble
ĠW or
Ġscar cely
Ġr ul
Ġd im
Ġ18 9
ent ed
Ġpl ant
h ip
Ġpass ion
E ng
Ġob tained
Ġch air
b ook
Ġhe ight
b on
ic o
Ġpro ble
Ġe ast
Ġexist ence
Ġthought s
Ġl ot
Ġex erc
ĠO ct
Ġk ne
ĠLou is
Ġwe ight
land s
Ġf ish
an cing
Ġsuffic ient
Ġs our
th ought
C om
ant ic
Ġfor got
Ġprep ared
ll y
Ġs ad
are r
Ġintell ig
ĠM on
Ġadm ir
Ġbe at
Ġev il
ĠF rank
Ġh all
n est
or ing
od ies
Ġt ears
Ġc ook
6 0
Ġm iss
Ġsit uation
Ġs alt
Ġequ al
Ġtra ve
m ight
um ph
ĠR oman
s ur
Ġsp ent
Ġm otion
Ġ19 14
ĠJu ly
Ġu pper
Ġf it
as ures
Ġord inary
Ġoffe red
Ġpass ing
Ġst ar
ir gin
Ġbreat h
m od
Ġte nder
ac c
S E
oun ced
ĠMar ch
Ġn ames
Ġsold iers
Ġill ustr
Ġha bit
Ġt rying
Ġsm o
4 5
tern al
J ohn
Ġs itting
Ġbes ide
Ġs ides
Ġon es
ĠJ e
Ġrece ive
Ġpur su
Ġp a
Ġsk y
Ġwait ing
Ġd er
n ce
u fact
Ġp ictures
Ġdeterm ined
Ġin j
in st
Ġf al
Ġrelig ious
Ġb ase
Ġbelie ved
as ons
Ġimport ance
Ġs in
ĠC ong
Ġh un
Ġwrit ing
Ġp arent
with out
ĠB o
ĠS ch
Ġt akes
Ġpop ular
ĠSm ith
id ently
i en
l aw
at ory
Ġdevelop ment
Ġg az
Ġper form
Ġsim ply
ĠT ur
ra p
Ġauthor ity
st one
Ġhe ro
C on
Ġf em
I D
Ġ18 8
Ġeduc ation
Ġb ird
ur ally
Ġpoint s
Ġbro ke
Ġd am
Ġpro ved
Ġrec ord
n ers
Ġpr im
in ent
at ors
Ġsc en
Ġmove ment
Ġrelig ion
Ġstep s
Ġf ol
Ġb and
Ġopportun ity
Ġdo ctor
ak er
Ġpass age
i as
Ġc ell
Ġdecl ared
vent ion
Ġm ut
Ġb ow
Ġsy mp
Ġread ing
ĠS an
Ġfact s
Ġle ar
b u
th ose
Ġall ow
A Y
Ġship s
Ġtw elve
f our
f ound
Ġtou ch
f ric
Ġst ock
b ro
Ġfin ally
am a
O r
Ġcorn er
at tered
v is
Ġf ro
3 2
ĠTh us
Ġt one
ĠE very
ak ed
ĠThe ir
Ġ id
Ġord ers
m ust
Ġabs olute
em ed
Ġp ack
ch n
ĠB ur
hen s
aster n
Ġmil itary
Ġe vent
ĠM or
3 1
Ġf ashion
iz ing
Ġwit ness
al ian
be y
Ġf ully
r ate
om s
ĠW all
Ġ2 1
Ġser ve
Ġdest roy
Ġc ab
su b
Ġadvant age
Ġoffic er
Ġsa il
Ġfav our
Ã ¡
ore s
Ġsa v
p ir
Ġad op
ĠE gypt
f ive
Ġim m
Ġk ill
Ġmo on
Ġun less
ĠRo bert
Ġinv est
am ber
er al
Ġser ious
r is
ĠInd ians
ĠSpan ish
Ġperfect ly
ll s
Ġmark et
Ġme asure
Ġf ixed
Ġposs ess
Ġpubl ished
e av
f ather
Ġsh out
Ġlead ing
ic ip
Ġatt ract
ĠH all
Ġear li
Ġch anged
if fe
ul ated
Ġc red
Ġf ruit
ul s
Ġcr own
ĠSe pt
ap h
Ġs ch
4 8
Ġd read
Ġe p
The se
Ġnum erous
e en
Ġd iam
le br
ĠJ oseph
ĠI rish
Ġcap tain
Ġ4 0
Ġwe eks
Ġca used
d id
A d
Ġcur ious
a uthor
Ġs cience
ĠR ome
Ġdescri bed
Ġmention ed
Ġsp ite
peri or
ĠĠĠĠĠĠĠĠ ĠĠĠĠĠĠĠĠ
ast ic
Ġter ms
Ġe ager
iv al
ist ory
o ber
Ġmountain s
Ġdiffic ulty
ed y
te e
ĠM e
O W
re c
at ives
Wh o
re r
us ing
ir on
u ary
Ġse arch
Ġra in
gr ound
Ġmean ing
Ġfrequ ently
ĠD uke
Ġpie ces
F ig
m as
id den
il ities
ĠJ ew
pe red
od e
Ġsp lend
Ġst age
ĠM er
ep ing
him self
Ġde b
Ġap art
ĠC ourt
ad ing
Ġmem ory
Ġv ast
Ġple asant
ĠS y
Ġst yle
Ġ19 0
Ġra il
ĠBr own
Ġen ergy
Ġb ill
i os
Ġne ck
ce ived
or se
Ġlad ies
Ġloc al
Ġple ase
ch ief
ac hes
Ġrem em
or ation
ul ous
Ġpr ice
Ġhist or
Ġst ation
Ġremain s
l ife
m orrow
Ġw id
a is
ce nd
Ġbene ath
it ing
Ġhon or
c is
Ġth orough
Ġopp osite
ct r
Ġcare fully
Ġfar m
ĠS T
Ġcl osed
ci p
P r
Ġturn ing
Ġexcell ent
Ġeng aged
Ġemploy ed
Ġbott om
Ġcap ital
Ġpro ject
Ġparticular ly
stand ing
f riend
an a
Ġdist rict
Ġrel ation
Ġinv ol
con om
Ġv ent
v o
Ġprodu ce
AN D
t w
Ġst at
4 7
ĠP al
Ġcons cious
m ond
Ġmatter s
Ġsatis fact
ĠSc ot
Ġn amed
Ġcur rent
ad a
ĠB er
ur ity
Ġw ise
er ted
ret ched
Ġinte nded
Ġev ents
age ment
Ġm aid
Ġ |
ĠC ath
Ġro y
u able
ic y
ĠR iver
ic ious
Ġtra vel
ar a
ĠA pril
Ġrepe ated
Ġc and
Ġjust ice
ĊĊĠĠĠĠ ĠĠ
or a
i ation
Ġsu sp
Ġeff ort
ĠY et
Ġport ion
D e
Ġwe alth
Ġfor ty
Ġty pe
c ies
Ġun to
Ġcol our
Ġpract ice
X X
Ġshar p
on ed
Ġcol or
Ġadv ance
ap an
G E
Ġwe ather
Ġestab lished
a ud
Ġser ies
J an
Ġlook s
Ġk iss
e per
as hed
Ġob tain
ver se
Ġprop ort
E x
ĠS ec
Ġour selves
Ġpo ck
Ġconvers ation
Ġestab lish
ur b
Ġ Ċ
ashing ton
m other
ĠSt reet
ĠE ven
Ġso il
b ell
is ters
Ġv an
th ree
Ġth reat
pe l
Ġdraw ing
Ġspe aking
Ġp os
Ġse x
D ec
ĠCol onel
Ġaccom pl
Ġremark able
in te
s omet
O ct
m un
Ġspe ech
or ry
4 6
Ġt all
Ġg ro
d ist
Ġqu estions
Ġcor rect
Ġmark ed
Ġpro ve
Ġ âĢĶ
Ġ3 5
ĠA nt
Ġst ir
ĠM in
a ur
Ġdiffe rence
Ġposs ession
ĠO ur
st e
a res
Ġsh ut
Ġterri ble
Ġw ished
y r
Ġdis e
ign ed
is ions
Ġresult s
Ġ âĢĵ
Ġr ad
Ġag ree
Ġo x
Ġv alley
Ġpur ch
Ġv ain
Ġh ills
und ay
P l
U S
Ġsil ent
Ġn ational
ĠS E
ĠPro f
Ġm ajor
i ance
look ing
ĠO ld
Ġcl im
Ġor dered
N or
Ġser ved
Ġsh are
im s
ĠW il
Ġun ivers
4 9
ren ces
Ġroy al
Ġwonder ful
ri f
ĠN ap
Ġpre c
aj esty
Ġfam ous
Ġdirect or
Ġgreat ly
ge l
Ġcor respond
Ġresp ons
Ġ ident
ord inary
bur g
ĠA fric
ch ild
ick s
S ome
su pp
Ġte chn
Ġide as
Ġhon our
Ġmor al
Ġquar ter
Ġbit ter
Ġm ort
ĠR ed
ag g
ĠE ast
Ġis n
Ġ ...
Ġact ually
r ous
p es
Ġda ily
Ġt aste
Ġunder stood
pe ople
ol s
ĠUnivers al
Ġno vel
ap er
ĠPres ident
p ut
ĠV al
Ġste am
Ġim per
Ġm ir
ĠC H
Ġpresent ed
Ġhead s
Ġfor ced
Ġse at
ac ity
ĠM ac
it z
Ġc ool
m et
ĠPr ince
or ious
athe red
Ġb ab
ĠInd ia
Ġext ent
ĠGr and
ĠB en
Ġimpro ve
Ġfre ed
ĠF ather
Ġm ult
Ġro b
ĠB el
G od
Ġinde pend
Ġcit iz
er able
Ġo d
Ġadd ress
Ġvol ume
ast s
ur ies
u le
Ġst ates
Ġte acher
Ġwork ed
f all
Ġlar ger
Ã ¼
Ġr ing
ul f
m at
Ġrep ly
Ġplay ed
Ġto t
Ġbir th
ĠSp ain
Ġa id
c alled
Ġ19 17
Ġwe l
Ġche er
Ġb are
g ive
Ġsh ape
Ġa ud
y e
Ġad vent
Ġcont rol
Ġr ough
Ġphys ical
a way
M iss
Ġar range
Ġt ax
appe ared
ĠD an
Ġgr owing
man y
ĠJ ust
Ġfamil iar
Ġcal m
Ġspe ed
ad s
Ġref er
Ġexact ly
Ġ z
t ake
Ġprinci ples
7 0
n es
ĠD ick
Ġend eav
Ġfin ished
Ġinst ant
Ġprof ession
Ġman ufact
Ġrem oved
Ġl ying
or ne
ĠT O
Ġh om
Ġ ice
Ġl ake
ut en
ous in
Ġce lebr
Ġed ge
Ġsurpr ise
Ġwe ar
Ġfall en
ĠA p
ĠJes us
un ch
8 0
Ġuse ful
Ġin habit
Ġex hib
ar io
li ament
com p
Ġrequ ire
Ġaff ord
5 6
Ġis su
Ġthr own
Ġtalk ing
Ġfort une
or ous
s it
Ġsh ows
Ġqu al
ĠCon st
Ġbut ter
Ġcomp ar
Ġthrough out
Ġsupp l
Ġaff airs
Ġslight ly
ĠDav id
h um
Ġcon qu
Ġl ies
Ġprov ided
Ġoccup ied
Ġse vent
Ġf ier
of fe
ount ed
Ġinclud ing
Ġpr oud
um es
Ġwould n
w ar
il st
Ġple ased
Ġcont ribut
al ing
Ġhig hest
s erv
t urn
C ol
ab eth
C T
ra z
Ġl og
Ġ5 0
Ġf ill
p ie
Ġthe ory
Ġwor se
Ġneed s
le ction
Ġter m
Ġsign ific
Ġp owers
Ġjud ge
he ther
ĠA lex
Ġbes ides
ĠA ra
Ġr ate
pt ion
Ġd ig
ĠF red
ĠL aw
Ġdis s
d y
ath y
Ġc atch
Ġf right
m ark
ct ure
Ġhapp iness
Ġbecom es
Ì ĥ
Ġd om
N ew
Ġn ice
Ġg ate
Ġl ack
Ġmil k
iz abeth
Ġprom ise
Ġw in
Ġind ust
w r
ro se
Ġfal se
Ġst ro
again st
Ġr ange
Ġtre m
Ġun f
Ġb ull
Ġqu ality
at in
Ġn erv
th ink
et te
Ġcom mer
Ġpro of
Ġclot hes
Ġprot ect
5 8
Ġe conom
Ġsupp ly
Ġign or
B r
ĠRe g
Ġw ine
ust ed
ost on
J ul
Ġear s
c ame
pe lled
P ro
Ġ âĢĻ
Ġn ine
Ġprinci pal
Ġb al
ar ly
Ġgu ess
Ġro of
Ġneed ed
Ġpoint ed
c ond
Ġhon est
Ġhold ing
b oy
Ġwat ers
cl es
Ġtr ou
Ġdoll ars
Ġb odies
o very
P er
sh ire
v ation
Ġd well
Ġsk in
nd ered
Ġcrow d
Ġd ouble
Ġgentle men
Ġp air
ĠP eter
Ġright s
Ġcent re
c hen
Ġthan k
re land
Ġadv anced
Ġc ourage
Ġy ield
5 9
Ġb rief
Ġle an
Ġf ate
Ġpl ants
Ġd ate
Ġinst ruct
A h
ĠF irst
v an
ĠT ra
A m
Ġmem ber
Ġed itor
Ġgr own
F eb
Ġsec ure
ĠColl ege
Ġincre ased
le ep
d on
Ġs orrow
Ġopen ing
ch an
ag o
Ġcount ries
O ur
Ġr ising
Ġincre ase
Ġbra in
s ay
Ġ vers
Ġth rew
ver t
ell e
c ourse
l ast
Ġas sem
Ġte eth
Ġdirect ly
R I
Ġwood s
Ġav ail
O O
Ġre sem
om b
us hing
Ġsa ke
ole on
Ġcont ent
Ġdisc over
es h
Q u
i pped
ĠC ent
Ġt or
ĠUnivers ity
Ġexp ed
ĠHow ever
n s
Ġus ing
Ġex ceed
Ġpower ful
Ġgr ay
sh all
Ġs ought
Ġb rill
j ud
s ue
count ry
Ġv ig
is l
Ġsucceed ed
ĠW ashington
le ts
Ġgr at
w in
p ers
Ġt ong
ul ate
Ġp an
ĠJ er
ck ed
Ġm at
Ġsett led
Ġstre ets
ex p
p ower
Ġr ub
Ġoblig ed
Ġsqu are
E d
it ect
u ated
ain ted
Ġlear ning
ĠOct ober
ĠEd ward
ens ion
Ġsu perior
Ġst orm
h us
Ġgrow th
ar i
Ġl ose
Ġent ertain
Ġn ations
r ont
Ġwat ched
Ġal together
ĠMad ame
bet ween
ĠM ed
Ġdirect ed
G ood
i pe
Ġb old
IL L
are t
Ġ3 6
Ġdist ant
Ġfor ces
Ġrec om
Ġth ro
inte rest
S ir
Ġcomplete ly
Ġh osp
e al
Ġworth y
d ro
ĠE ll
Ġequ ally
Ġfeel ings
Ġins ide
m al
p oint
Ġt im
Ġde m
Ġbl ind
Ġpap ers
Ġg ain
Ġsee k
Ġliber ty
u k
fl ict
Ġte a
Ġking dom
a ver
cons cious
B l
s es
Ġfl our
Ġregard ed
ĠRich ard
ĠS l
Ġother wise
k ins
se ll
h alf
Ġkeep ing
Ġnat urally
Ġag reed
5 7
Ġn on
Ġa ston
ĠS uch
re qu
ĠM art
ĠL U
Ġmer ch
Ch rist
A b
f ollow
Ġeng ine
ĠP et
Ġbra ve
s w
r ant
! âĢĶ
ĠSept ember
ĠM ont
Ġeff orts
Ġ18 0
are st
Ġserv ices
Ġf und
Ġref used
Ġstand s
Ġtri umph
Ġke y
Ġquant ity
Ġcomm it
Ġ17 9
Ġsa f
Ġbran ches
ce an
Ġbl ess
Ġegg s
Ġprinci ple
Ġp it
ĠM ag
Ġpre fer
Ġcompan ion
ic a
Ġe ld
Ġear nest
Ġcould n
Ġw ounded
Ġam b
Ġg as
ne cess
ĠV irgin
Ġcont em
b ury
Ġanx ious
ĠHar ry
Ġval uable
Ġdo ctr
b its
ed ing
m es
Ġfl at
ER S
i ber
ĠM ore
e qu
ĠGerman y
Ġreg ion
pan ied
pr ing
Ġpr ide
Ġappro ach
Ġfe atures
Ġh ath
Wh ile
in et
ul a
ill a
Ġse vere
Ġprov ide
ĊĊĠĠĠĠĠĠĠĠ Ġ
Ġsl aves
ĠI II
ĠJ ud
Ġclear ly
Ġcons ist
em ies
iffe rent
Ġdark ness
Ġt ask
ĠF eb
Ġinst inct
g ra
ĠBl ack
Ġs cient
ĠR om
Ġb le
Ġsubject s
ĠW ood
Ġlab or
bo ard
Ġ -
ĠProdu cer
No v
Ġprom ised
it ute
Ġexpl ained
Ġdes ired
Ġtrans l
Ġoffic ial
Ġhigh ly
Ġnum bers
Ġgl ory
Ġf ond
ove mber
ce mber
mon y
Ġg e
Ġsm iled
Ġdri ve
Ġs orry
ĠC ast
Ġapparent ly
Ġar r
ĠB ro
Ġsc reen
ĠS er
Ġcru el
S e
ag on
Ġrel ief
Ġl oud
m ind
Ġtreat ment
in ate
Ġjo ined
ĠP ark
Ġsub s
Ġproport ion
Ġst ones
ĠH igh
in cess
ter ing
C ome
Ġnot iced
ĠG ood
am il
Ġ19 13
m o
ad v
Ġbel ief
Ġt ail
Ġgl ance
Ġsuff er
Ġsh oot
av ed
pect ed
ĠWh ile
Ġfollow s
uten ant
Ġl at
" '
Ġwind ows
Ġinn oc
ive red
v a
Ġgun s
Ġcult iv
5 5
Ġem pt
Ġsu gar
Ġmight y
og ue
Ġspo ken
Ġleg s
Ġr out
Ġch anges
Ġdro pped
ĠM any
Ġlab our
Ġshad ow
Ġrock s
Ġcar rying
Ġremark ed
Ġbur st
c ur
Ġheart s
Ġ192 7
A pr
am ps
ĠS unday
th ur
Ġfl ower
Ġfail ed
in o
Ġbu y
ĠAr t
Ġsl ave
Ġf aint
bec ause
Ġev idently
Ġaffect ion
he t
Ġp red
am ing
Ġconsequ ence
Ġparent s
ĠN ational
os en
Ġbreak fast
ĠI m
Ġmain tain
Ġneighb our
ĠT e
w ind
Ġfif teen
U N
ĠÂ £
Ġm ile
Ġbl ow
in ces
go ing
p on
C E
Ġinst r
Ġsh ook
Ġgrad ually
est ic
Ġf ancy
c are
ret urn
ort ed
es c
Ġcl oth
ac le
Ġconn ected
y ears
Ġg ar
ĠJ ul
Ġp age
ĠT wo
Ġcross ed
A meric
d el
Ġexpl ain
Ġcommun ity
Ġfa ult
the less
ĠY our
ond er
Ġdis app
ĠP resent
Ġd ust
Ġco at
Ġy ards
Ġsugg ested
Ġapp ointed
Ġclose ly
s ing
Ġact ive
Ġknow ing
Ġserv ant
Ġconf idence
her s
m ake
Ġ3 7
ic ations
ie ur
Ġl over
Ġent hus
Ġc ow
Ġshe l
Ġmar ry
Ġfac es
Ġl uck
AT ION
Ġdistingu ished
ĠS en
Ġexp ressed
ĠE n
Ġsaf ety
Ġread er
Ġremem bered
Ġt aught
Ġbecom ing
Ġbre ast
Ġess ential
Ġcontr ary
Ġpract ical
Ġoccur red
Ġmo ving
ĠFran cis
Ġt ext
? '
Ġfig ures
Ġun known
f g
Ġconn ection
ra in
Ġpock et
Y our
Ġfreed om
Ġe rect
Ġcol on
Ġsuccess ful
p o
Ġnecess ity
Ġdes cription
is hes
s ame
Ġp or
ight s
Ġp u
Ġque en
wor ld
C an
st ill
Ġd ign
Ġwill ing
Ġpre ced
f le
it ement
ĠWh ite
ut ch
Ġpri est
ur t
ĠAn n
ĠM il
Ġdanger ous
Ġm ix
ing ton
8 8
g iv
Ġeffect s
qu ar
Ġh arm
act ion
ic ian
ol id
Ġappre ci
S ee
Ġl od
e g
Ġg athered
Ġr isk
G eneral
o ir
Ġforgot ten
Ġg ather
Ġst ore
ac qu
Ġinhabit ants
o pp
ut ation
w ent
ak s
J un
Ġas ide
ĠP at
for ce
Ġfield s
i ge
Ġt al
Ġsole mn
Ġsplend id
Ġhands ome
ĠI reland
Ġstud ents
at is
Ġinterest s
Ġ1 00
Ġsol id
i el
A ug
Ġunderstand ing
Ġp ick
ound ing
men se
ĠJ im
ru ary
Ġdiv ided
Ġt ired
not e
Ġrapid ly
ul ations
Ġvar iety
Ġconc er
an ch
Ġen s
p ur
it chen
ĠM fg
Ġfing ers
Ġcol umn
Ġcomp osed
Ġposs essed
Ġindust ry
Ġa ver
ĠSc ott
Ġsw ord
ĠIt aly
ad el
ra it
ative ly
Ġfin al
Ġm as
Ġjud gment
ie ved
Ġfind ing
ut s
ĠM aster
ĠW al
Ġcount y
ĠH im
c or
Ġin du
Ġex tend
ĠIt s
ĠIn st
Ġintell ect
ĠC ont
Ġshould er
appe ar
Ġst ars
Ġcr im
ĠCong ress
Ġsold ier
ons ieur
Ġdiv ine
Ġpop ulation
Ġres our
Ġp ounds
ĠG reek
not hing
Ġre ign
Ġst ories
rif ice
S ep
ang ers
ĠL ife
Ġman if
Ġsmo oth
ou ds
M P
Ġarri val
Ġst ated
Ġprot ection
Ġsa ved
Ġsuff ered
Ġcoll ect
Ġart ist
U T
l ie
an other
cri bed
b all
Ġact ual
ir it
Ġshould ers
Ġbe ll
Ġfl ag
i est
Ġdri ven
Ġdoes n
Ġpray er
art s
is p
ĠW here
hen omen
Ġac id
Ġgold en
ĠJ oe
other s
Ġ ing
Ġdis play
ru e
Ġin formed
Ġ3 9
Ġkind s
m ir
ĠH el
ud den
Ġdut ies
ĠAr ch
Ġconsider ation
Ġobject s
Ġcare ful
Ġr ank
Ġre ck
ol it
k y
Ġtw ice
ĠBrit ain
Ġab and
Ġim pl
Ġwrit er
Ġfight ing
Ġsc he
Ġprev ious
t oo
act ers
Ġce re
Ġartic le
Ġcont ract
Ġun cle
Ġ3 1
Ġinter rupt
Ġpol icy
Ġe mer
Ġsk ill
t ook
Ġrecom mend
p ret
ab or
Ġthr ow
Ġsm oke
Ġm ission
Ġspec im
Ġr ide
Ġadm in
Ġfl esh
av i
Ġadm itted
ĠCom pany
S c
Ġun fortun
Ġaw are
p ic
t aken
Ġmach ine
ri a
Ġdeep ly
v est
Â ½
Ġ3 8
Ġa in
ul ph
m ist
ĠProf essor
ck now
Ġstr anger
Ġbe aring
av y
ĠEl izabeth
in ity
ict or
Ġgood s
Ġcontin ue
a ith
Ġa im
Ġm ental
Ġav oid
Ġmy st
Ġtreat ed
ĠV ol
se en
Ġs li
ĠB et
âĢ Ĥ
Ġbus y
ĠL ake
Ġeff ic
Ġjo in
Ġ2 00
Ġhur t
Ġve get
Ġbran ch
Ġo il
ri an
if orm
Ġsurpr ised
o ch
Ġquiet ly
h ost
er ate
b orn
l a
ĠB ook
Ġinterest ed
Ġfall ing
Ġ rom
Ġre le
Ġfar ther
g s
Ġwant s
Ġ192 9
Ġd ata
te enth
Ġw ings
Ġsac red
ĠNap oleon
Ġprop osed
p res
Ġnor thern
r and
ĠS al
Ġcomp et
Ġacc ess
Ġret reat
Ġb i
Ġdevelop ed
um s
4 2
es ides
Ġreg ret
r im
Ġbr idge
Ġme at
et ch
Ġa cknow
7 5
Ġland s
Ġn arr
Ġre ven
Ġearli er
g est
you ng
Ġhapp en
Ġbring ing
Ġintrodu ced
m us
Ġspir its
Ġp ity
Ġdo zen
row s
Ġd are
ĠRe v
Ġaccept ed
Ġproble m
Ġ192 8
ĠEm peror
Ġfair ly
Ġinc hes
Ġpal ace
O V
Ġview s
Ġcl oud
Ġpart ly
Ġcap able
ĠIt alian
Ġal ive
ograph y
w oman
L U
Ġre se
less ly
Ġtru ly
Ġconst itution
Ġspirit ual
Ġrepresent ed
an ks
Ġab und
Ġmind s
s per
ĠJ o
Ġsure ly
Ġappl ied
6 6
offe e
Ġamong st
4 3
ĠJan uary
Ġa head
Ġj ob
i ents
ĠL u
ond s
con st
Ġw and
Ġc ro
ol f
Ġshe ep
Ġwatch ing
Ġend s
m osp
en a
ĠC ons
raz il
Ġn et
ur d
ĠM al
Ġb ay
ld om
Ġen emies
Ġcou ple
an im
Ġcon ven
Ġh uge
ĠS at
ĠR oyal
ĠN ovember
ship s
Ġfem ale
Ġsh owing
Ġpre par
su red
Ġa ch
Ġwh ilst
Ġev ident
Ġschool s
c a
Ġb ag
ar th
Ġare a
Ġsmall er
st ory
ĠS chool
Ġthorough ly
Ġwhis pered
R A
Ġtell ing
Ġdev oted
ou ps
Ġstrugg le
Ġexcept ion
Ġre ward
Ġro de
ĠDe cember
Ġke en
Ġwalk ing
ot es
ig ation
Ġg ained
Ġaccom panied
Ġextra ordinary
! '
am ount
Ġme chan
Ġburn ing
Ġposs ibly
Ġacqu aint
ĠCath olic
Ġfl o
Ġdet ails
Ġdemand ed
ag n
a ign
Ġca uses
Ġs outhern
Ġexerc ise
Ã §
Ġdise ase
Ã ¶
Ġent rance
9 0
Ġh oly
e re
Ġb ore
Ġconcer ning
w est
Ġadv ice
Ġpers u
Ġcreat ure
Ġsch ol
Ph il
Ġmur m
Ġs ons
ĠT er
se y
Ġass ist
d a
ant ry
Ġch oice
h ard
Ġsu spect
Ġput ting
Ġlove ly
Â ·
Ġsour ce
Ġn od
ĠB ay
Ġwas n
ĠS im
Ġph ot
c ra
Ġconst ant
he ld
ĠV it
ĠR es
Ġrem ind
ĠA c
Ġimp ression
Ġre asons
Ġfor b
f ar
Ġrel ations
Ġabs ence
4 1
f in
E l
k in
Ġspe ct
Ġplay ing
Ġhur ried
com ing
am ong
ĠMar ia
Ġsu st
ĠC ity
ĠWh o
Ġgen ius
Ġf ly
Ġexpl an
Ġst ick
ard on
Ġconcern ed
ĠV er
Ġatt ached
Ġimag ine
ĠRep ublic
Ġwa ited
Ġfort un
Ġvessel s
Ġold er
ĠD ay
Ġtri al
Ġno ise
Ġroom s
Ġsatis fied
Ġu l
Ġproceed ed
g ain
Ġmar ch
Ġfell ows
ll er
al so
Ġconst antly
Ġbur ied
ĊĊĠĠĠĠĠĠĠĠĠĠĠĠ ĠĠ
ĠD or
U L
Ġmethod s
Ġtong ue
Ġb att
Ġdiv ision
M ad
ĠL ove
Ġtrad ition
Ġsw ift
c ase
ĠM et
Ġw et
ud es
ter day
Ġim mense
ar se
Ġd ull
Ġt alked
un ning
Ġgu ide
happ y
Ġsu it
th ings
Ġcred it
k er
th a
ĠD u
Ġenv iron
Ġh ide
ĠI ll
Ġor n
Ġ192 6
Ġse ized
ĠB ab
ĠV en
Ġw ore
Ġliter ature
Ġtra ining
Ġserv ants
ful ness
Ġarr anged
G erman
Ġc ard
ĠWor ld
ri ved
S p
Ġmy ster
Ġrec ent
Ġexc itement
Ġpr ince
Ġt u
7 7
Ġsle nder
Ġdis g
wh ite
Ġspec ific
ĠB ill
Ġcar riage
con f
Ġbrill iant
Ġlist en
IG H
ĠL y
sel ess
Ġsurr ounded
ing ing
Ġp up
ĠC le
c ast
m aster
Ġd ressed
Ġnot es
enn y
cc ording
Ġarch itect
c ap
oy age
h on
as y
Ġ193 0
ĠJ apan
ĠD el
Ġdis ci
Ġabsolute ly
Ġwel come
Ġc ities
Ġbeg un
Ġc attle
Ġtou ched
Ġpresent ly
ĠB on
Ġcare er
Ġextreme ly
Ġindividual s
ĠF ort
Ġacc ident
Ġcontain s
Ġprodu ction
s im
Ġdel icate
Ġele ments
of t
Ġob v
Ġfamil ies
al ways
Ġpl enty
Ġmid st
s ix
ĠR ose
ot est
ape l
ĠD iv
Ġprom pt
Ã ±
Ġan al
ap ers
Ġpl ans
id ents
Ġstri king
Ġv o
ĠSo ciety
ĠCol umb
a e
Ġun able
âĢ² âĢĶ
Ġang ry
Ġsymp athy
Ġcr ime
ĠScot land
J ust
r at
Ġshe ll
i ot
Ġem otion
Ġref lect
l ow
por ary
Ġte ach
Ġaff air
Ġdog s
int s
oint ment
Ġde mon
Ġartic les
Ġcop y
AR D
st ra
Ġdel ay
Ġb ent
Ġtell s
nd s
Ġoper ations
Ġf ilm
gr am
Ġgl oom
Ġt empt
ce nded
ĠH ill
Ġt ables
Ġhe aring
Ġstate ment
d oor
m iss
t a
Ġsuff ering
Ġno se
ĠL and
Ġdev il
p oss
pro du
Ġdro ve
ic le
Ġwas te
Ġas pect
Ġavail able
Ġre v
ines e
if orn
Ġprison er
Ġhop es
ce ive
ĠB ishop
e enth
Ġp ill
somet hing
Ġl oose
Ġoccasion ally
oo p
Ġwor n
Ġcall ing
t le
Ġsepar ate
Ġcoll ection
Ġf er
f oot
Ġs an
y ear
Ġm ale
Ġp il
ĠFeb ruary
5 1
Ġcomple x
Ġcast le
Ġempt y
l im
Ġsh op
el ing
Ġpre cious
Ġvirt ue
el ess
Ġcreat ed
? âĢĶ
Ġw ed
ĠL ie
ib r
n ame
Ġconcl usion
Ġpart ies
Ġide al
Ġcall s
ow der
i ency
Ġmin ister
on a
e ach
ĠG reen
b us
u it
Ġdes per
ĠA ct
Ġreal ity
v ar
Ġfl ight
Ġas sured
Ġdo c
Th us
Ġsusp ic
Ġcon tained
Ġcent ral
to p
Ġmur der
ĠS ar
ĠPhil ip
ĠF ig
Ġar rest
Ġadm it
EL L
Ġm al
Ġsol ution
p ire
ĠO x
Ġmaterial s
ĠM ex
Ġintellig ence
ic les
Ġdisc overy
8 9
Ġp our
Ġwor st
ĠM ajesty
look ed
Ġexc ited
Ġf old
Ġdo ors
re f
ur ches
Ġcal cul
on ce
il ty
ec ause
Ġsatisfact ion
Ġne arer
D id
Ch ar
Ġfle et
bur gh
Ġdist ribut
Ġsupp er
Ġimmedi ate
Ġdro p
ĠEurope an
Ġte am
ĊĊĠ ĊĠ
how ever
d r
Ġch osen
ĠA unt
Ġse ction
Ġa x
E W
h aving
x x
or al
ĠC oun
Ġpl ate
aval ry
ad o
Ġhe sit
c ut
ast ed
Ġinqu ir
Ġp henomen
ĠM ill
Ã© e
i able
Ġdeg rees
ol ution
Ġfour th
Ġprison ers
um in
Ġvis ited
Ġchap ter
Ġpriv ile
ĠAfric a
Ġd ying
ure ly
Ġbab y
Ġb ased
ag ing
ĠPer haps
g ent
ĠH oly
ĠI V
Ġmill ion
Ġimp ress
Ġw estern
P ar
Ġd ish
b or
Ġwho lly
Ġ193 7
Ġpat ient
it ure
Ġg le
ĠD es
Ġsur v
ĠPort ug
Ġcomp re
if ying
Ġprodu ct
Ġhop ed
avi our
Ġre nder
Ġclass es
Ġ192 5
Ġadmin ist
Å ĵ
Ġh ither
br idge
art e
Ġredu ced
ĠC amp
Ġrequ est
t ure
Ġadop ted
Ġ6 0
N e
Ġg ay
ĠS pe
om er
Ġob st
p ot
Ġfaith ful
ear ing
own ed
E very
Ġmed ic
Ġha ven
ous ed
be aut
t ell
Ġam id
Ġthousand s
Ġint ention
6 5
in ced
Ġyour s
Ġre ference
Ġmess age
Ġlif ted
lar ge
ru b
Ġli qu
ĠUn ion
er ick
ĠP ers
Ġchar acters
Ġdep os
ĠCar ol
ul se
all s
Ġst out
8 7
Ġcont ro
Ġset ting
Ġscient ific
6 9
nat ural
m ons
ĠH u
ĠG o
Ġele ment
Ġbene fit
Ġp ed
V I
Ġex ha
reg ular
Ġcitiz ens
Ġp ages
ac on
Ġend ed
com mon
6 7
Ġtown s
sm all
our n
Ġform ing
ĠTr ans
Ġoper ation
Ġex tended
u ity
Ġf ought
Ġin ner
ĠE r
Ġcrit ic
a el
Ġsh ame
Ġstr ict
ĠC am
ĠCount y
mosp here
ink ing
Ġacc ur
vol ution
ustom ed
Ġf il
Ġvis ion
Ġj ew
Ġat tended
Ġpurp oses
al ia
ĠN ature
t ies
Ġkind ly
Ġmom ents
ES S
er k
at re
d ep
ĠM ass
in ction
ard en
Ġimag ination
Ġpro spect
Ġ192 0
d et
w rit
as ions
Ġpull ed
Ġdestroy ed
ic ity
Ġk itchen
ian a
Ġass istance
Ġ193 4
Ġcons ult
ĠG old
ur ance
Ġv ic
oura ble
e f
Ġdef inite
Ġh it
cont in
Ġproper ly
ĠAlex ander
l ove
u ce
Ġch all
Ġli ked
A re
Ġc as
re p
ES T
ĠRuss ia
I F
Ġre ar
Ġcl ouds
Ġh idden
ci a
Ġcirc le
Ġmagn ific
Ġcons um
Ġmist ake
ĠB oston
iver se
t ow
ur a
un s
Ġb ought
Ġn est
Ġst ern
Ġter ror
Ġ193 6
m aking
Ġelect ric
ĠM a
Ġch amber
els on
Ġcompan ions
Ġpl at
Ġcond em
Ġ192 1
Ġchief ly
Ġact s
ĠD uring
s ent
Ġrevol ution
w ed
Ġwe ap
Ġnat ives
s er
ict ed
Ġl ux
Ġch oose
Ġfr ame
us ual
iforn ia
ĠA ss
g ments
ot ton
Ġban ks
Ġc rew
Ġvis ible
Ġsing ular
or ial
er ation
Ġh ang
Ġse ldom
ĠL in
Ġatt itude
ĠHe aven
Ġcl ub
Ġin vent
itt y
Ġvict ory
Eng lish
cl ass
Ġad apt
ĠPro v
Ġbuild ings
Ġde ck
E n
Ġh o
ĠB ell
Ġreport ed
Ġre ndered
ĠY es
ĠVirgin ia
r ors
Ġre jo
Ġsuffic iently
Ġc ott
Ġex cess
udden ly
ri er
Ġcontain ing
Ġcoll ege
Ġra ise
Ġh al
Ġact ivity
Ġc ousin
h ar
at o
them selves
Ġwor ship
Ġfound ed
Ġste ad
ĠH istory
oon ful
ĠRuss ian
en ance
st ep
ĠE mp
ĠS erv
ĠJe ff
ĠV an
ĠL ittle
Ġresol ved
re ason
necess ary
Ġsix ty
le ft
Ġh ole
Ġpol ice
ĠH on
Ġenviron ment
Ġg rief
Ġstru cture
ch o
Ġal t
ĠF ar
y et
Ġsh r
os er
ĠG ree
ĠR ob
Ġspe nd
Ġabs or
ĠM ark
5 2
dis c
re al
Ġ193 1
ĠS el
Ġsim pl
Ġlist ened
ĠIs land
Ġadd ressed
oun ce
Ġs pl
add le
Ġhot el
Y et
Ġcelebr ated
im ately
ĠT H
ĠO ff
Ġ192 4
Ġ19 18
Ġter rit
oth y
Ġscen ario
Ġpra ise
g ener
Ġbo ats
Ġpain ted
Ġesc aped
Ġdoctr ine
ĠM en
Ġc aut
Ġli br
Ġha bits
Ġsign s
col n
Ġis sue
we et
com fort
A K
Ġst uff
Ġtra ck
or gan
G o
r ical
ĠK e
T r
g eneral
ing er
o qu
ĠÃ ł
p ent
6 8
M an
ain e
ios ity
Ġthr one
z y
in i
ĠOn ly
Ġnew sp
Ġhelp ed
Ġcomm ission
ab led
ap ter
ĠPar liament
Ġdes ert
Ġaver age
op h
Ġen orm
ĠChrist mas
over nor
Ġce ased
w ers
âĢ ¦
L ord
ĠA ustr
Ġevery where
tr ans
Will iam
Ġd ed
us ive
m ical
Ġse ll
Ġg ently
Ġout er
Ġgr oups
Ġche ck
ud d
ber g
. --
E M
Ġo cean
unt il
er a
Ġneg ro
D r
s chool
fe rences
H ar
Ġcamp aign
eal ous
ĠM ajor
Ġg rey
5 4
Ġhe nce
ĠAr thur
Ġf an
ey es
st ate
Ġda wn
im port
ink s
Ġfriend ly
Ġcont act
os pel
Ġgod s
ĠM ur
ell y
Ġperform ance
adel ph
Ġper mitted
Ġse ated
or ter
all e
Ġconst ruct
ro s
Ġam az
Ġdel ivered
Ã ´
ĠB ible
h ome
ac les
Ġtot al
Ġab ility
Ġune x
y er
ĠC at
ii i
Ġpro c
Ġcent uries
ens es
Ġpress ure
Ġt ight
Ġh ate
Ġmer cy
it ors
Ġper formed
ĠB ob
Ġsy m
Ġinf er
; "
ĠD en
p erson
ten se
ric ult
Ġp ressed
b our
Ġdef ence
Ġa rose
Ġw ing
IS T
5 3
ĠF R
ol ved
pl ess
Ġrecogn ized
Ġwhe el
erv ation
Ġrel ated
for ms
Ġcomp ared
Ġfrequ ent
Ġr is
Ġresour ces
Ġsugg est
Ġliter ary
ĠSe a
b an
ain ts
su ccess
f ind
Ġ19 19
Ġwis dom
C or
giv en
b ra
ĠF OR
Ġb ark
ĠE arl
Ġrec oll
Ġresol ution
A B
Ġfl ood
7 9
Ġm a
am ily
Ġprint ed
e ffect
Ġp icked
Ġfun ction
b ran
Ġd omin
Ġsent iment
G u
ĠCh inese
Ġmajor ity
Ġ =
b oth
Ġsm iling
eng er
Ġpoet ry
ĠG ra
Ġpro sper
ĠP art
ĠN ever
Ġrul es
b ably
of fic
C ar
ch t
ĠM us
ĠA ustri
ĠF ox
Ġal tern
he ard
du c
a very
ard ed
Ġm atch
os al
I X
Ġaw ful
is her
Ġas leep
Ġdec ision
Ġappro pri
arr ison
Ġme al
Ġget s
Ġyoung er
sy ch
Ġdesp air
st airs
ar med
Ġown er
Ġar med
uss ia
Ġcry st
ountain s
i ated
z a
Ġpr on
aw s
Ġt um
Ġno body
Ġo bey
al most
ol a
Ġlaugh ing
Ġexper iment
c irc
Ã ª
Ġstrong ly
ĠDo ctor
Ġche st
u gg
pie ce
p osition
ĠB ra
ri ble
int ed
Ġbl ock
Ġmist ress
Ġfurn ished
] .
Ġexped ition
p at
en ge
ĠT imes
Ġdis appeared
Ġme asures
Ġrare ly
ĠM ich
ĠA ng
Ġcom pelled
omet imes
ĠX X
Ġb atter
Ġs igh
im ony
ur ther
I M
Ġsent ence
Ġp p
ĠM at
Ġso vere
Ġe astern
id a
Ġkne es
Ġo pt
Ġcomm itted
Ġappl ication
i ate
Ġind ul
Ġc offee
s il
str ong
Ġh orn
Ġconst ruction
Ġt ale
Ġre nt
Ġsing ing
Ġappe al
Ġincl ude
t t
it led
Ġag es
iz es
Ġru in
d ays
Ġstri ke
ĠAra b
Ġe ase
Ġsh ade
Ġle af
âĢĶ âĢľ
ol ate
Ġfe ver
Ġem ph
Ġ193 5
Ġpres erved
Ġsub sequ
ann el
Ġcomfort able
ist or
Ġindepend ent
Ġind ign
r ated
om ent
* *
r ich
ĠPresent ed
Ġwe ary
Ġb en
Ġann ounced
T wo
ing ham
Ġhouse hold
Ġhor iz
g on
Ġman aged
w ild
ĠH y
qu estion
Ġcommun ication
Ġcre ate
g irl
Ġm ixed
Ġcon vey
p ost
Ġstud ent
Ġo wing
Ġg ift
h ind
ĠF e
no x
Ġpat ri
Ġcl ergy
Ġper man
Ġbas is
IGH T
wh ose
C ap
O P
p en
Ġat mosphere
Ġappro ached
Ġprec ise
S te
Ġas king
ĠD ep
l ers
se emed
Ġs ounds
en ough
os ure
Ġl es
ĠL ong
Ġgr anted
Ġrec on
Ġaccompl ished
h igh
m outh
ant e
Ġk ings
Ġf lying
Ġarg ument
n et
ĠAd d
Ġsy mb
Ġp ushed
ail ing
br ought
Ġformer ly
Ġin tense
per haps
Ġmove ments
Ġsav age
ĠSE E
ri ff
ĠN at
cl ose
Ġph r
Ġf t
Ġse ed
Ġatt ribut
Ġanx iety
it ated
ir k
ĠW ater
Ġthro at
iv ities
Ġexplan ation
l ot
Ġw icked
ir ds
Ġst ret
8 5
r d
ell a
Ġsoon er
Ġreturn ing
Ġremain ing
ly n
Ġper pet
Ġvo ices
m atter
s al
com ple
v als
Ġinqu ired
P e
at us
b ow
Ġsc ale
ĠCal ifornia
Ġ193 3
Ġyes terday
ias m
Ġinnoc ent
ill ery
7 6
Ġst or
Ġconf ess
AL L
Ġacquaint ance
Ġpo ison
Ġv oyage
Ġthink s
ĠOx ford
Ġt ur
Ġsec ured
ac ious
cons ider
G eorge
Ġb ones
Ġchar ming
Ġte aching
Ġphilosop hy
ur bed
Ġleg isl
U M
Ġdes cend
Ġ193 8
Ġwis hes
ĠL atin
Ġfl ed
amp ed
Ġdifficult ies
Ġdign ity
I ES
Ġchar m
Ġlead ers
H ave
e ight
ĠTh ose
Ġgu ilty
Ġevery body
d if
Ġnot ed
Ġbrother s
IT H
Ġd ance
ot he
ra el
Ġlike wise
ale m
Ġste ep
Ġqual ities
Ġh ollow
am in
pass ed
Ġg if
um mer
pr ise
bu ild
L ook
ĠH ad
ĠP o
is to
ist ics
Ġexp ense
ĠW as
op en
Ġrefer red
Ġo v
l ay
p rom
Ġal arm
Ġpro cl
wh ole
AN T
Ġcomple ted
Ġdeli ver
Ġfriend ship
Ġam use
um ped
Ġ192 2
ft s
Ġwrit es
Ġsche me
Ġb ree
âĢ Ħ
ĠV ictor
sc ape
Ġf o
Ġsp ark
Ġthan ks
art ed
Ġdis char
7 8
f ig
Ġlead er
Ġw aves
Ġl it
Ġcoun ter
F rench
ol ph
I E
Ġswe pt
Ġinc ident
Americ an
Ġul t
Ġ ze
t able
Ġthr ust
ig er
ĊĊĉĉ ĉ
l ive
Ġl ately
B razil
L ondon
Ġacc ord
AR T
Ġf ed
ord ers
Ġobserv ation
Ġinclud ed
ant ing
Ġcommand ed
ĠA h
Ġman ners
Ġin it
ar ian
ĠD ist
Ġc ord
ist ent
Ġbl ank
amm a
oc r
ĠO ther
Ġob sc
mit tee
or able
Ġse m
Ġbr and
Ġstand ard
Ġest ate
art ment
Ġenjoy ed
Ġman agement
ĠF er
Ġs ulph
ĠP ol
ĠC ape
Ġtri p
Ġleg al
Ġsac rifice
ot ted
ia h
Ġsec urity
Ġg reet
Ġb ul
adelph ia
Ġcont empt
ĠU nder
ĠAm ong
N ever
Ġdiam eter
Ġexp osed
Ġsett le
f ire
Ġdest ruction
d em
in th
Ġsc attered
Ġ192 3
OU R
ic an
Ġst iff
ĠB oth
Ġim age
Ġprof ound
ĠM other
Ġgl orious
Ġrec ently
d iv
Ġfing er
ĠWall a
ĠS il
Ġnerv ous
Ġscreen play
Ġunfortun ate
ap ing
ĠF in
hum an
ĠBe fore
ig hed
Ġn ut
ann ed
me an
ipp ing
Ġthen ce
âĢ ī
p he
Ġm ud
Ġsoul s
ex pl
res pect
Ġret ired
Ġw ire
Ġv ac
bre ak
ĠCoun cil
it ate
S uch
Ġconst it
char acter
Ġcle ver
Ġsubst ance
Ġrun s
c est
ĠB ru
with standing
G l
I m
ro g
Ġinf inite
ĊĊĠĠĠĠĠĠĠĠĠĠĠĠ ĊĊĠĠĠĠĠĠĠĠĠĠĠĠĠĠ
Ġprob able
t own
ĠG erm
Ġbegin s
v i
v ision
use um
Ġlim ited
Ġinstr ument
t aking
Ġwith dra
ĠC ur
tain s
ĊĠ Ċ
Ġsoft ly
Ġreg iment
G old
ate g
Ġan ch
ĠSec ret
it a
Ġre new
Ġutter ly
Ġtra ce
ver ted
Ġscen es
oub ted
ĠE v
Ġwood en
Ġcons ent
Ġin se
Ġfe ed
Ġimp at
Ġtemper ature
Ġadvent ure
ĠS k
Ġcon flict
Ġdefe nd
ĠG en
g a
Ġconn ect
Ġmanif est
C ont
ĠF air
Ġprev iously
Ġ193 2
ys is
Ġcons cience
Ġfound ation
ament al
Ġexec ution
K ing
Ġdiscuss ion
Ġw ound
Ġp atter
Ġincl ined
ri p
Ġag ricult
ress es
Ġun iform
Ġtrans port
S m
Ġl one
Ġdeli ber
Ġm ood
Ġsu s
Ġcab in
au x
am ous
Ġun ited
Ġhistor ical
r ound
Ġs en
Ġhum ble
Ġenorm ous
app ro
o ked
Ġobs erve
Ġeffect ive
Ġy ard
ĠE s
Ġread ily
R Y
ĠD E
6 2
Ġrep utation
Ġfind s
and a
Ġmet al
ĠM em
Ġwrit ers
Ġ4 9
Ġacqu ired
ĠL ew
Ġdemon str
Ġmed ical
Ġse es
ĠG e
y ard
ac he
Ġinter ior
an cial
ag raph
s ince
ĊĊĠĠĠĠĠĠĠĠ ĠĠĠĠĠĠĠĠ
Ġcur iosity
C K
Ġc y
turn ed
F rance
Ġ iv
Ġr ust
An other
Ġopin ions
Ġcommit tee
h ouses
Ġch urches
Ġrequ ires
ĠC ome
re ction
Ġspr ang
ĠK ent
Ġkind ness
Ġinst antly
Ġunivers al
ĠM ost
child ren
ri ve
ri fic
Ġmark s
ick en
Ġfail ure
Ġt ar
Ġal ike
Ġlarge ly
Ġviol ent
Ġany one
ĠS ol
ra w
Ġdes ir
ĠD utch
ĠA re
cl osed
Be fore
Ġadmir ation
et ic
ĠB oy
un ction
l iness
os om
Ġj ealous
Ġaffect ed
Ġincre asing
ul es
Ġmanufact ure
6 1
ĠB esides
Ġpo em
Ġneighb or
p ired
A IN
worth y
ĠJ ean
ĠLin coln
Ġf ulf
un n
." [
Ġstud ied
ĠĠĠĠ Ġ
Ġr ow
Ġissu ed
ru its
Ġaud ience
t em
Ġcl o
6 4
un te
Ġhom es
Per haps
Ġintellect ual
Ġste el
bet ter
Ġp ier
Ġfe ather
O S
Ġcl iff
up id
Ġshout ed
Ġr um
Ġf ix
Ġfool ish
ot ic
Ġkn ife
wh om
, --
ul ating
Ġcomp osition
er ies
Ġwhen ce
ĠInd eed
Ġsupport ed
ate ful
Ġrep ro
Ġfe e
Ġdec or
ĠSt ill
i ast
Ġ 0
Ġre view
Ġfl ow
Ġstud ies
V ery
ind er
Ġdelight ful
ot ions
ĠB i
w are
Ġh am
Ġan ger
ĠR ay
Ġprof it
ag ger
Ġremark s
ĠA pp
The ir
Ġsur re
Ġquar ters
ĠJ ones
Ġcap acity
Ġacqu ainted
Ġdom estic
Ġc avalry
b urn
6 3
Ġco al
r ather
Ġfall s
ĠPr otest
w yn
all el
; âĢĶ
ul pt
Ġcom ment
Ġlight s
i ards
ĠE ve
Ġbet ray
B ar
ĠP ope
Ġcreat ures
Ġp ipe
bo at
Ġdread ful
Ġsystem s
Ġresp ond
is ation
Ġf ired
Ġrem ove
Ġc am
sh ine
Ġdepart ure
Ġ8 0
Ġ7 0
Ġste pped
Ġocc asions
ock ing
Ġsepar ated
Ġconv inced
Ġmod e
Ġfree ly
Ġcult ure
d one
, )
Ġch ain
eng ers
Ġconscious ness
Ġth under
A V
Ġcut ting
on om
B rit
ur day
ab b
Ġpun ishment
Ġacc ustomed
Ġconf usion
so on
f ed
Ġab road
Ġlar gest
ell ed
Ġcoun sel
Ġr ude
Ġro lled
Ġbr ings
Ġp ark
Ġro ll
Ġprom inent
ĠM el
Ġshe d
en cies
Ġauthor ities
ent ions
ĠP ri
9 9
n on
ĠE ach
un ted
r ust
ĠO N
st ud
Ġgl o
Ġmod el
Ġexam ination
ĠN elson
ĠR og
Ġs ite
Ġp in
Ġd il
ĠG al
Ġbre aking
Ġacknow led
u a
Ġt ent
ic able
Ġroad s
ĠS outhern
Ġeld er
Ġv ault
Ġenc oura
Ġrese arch
ion ed
ad or
ĠP ur
Ġexperi enced
quis ite
Ġany body
ĠMart in
ĠF ore
Ġdet ail
hand s
Ġbelong ed
Ġproble ms
Ġ193 9
bl ack
Ġaddition al
f ull
ou ch
ut ive
Ġtem ple
Ġconcl uded
Ġp ig
ĠS ur
Ġst airs
i ary
ĠM ess
Ġcoll ected
Ġdesign ed
quar ters
" âĢĶ
Ġb on
Ġround ed
Ġfier ce
t is
ĠM att
ax im
Ġconsequ ently
Ġm ounted
or ig
Ġaut umn
Ġassoci ated
Ġhun ting
u v
Ġisland s
ve ll
Ġcl imate
br own
g aret
erv es
Ġhor ror
Ġin ch
ri b
ar ling
Ġst aff
Ġgener ation
op es
ĠUn cle
Ġinst it
Ġreal ized
ask et
Ġr iding
Ġun conscious
Ã¨ re
ĠAnd rew
uth ors
Ġignor ant
ĠS on
Ġattempt ed
st re
s aw
Ġsa le
Ġp ist
oo per
Ġimp r
Ġp aint
g reen
Ġmagnific ent
Ġw ave
ac ob
ON D
Ġshel ter
Ġri g
Ġprop ri
ĠO ut
ĠCh ina
he m
ach ment
st ru
Ġe ternal
Ġinterrupt ed
ĠR uth
c oll
sc ar
Ġr ushed
n ut
ĊĊĠ Ċ
Ġprofession al
ic ians
tw enty
ap ted
Ġmyst ery
a wn
ĠAn other
er o
ĠTh ree
Ġbelong ing
Ġcons ists
Ġc ir
Ġcoun cil
Ġlibr ary
ab s
Ġpa used
Ġc ig
or us
th us
Ġfar mer
Ġin form
Ġinter view
Ġed ition
Ġpl ays
8 6
am ation
ĠC orn
Eng land
Ġcommer cial
Ġf rank
am ents
Ġte le
Ġdist ress
I A
ĠR E
ĠR us
Ġact ed
ĠAn ne
re ck
sub ject
r ick
Ġt ied
al o
7 2
ĠR ock
az z
Ġcontem pl
Ġopp osition
Ġfat al
al ks
oub t
Ġa unt
Ġsu itable
os a
pr inci
h undred
Ġsignific ant
ĠEx change
an o
w hether
Ġsome where
Ġcomm enced
Ġdoubt less
Ġnecess arily
Ġplain ly
Ġres c
m orning
Ġf are
Ġst im
Ġbeh old
ĠDe v
p her
Ġdist inction
Ġabs urd
Ġdream s
Ġf ame
ĠR em
Ġcount enance
Ġur ged
Ġact ions
b est
gl ass
t re
Ġb at
li ver
qu ite
Ġcharacter istic
ur se
Ġtri bes
l ist
Ġsle pt
v in
Ġland ed
Ġoff ers
Ã© s
Ġto ler
oo re
ĠH art
Ġtra il
Ġturn s
pend ed
Ġbe ars
ĠS aint
Ġwid ow
Ġenthus iasm
m em
Ġtr unk
7 4
ĠM o
Ġri vers
D uring
in ations
Ġsp are
Ġto wer
f its
Ġprodu cts
Ġground s
Ġrem o
ĠCast le
Ġw ages
Ġf est
and s
Ġr ic
Ġcrow ded
Ġto day
Ġmyster ious
Ġcott age
ĠH ol
Ġex change
Ġun certain
Ġpre cip
yl on
e le
Ġreg ions
Ġconf ined
Ġbeat en
Ġsh ining
Ġro pe
p ast
f ol
Ġb ud
Ġdif f
8 3
w ick
Ġp ardon
Ġprov isions
Ġlo ving
su ffic
Ġu seless
ĠCh ild
u ine
Ġter min
ĠAs soci
ĠWal ter
Ġcommon ly
Ġc ream
as m
e z
pro per
ĠYou ng
Ġpresent s
to ld
Ġco pper
ĠTh or
Ġod d
Ġarrange ment
7 1
c al
Ġv ary
d uring
ist le
Ġele ven
Ġestablish ment
in cl
Ġexam ined
Ġappro aching
ĠJew s
8 4
ad emy
Ġj oint
al ion
Ġport rait
Ġorgan ization
ĠC OM
Ġac ute
ĠD id
gg ing
Ġcapt ured
v ity
Ġn urs
Ġlead s
Ġe ating
Ġgr im
g one
Ġty p
7 3
R o
ord on
Ġind ustri
Ġmar gin
amil ton
B ER
ot ing
m oment
Ġmar ched
w ords
Ġext ensive
v y
ac ific
Ġexc use
Ġth read
hed ral
augh ters
F l
Ġp owder
ĠM oses
Ġun happy
ĠWil son
Ġre aching
Ġv ague
bl er
Ġpass es
Ġread ers
Ġg ames
ra ction
Ġbl essed
ir med
us ions
Ġconc ent
Ġan cest
ĠH am
Ġun s
Ġen h
ĠTur k
i ations
Ġsw im
ke ep
r as
ĠS qu
ol ation
Ġwhe never
Ġa pt
Ġc her
cc les
Ġsp ort
pir ation
IS H
Ġpur ple
Ġinvol ved
Ġass umed
Ġn av
Ġl amp
sec ond
Ġsuspic ion
uck y
Ġfright ened
Ġrout e
Ä ģ
Ġt ide
g reg
l est
y es
ap es
Ġfl u
d oes
Ġwond ered
Ġche eks
ĠB illy
Ġmain tained
Ġze al
t es
at ched
Ġf ran
Ġgener ous
Ġf ert
Ġrel ative
ear ly
8 2
all ow
Ġinv ited
ĠFred erick
for th
ract ed
Ġdr am
Ġcontr ast
Ġman kind
Ġun ion
ĠSam uel
Ġchar ged
Ġmill ions
ud ing
Ġob ed
Ġstra in
Ġl oyal
Ġcompan ies
O D
Ġpract ically
Ġelse where
Ġlim it
ean while
g row
Ġj u
com es
Ġact ing
ĠGerm ans
F oot
ch anged
ĠW estern
Ġsovere ign
v ia
Ġtreat y
b id
id el
Ġres idence
Ġform ation
Ġdep th
Ġtrans fer
Ġhy dro
Ġwhe at
p ract
i h
V III
ill ing
Ġse lect
Ġag ent
Ġw ra
Ġdri ving
Ġf oc
Ġl est
m oney
as ped
ĠPhil adelphia
ĠP re
f are
w omen
Ã ®
Ġent itled
Ġhealth y
Ġp sych
all ing
ac count
Ġme as
Ġdisp osed
ll a
Ġhuman ity
Ġann ual
Ġcrit ical
ut ter
Ġpain ting
ĠColumb ia
Ġdim in
b a
Ġfe ared
Ġri val
Ġunex pected
ge on
1 00
Ġste ady
ple asant
ĠM onsieur
w ord
Ġ âĢĶâĢĶ
ke l
Ġclaim s
Ġut most
ĠP athe
Ġun usual
ret t
ĠOn ce
Ġele g
V II
ĠD ra
r ad
le m
om ach
G reat
de v
Ġconduct ed
Ġmis erable
Ġhand ed
Ġweak ness
Ġo ath
ĠT im
for mer
Ġpurch ase
Ġm ob
Ġrespons ible
Ġt ort
Ġg host
Ġab rupt
ĠAg ain
Ġspecim ens
m is
ang le
Ġmon arch
Ġbar bar
p ose
ĠG overnor
Ġbr ide
Ġcra ft
ĠC re
Ġhold s
Ġv ital
ged y
Ġwind s
Ġstrong er
Ġt iny
Ġdirect ions
ĠH ome
Ġregard ing
ap arte
Ġg rie
ac co
ĠP ost
ĠV I
Ġsuppl ied
Ġhither to
Ġt our
Ġpre m
Ġcomm od
Ġapp ly
Ġent ering
Ġfin ancial
Ġb orne
Ġco ach
8 1
Ġdelight ed
Ġm ild
Ġas certain
ĠJ ane
Ġem peror
M ore
Ġpen et
ĠSen ate
Ġdev otion
Ġexist ing
ion e
ĠS un
c s
i pt
Ġgaz e
Ġne arest
Ġwar ning
Ġest im
ĠF our
CT ION
um ps
de ath
d ig
ĠH ay
ĠIs rael
9 5
Ġsee king
Ġopp osed
s ar
Ġ ĊĊ
ĠB u
Ġless on
ĠJeff erson
Ġr ush
ar ms
ĠS and
ell ing
Ġpos itive
c overed
Ġper mit
de c
ĠHu gh
re present
Ġc art
b ishop
Ġenc ourage
anch oly
O H
Ġ Î
c ity
Ġsh oes
Ġsafe ly
Ġder ived
Ġadapt ation
Ġcommer ce
ĠNot hing
Ġfol ks
ĠA ccording
Ġheav ily
ce nding
ĠH ave
Ġbal ance
A U
ĠT w
d est
e ous
Ġlist ening
ĠEmp ire
p it
Ġs orts
Ġattack ed
T O
Ġtend ency
oo s
ĠH aw
S pe
ant a
Ġlight ed
Ġignor ance
Ġfe ature
ĠAd ams
Ġaut om
Ġcomp ass
Ġer ror
E ven
ne ar
de f
Ġrail way
ific ations
ĠW at
Ġser iously
al ong
Ġsc ore
w ife
âĢĶâĢĶ "
Th ough
Ġsong s
Ġto ols
ist ence
ect or
ĠL uc
Ġtr ick
Ġh anging
ĠEll en
Ġst retched
Ġcar bon
cher s
Cap tain
d irect
h orse
Ġnight s
Ġspeak s
Ġburn ed
Char les
Ġlone ly
a ac
d ifferent
Ġgover nor
et ing
ĠAr my
ĠT em
ann y
H en
g entle
ind ing
Ġgard ens
Ġdesper ate
A ST
Ġbel oved
Ġterrit ory
re ly
Ã ¤
th ren
qu al
ĠG all
ĠPar amount
ab ove
occ up
a us
p ublic
ex am
Ġerect ed
Ġmedic ine
Ġest e
k a
p ress
ĠP ass
Ġro ots
ĠL ook
Ġpu zz
Ġ vel
." âĢĶ
pl ine
az e
ĠCl ub
Ġtrou bles
P age
on se
ĠR h
Ġgu ests
Ġ9 0
al a
ĠP en
Ġobv ious
it udes
ĠM ack
Ġsit uated
Ġm ap
Ġin ev
ĠL ike
Ġplay ers
Ġnod ded
Ġmass es
Ġsil k
ul gar
w he
Ġpursu ed
S u
su ff
Ġse lected
Ġex ternal
Ġbl ame
Ġgl anced
Ġele v
i j
fe w
Ġmot or
Ġrid ic
h or
t ree
Ġqu oted
ĠAn y
Ġref use
Ġtest imony
ĠD ave
E m
st ers
Ġfirm ly
Ġexceed ingly
w a
P E
Ġre ject
Ġmost ly
ĠT own
Ġmo ist
Ġexam ples
Ġant icip
ĠSte p
Ġhung ry
o pping
Ġfe ast
Ġres istance
ĠAl though
Ġintrodu ction
ĠMex ico
C le
Ġrec overed
Ġcent er
Ġty pes
Ġviol ence
Ġdeb t
Ġaccording ly
Ġp ound
Ġt ear
ĠTh ough
Ġr ot
Ġaccom pany
e ff
Ġd ivers
oll and
Ġphenomen a
9 8
wh y
Ġfore head
u ously
Ġf asc
Ġar d
Ġver se
y m
Ġbe ings
ĠS us
Ġing en
Ġas h
ĠCon n
com mun
Ġrest ored
oubted ly
os itions
German y
Ġbe ach
Ġrec ords
Ġhosp ital
Ġplat form
Ìĥ .
ert ion
n ational
Ġsc orn
ex cept
ues e
T ake
Ġw retched
Ġse as
Ġmerch ant
Ġir regular
Ġfle w
Ġcell s
Ġgr ant
Ġsign al
g ave
Ġen able
Ġhundred s
heart ed
f ell
Ġnor mal
Ġneighbour hood
f ree
Ġref uge
Ġinstruct ions
Ġeager ly
Ġre n
ie ge
Ġrem ote
Ġstre ams
Ġstra w
Ġobserv ations
b al
arr ass
Ġemploy ment
Ġc ries
Ġche ek
room s
ll en
ĠA T
; âĢĿ
e ast
Ġhe ll
Ġoff ering
ĠLe g
Ġm ing
A G
Ġfl ame
Ġo h
Ġres ist
Ġach ieve
iv eness
Ġun ique
S ec
f ashion
Ġd ial
Ġne at
ait ing
ĠD is
Ġbur den
mir al
Ġinquir y
ie u
Ġins isted
Ġaccount s
ĠAmeric ans
bo x
Ġp ause
Ġl aughter
9 1
ê Ŀ
ak ers
Ġdescri be
ĠC ross
Ġsc ulpt
Ġth ir
Ġche mical
d ess
w art
Ġin her
Ġbe ast
Ġown ers
Ġshad ows
ĠOff ice
F irst
d ark
ag le
Ġsleep ing
Ġst ared
Ġman age
ches s
Ġb osom
Ġind icated
Ġcomb ined
Ġsli pped
Ġc ave
Ġd ancing
ac com
Ġ15 0
n ature
of ten
Ġteacher s
as ked
Ġg a
ĠI nt
Ġgover n
IN E
Ġstart ing
Ġintellig ent
t ri
Ġv on
ĠAs ia
Ġquar rel
B el
ĠR el
Ġrec over
O ld
Ġ {
iet ies
ĠKing dom
Ġposs ibility
Ġimag ined
ĠSec ond
Ġaband oned
ic ing
ĠCom mittee
Ġher s
Ġpre jud
ins on
Ġwhis per
in tend
un ting
Ġen abled
Ġmer it
Ġorigin ally
Ġpray ers
rig ade
ĠS H
Ġsa iled
ĠFl ore
Ġl ic
Ġbr id
Ġfin est
in er
ĠT y
Ġinst ances
cent ury
Ġcor ps
there fore
Ġdri ft
Ġat tain
Ġ3 2
Ġra ge
Ġcre ation
Ġhad n
fort une
Ġinvest ig
Ġbu ff
ra ge
ĠD ar
Ġfl ung
sh ort
Ġmid night
Ġmas ters
Ġdepart ed
c ross
ens ity
Ġmer ry
cript ions
Ġshort ly
il a
est ab
Ġour s
Ġsend ing
ĠJohn son
M ary
Ġa pe
Ġcl ay
Ġtre asure
s ight
Ġhel pless
gr ad
is ms
Ġv ote
Ġcover ing
T is
d ie
w all
ter ior
per fect
Ġcons pic
Ġbo il
Ġhur ry
L ike
Ġre tain
Ġal ter
ĠSt ud
ib ilities
Ġdet ect
f red
Ġc ards
oo f
Ġhe d
Ġde eper
ar ation
Ġimp ulse
ĠBel g
Ġgra in
ke eper
Ġpo ver
M AN
êĿ Ń
Ġcan oe
ĠChrist ians
if ully
Ġexist ed
Ġbelong s
Ġgen uine
ge ant
Ġimp act
ĠT or
ĠR ec
f av
l ord
ĠD ec
op ing
Ġpat ience
Ġfavour ite
Ġmix ture
fe et
Wh ich
ĠH al
ay ing
th ousand
Ġan gel
Ġpe pper
E Y
Ġs ang
az ine
Ġrecord ed
al ph
Ġr idge
Ġlo ves
Ġeng ra
ist ry
og rap
Ġagree able
em an
Ġbad ly
ĠLew is
Ġpover ty
h our
Ġsett lement
Ġ4 5
D es
d ri
ian o
our nal
Ġprov ince
M e
it ality
Ġprot est
Ġcircumst ance
ĠSpan iards
J ames
ĠA N
Ġmis ery
Ġpolit ics
Ġreve aled
C he
M any
act ions
Ġdistinct ly
S er
Ġf itted
om ed
Ġa st
Ġde ce
Ġinter pret
Ġque er
Ġperman ent
Ġrece iving
ĠCan ada
Ġadvant ages
Ġnarr ative
ra ined
Ġme ad
9 2
Ġac res
Ġeight een
Ġtrem bling
e ither
ĠE duc
ĠLe on
l ines
pl ed
Ġkiss ed
ĠR od
Ġint r
Ġmus ical
Ġearli est
an ed
ack s
Ġpart icip
f if
Ġsens es
Ġcustom s
Ġp ace
Ġbo iling
Ġgaz ed
es ter
ĠW el
old s
p op
Ġdisp osition
Ġch apel
Ġdeterm ine
Ġn aked
Ġnever theless
Ġele ction
ĠPe ople
Ġadop t
Ġvent ure
ĠLie utenant
ra its
L Y
Ġp ars
ac ing
Ġle ge
Ġgr asp
F rank
W as
ĠG er
us alem
9 6
ĠT ay
can not
ic it
Ġde er
Ġreason able
part icular
Ġmurm ured
Ġa uthors
Ġthere by
Ġprim itive
Ġd ur
Ġexperi ences
Ġb owed
ĠB Y
Ġinter nal
o a
Ġp ool
ll e
Ġno on
Ġh aste
Ġex quisite
Ġmin or
Ġant iqu
gh ter
with in
Ġsust ain
9 3
Ġt orn
AC K
Ġc otton
Ġd ared
int ell
Ġsign ed
Ġsex ual
t rees
Ġtri be
ĠS ax
Ġare as
any thing
Ġmer c
Ġact ivities
Ġland scape
Ġs ed
Ġcivil ization
Ġbl oom
ĠConst ant
Ġemph as
T ON
as hes
ost er
pt on
ĠS ometimes
Ġsh ock
Ġsome how
Ġcra ck
Not hing
Ġsuppl ies
k new
ĠR u
Ġcontin ually
ĠPr incess
le ton
ĠJapan ese
Ġpro gram
g ro
ĠMet ro
Ġrep ublic
m ill
ut y
ĠT ime
ĠH ence
Ġun like
Ġcapt ure
ud ence
Ġafter ward
Ġhapp ens
g iving
Ġco arse
Ġcross ing
Ġs ore
Ġab st
a ft
at oes
ĠAt l
in burgh
Ġg ates
Ġem pire
Ġj ump
Ġpri ests
Ġredu ce
Ġche ap
Ġfin ish
Ġshe et
ag ues
Ġcon vention
inn ed
b acco
Ġbr ow
Ġart ific
Ġann oy
ĠBar on
Ġc rying
ĠV III
Ġpar ish
ĠC ard
Ġpreced ing
ĠMar garet
Ġst omach
Ġreal ize
t imes
ON T
Ġfore ver
ed ed
Ch ina
head ed
Ġc ents
Ġrep orts
Ġsugg estion
Ġeconom ic
9 7
v as
ĠJ acob
T om
adv ant
B et
g ans
Ġlim its
ĠSecret ary
Ġper ceived
ĠB E
Ġcon ception
Th ou
Ġmist aken
Ġpl ot
Ġret ire
ĠSp irit
t reat
ĊĊ ĠĠ
ĠAr men
Ġs ank
ce l
ag ree
dif fic
ob ject
Ġsur vey
9 4
Ġ +
ig ence
Ġsome body
se veral
ex c
wor ks
ut her
ir th
ĠS ince
Ġwar ri
id ers
ĠAb out
Ġconsider ing
Ġpain ter
I ll
Ġinfer ior
so ld
gr at
Ġro ot
qu et
Ġdec ide
Ġfavor ite
Ġcere mony
le ase
Ġri fle
ub es
L D
or ace
se a
ĠR O
ib us
it an
gr and
Ġbott le
ĠProdu ctions
ĠD un
Ġvar ied
Ġpictures que
ult s
sp irit
ond ay
Ġra b
ve t
Ġs isters
Ġimprove ment
ge ls
Ġper mission
me ans
w hel
Ġb ishop
Ġle is
ast y
bl ance
A GE
ĠF ed
Ġkn ight
Ġday e
Ġsun shine
che ster
Ġsatis f
Ġfol k
ĠIll ustr
ĠT ake
Ġr ays
Ġany where
el ine
Ġart ists
Ġut tered
gu ard
f ront
am med
Ġdes cended
Ġa u
I P
Ġg est
Ġprep are
ipp ines
Ġens ure
Ġexha usted
an es
Ġv ivid
pl om
ĠH amilton
Ġmag ic
u ate
ens ions
Ġwond ering
Ġimpro ved
Ġprepar ation
it self
ay ed
Ġpain ful
Ġthreat ened
z ing
Ġsix teen
Ab out
n umber
Ġbe gged
Ġra ising
Ġphr ase
O ut
z ed
Ġb orrow
ĠP R
Ġsl avery
ill es
ĠL is
Ġp oured
Ġconven ient
ĠBab ylon
Ġg ent
ĠG race
Ġpl un
ic ago
Ġinte gr
Ġmed ium
a ffect
Ġwas h
ĠG eor
Ġsm ell
b ound
Ġpot ential
Ġconsequ ences
ĠR ad
op in
? âĢĻ
ac hel
Ġsm art
io let
Ġsevent y
t ill
Ġb ath
Ġ7 5
ĠE p
pr ot
Ġfurn iture
Ġr at
Ġcom r
Ġpo ems
19 0
Ġsurr ounding
w it
ust er
Ġdrink ing
U nder
ĠNor thern
Ġinstit utions
s ays
less ness
ertain ly
ier re
ru g
Ġel oqu
Ġclot hing
Ġinj ury
Ġassem bled
er ness
Ġcand id
Ġgif ts
nd ers
ch urch
ever al
com mand
Ġrest ed
Ġsu pre
ĠV ill
Ġprevent ed
re ement
all owed
Ġstay ed
Ġsupre me
B Y
b orough
ĠA R
ĠB all
Ġarm ies
D E
es pecially
and al
ĠS to
Ġwork ers
Ġb one
of ty
Ġpe op
Ġvisit ors
L ou
Ġinst ruction
app ing
Ġpres erve
for ward
ar ia
her self
aph one
ur red
Ġv ine
Ġ5 5
S S
Ġtri but
medi ately
ĠP ot
ex peri
Ġve ins
Ġconce aled
ĠM ah
âĢĿ âĢĶ
Ġsubst ant
Ġmel ancholy
M on
ĠĠĠĠ ĠĠĠ
ĠG ar
r ot
Ġthr owing
ps on
Ġland ing
p oor
Ġw ives
Ġd oth
Ġwide ly
Ġden y
p ossible
Ġf ires
ĠP enn
Ġad j
Ġgrat itude
ur ious
ĠB ern
âĢĶ âĢĿ
Ġhast ily
G H
Ġcour ts
OO D
Î ½
at on
Ġto mb
ĠF ord
Ġobject ion
Ġvol umes
J ack
in ery
Ġdepend s
ĠLe e
Ġsac rific
Ġt in
Ġp ink
Ġadd ing
Ġgu est
Ġres umed
Ġprop he
Ġar ts
Ġrep rodu
Ġvict im
L a
Ġdist urb
re rs
ĠS cript
Ġequ ip
Ġopportun ities
beaut iful
ĠServ ice
g ate
Ġstr ing
rel ig
Ġwed ding
Ġl ob
ro ck
ĠBr other
Ġfear s
Ġcompre hens
ĠT ex
Ġpri or
Ġissu es
18 0
ĠSat urday
f ish
sel s
Ġra ces
Ġconv iction
Ġshar ply
Ġpa ied
Ġsym pt
ĠCr own
Ġadm ire
Ġreck on
Ġforest s
Ġtrou bled
Ġcitiz en
Ġwe aring
ĠB as
Ġsymb ol
Ġm ines
ĠDe ath
B ecause
g n
man ner
Ġdes erted
Ġran ks
Ġresp onse
bro ken
Am ong
Ġpursu it
ĠO liver
Ġcompar atively
ol t
ad ise
Ġad just
Ġsum mon
el a
ham ed
ĠChristian ity
Ġt ones
ĠL l
Ġprep aring
Ġsuper st
Ġcomb ination
s pring
Ġcor rupt
f amily
Ġfor give
sh aped
Ġpri ze
Ġdepart ment
Ġs addle
Ġd aughters
Ġr hy
ĠRus sell
t ical
F OR
s a
Ġsum mit
Q U
Ġsuccess ion
set t
S ON
Ġv oc
somet imes
U RE
Ġpat ron
Ġcompar ison
m und
ĠS n
Ġle ather
ĠRe volution
Ġ16 0
' ,
Ġslight est
Ġm art
Ġsa uce
yl van
ĠJu an
âĢĶâĢĶ âĢĿ
d in
ccles iast
Ġbu ck
Ġvill ages
o ard
Ġre vel
ĠN ed
og y
AT E
appear ance
al i
ru p
Ġas hamed
ĠH aving
ick et
er g
Ġpar allel
Ġwa ist
Ġse am
ĠW in
ĠF r
ind eed
Ġpre tend
ath an
Ġinst itution
Ġshore s
Ġch ose
Ġkne e
us cript
ĠD em
Ġrest ing
Ġch ron
OU N
ĠM ic
step s
L ES
Ġb order
Ġg re
enn a
Ġrespons ibility
ct ures
pl aced
Ġgr ows
.âĢĿ âĢĶ
Ġcol ours
Ġcont ents
pro v
Ġsour ces
Ġre in
for ced
Ġ3 3
Ġcol ors
Ġdam age
Ġcheer ful
Ġind ic
Ġir rit
Ġch im
ĠPl ay
J apan
L ady
g ia
if ted
comple te
ar ound
Ġattract ive
Ġor ange
op l
Ġri b
Ġp ear
Ġmar ble
Ġf ruits
pl aces
Ġcrim inal
R es
se x
Ġdecl are
s ign
Ġd yn
Ġless ons
ed ge
Ġnot ion
us hes
Ġkeep s
Ġbr ush
m ans
ĠB un
Ġhand le
Ġg am
Ġform al
Ġcle ared
ois elle
ĠK nox
Ġid le
Ġstead ily
in ating
Ã¦ sar
Ġprim ary
Ġre form
Ġus es
Ġphys ician
p osed
here nt
Ġpl anted
Ġcl ock
Ġlight ly
Ġpain s
Ġjour nal
Ġrecogn ition
ĠJud ge
ĠV II
erv ing
Ġins pired
sc he
Ġbed s
Ġd ining
et her
Ġex ists
Ġgr ateful
ener y
Ġconf ident
Ġthe atre
ir a
Ġj umped
ress ing
th y
ial s
Ġeng age
IC K
2 00
Ġper il
friend s
id ney
ĠM ount
Ġto ss
Y e
ĠM oore
bus iness
Ġfl ash
import ant
ab rous
Ġr ises
Ġart illery
ĠCarol ina
c ourt
Ġch anging
be gan
Ġadminist ration
w en
Ġarri ve
Ġa str
in qu
bl ood
Ġabs ent
our ing
alth ough
Ġlean ed
ĠA sh
Ġ3 4
Ġcolumn s
ĠG ordon
my self
Ġexam ine
Ġn urse
Ġl ap
em ploy
ĠDor othy
R ich
ĠC ub
ear th
Ġsol itary
bel ieve
Ġeat en
Ġpurch ased
Ġhor rible
Ġproper ties
Ġne ut
Ġst upid
ĠB a
Ġse eds
Ġpay ment
Ġfro st
Ġref lection
Ġexpl ore
Ġcommand er
Ġden ied
Foot note
al ready
Ġra v
o bl
OO K
ĠV i
Ġg or
ĠA L
ĠP acific
âĢľ âĢĺ
ist ing
Ġro le
Ġsc ream
Ġwant ing
Ġru ins
Ġsurr ound
M or
Ġo w
Ġl ock
Ġ â
ĠW ales
Ġcondem ned
P ort
Ġm ount
rid ay
Christ ian
av a
Ġdemand s
Ġtra ined
Ġfour teen
Ġmort al
Ġindepend ence
ĠRom ans
Ġdisplay ed
l eness
Ġd ense
Ġlim bs
Ġal oud
ĠS ub
ĠO ver
Ġ17 0
Ġdeterm ination
Ġprocess es
Ġc ared
el f
man n
ĠW H
ber ry
Ġper sec
Ġint imate
Ġpay ing
Ġoccup ation
L ittle
Ġemb arrass
Ġvig orous
Ġalt ar
Ġape x
] ,
ct ors
Ġweap ons
b ene
p arent
Ġb id
us k
rem ark
Ġplain s
Ġconce al
de ep
Ġint im
oun ter
Ġliqu id
ra ham
st ead
Ġad vert
og s
Ġbo ots
Ġimm ort
h ill
ĠB al
Ġfe els
Ġcons isted
Ġrec all
w s
AT H
reg ard
Ġelect ed
Ġprefer red
s ac
ar ant
ĠSt ory
Ġe cho
ĠB re
Ġsuspect ed
ĠT re
Ġcolon ies
Ð ½
Ġtou ching
Ġ1 20
Ġprov ision
ĠK itty
ĠL ar
Ġav o
Ġattempt s
Ġadmir able
Ġsatisfact ory
Ġimpr ison
s ed
Ġcon cept
Ġemb ra
b ird
ang led
Ġaff l
ĠPortug uese
ĠT ri
em oiselle
Ġwhere ver
Ġsy n
P resent
Ġat e
Ġover come
just ice
l ater
he red
out s
Ġinter fe
Ġdel ic
T S
Ġl un
Ġsc ales
ob s
Ġanal ysis
P R
Ġoff ices
Ġtim ber
e pend
ĠW r
Ġso b
te xt
Ġx x
Ġst air
Ġext rem
O G
c reat
de al
co at
Ġgather ing
ĠM me
ĠH olland
ran ean
D av
ow l
book s
" ,
ĠCom mission
ane ous
Brit ish
. ).
Ġoccasion al
ol is
Ġneg lect
ĠThere fore
Ġe re
op ed
Ġad ds
Ġacc used
Ġtre mend
occ asion
c ular
p oonful
Ġto bacco
I AN
Ġfat ig
ong s
Ġbr ick
atter ing
B ur
ven ue
Ġappropri ate
ut ing
ir ts
gr im
Ġeas ier
Ġaband on
as per
How ever
Ġabund ant
Ġdr unk
Ġrepe at
ĠAc ademy
tow ards
ĠG il
Ġset s
ĠMad rid
Ġattract ed
Ġth rill
ĠH ard
Ġrep air
Ġgra cious
Ġdisci pline
ĠB ert
g ly
in ated
ĠE ss
con n
Ġcontr ad
acc ording
Ġcultiv ated
ans as
Ġfurn ish
ol as
athe mat
Î ±
ad er
st ri
Ġpre y
Ġexec uted
Ġlat est
um m
land ers
Ġ il
Ġs aint
On ly
ĠAfric an
Ġamb ition
us ually
op y
Ġsh ake
Ġr ice
ud ent
Ġart istic
Ġadv oc
Ġbus h
ĠVit aphone
alle ys
ĠProtest ant
M er
ent ially
Ġinter vals
h i
Ġs ounded
th r
Ġel abor
b rew
Ġl in
ig r
Ġro lling
th ony
ens ation
Ġdoc ument
ĠE arth
Ġcl erk
oy d
St ates
ylvan ia
Ġin fect
by e
Ġill ness
Ġphot ograph
Ġh oles
Ġl ift
Ġad orn
w ide
in v
be gin
Ġre bell
f elt
ĠM useum
Ġref lected
Ġp all
ĠM un
Ġang le
d aughter
Ġmay be
Ġcol ored
Ġaston ishment
b ad
Ġch lor
ĠTh rough
) :
ir s
Ġon line
Ġsh ield
ĠAl bert
ĠW ind
Ġdist urbed
Ġgrace ful
Ġbree ze
Ġnot withstanding
ĠG ospel
de cl
Ġwhere as
Ġb ond
ad ers
ĠM AN
ass es
Ġinc red
Ġproceed ings
Ġbless ing
W est
u ing
Ġeight y
p a
Ġde fect
Ġinc or
m il
u er
Ġs way
per ial
ĠWall ace
ro ll
Ġdep ths
c at
v ag
Ġse lection
Ġ4 2
ĠIs aac
Ġrail road
Ġprivile ge
c oh
n um
Ġst able
Ġch amp
com b
Ġve h
ĊĊĠĠĠĠ Ċ
Th ose
ĠMin ister
r un
. -
Ġin fl
Ġd uck
Ġem otions
pro f
Ġbre thren
yl via
od es
Ġsl ip
Ġrel ieved
Ġocc urs
Ġdistingu ish
f ellow
u art
se ven
v ate
en c
al one
Ġpl ates
Ġmerch ants
f a
um an
EN D
Ġpro hib
Ġrespect s
s un
ick ing
Ġaston ished
Ġconstruct ed
is is
Ġlo ad
ĠChar lot
OL D
atis fact
d rew
Ġorn ament
ĠT ell
On ce
Ġp ine
atch ing
Ġcl oser
Ġrecogn ize
ĠM ax
Ġmut tered
bu ilt
T ur
ut t
Ġag ed
Ġpe asant
Ġreg ards
Ġprov iding
Ġhar mony
Ġdefe at
Ġmiss ed
ĠBon aparte
Ġv ap
S H
l ad
Ġcl aimed
Ġevery one
Ġenter prise
ĠM AR
Ġeng agement
Ġy er
Ġhel ps
he nt
Ġdis miss
Ġgr an
Ġpass ages
Ġlay ing
Ġb asket
Ġp ir
Ġst am
ĠN ight
Ġass ume
Ġprot ected
Ġdwell ing
ĠB ess
Ġmin isters
im a
Ġarrange ments
ĠD er
op er
i ac
ot y
g old
Ġb arn
Ġvisit or
Ġprecise ly
D ear
o ven
Ġg ig
Ġam end
Ġgl ob
Ġpe as
Ġd iet
Ġl ocked
Ġrest rict
ĠSu pp
Ġafford ed
Ġprosper ity
A gain
Ġwas hed
os is
ĠCar l
ĠFl or
Ġnewsp aper
Ã Ń
Ġar ise
Ġpoint ing
Ġund oubtedly
ĠÃ ¡
Ġo ak
Ġl ofty
ĠV alley
ĠJer usalem
ĠN ich
Ġ4 8
Ġwr ath
Ġl ink
um bled
ish ops
ons ense
igh th
Ġchar ity
rel s
d oubt
r ates
v ill
Ġha z
ict ions
OR Y
P aul
Ġh olid
Ġf ence
Ġsum m
ĠP ut
Ġqu art
Ġgood ness
Ġfl av
Ġanch or
Ġl y
um ption
Ġimp ressed
T ell
im ag
Ġsome one
Ġmod erate
Ġsulph ur
Ġs ne
Ġ5 6
i pper
Ġre ception
ĠL o
Ġins ult
Ġext ract
ĠEd ition
Ġsh one
Ġarchitect ure
ĠMich ael
Ġhoriz on
m ain
ack ed
Ġarrest ed
r ise
Î ¿
ay er
Ġcon vent
ĠG re
ĠBl ue
ĠMore over
Ġh ind
ĠS ix
ĠH and
Ġr ud
ograph ical
Ġspread ing
F ran
ĠS av
Ġru ined
ar on
ĠD ou
Ġ3 00
Ġpron ounced
Â ´
in f
ke pt
oc he
Ġmot ive
S am
Ġshe lls
ĠCh ief
ĠHe ad
wr itten
follow ing
h ur
ol en
Ġun w
ĠEd inburgh
ag ne
Ġind icate
Ġaccom mod
x ed
Ġne got
Ġfather s
Ð µ
Ġt on
Ġdra gged
OR K
Ġconsider ably
ĠGr ay
ĠEgypt ian
ĠAustr alia
n ation
w alk
ou ched
Ġn inet
Ġ6 3
d ish
Ġm ould
th rop
Th ree
Ġsens ation
Ġd ried
Ġconspic uous
U B
Ġsl ain
bec ame
IC E
Gold wyn
Ġout ward
Ġpropri et
Ġs iege
ĠW hether
Ġres erve
ob ody
f les
if ies
Ġun iverse
Ġpart ed
Ġass ure
Ġperfect ion
Ġbene fits
cra ft
Ġp ond
It aly
akes pe
use t
part y
R ussia
S ince
e ur
h all
Ġprof essor
o il
p se
Ġs ins
it ious
Ġb ade
Ġsh ared
Ġfortun ate
in ence
Ġc el
l ock
Ġ4 6
ĠSu per
Ġscar ce
Ġmechan ical
ker chief
h ope
Ġgl abrous
Ġexper iments
Ġsubsequ ent
Ġlaw yer
h an
Ġspecim en
le ast
ĠB ull
Ġbur nt
Ġpure ly
Ġabrupt ly
g overnment
w ich
Ġover whel
ather ine
Ġeconom y
Ġj ury
Ã© t
Ġindu ced
Ġg arrison
Ġpr ices
Ġper ceive
Ġrespect ing
re ne
ell o
Ġacc um
Ġschol ar
F F
v oice
Ġth ine
ĠF il
br other
ĠC ra
Ġro ses
Ġbr on
Ġtechn ology
ibr ary
L ove
ĠSt r
Ġmod est
Ġat tained
Ġdistrict s
p age
Ġstr angers
Ġconce ived
p ain
Ġg iant
Th ank
Ġdiscuss ed
Ġlean ing
Ã ł
Al though
Ġfast ened
ro b
Ġso ci
um ing
de velop
Ġstreng then
Ã «
ast on
Ġbus hes
Ġdesign s
ĠChe ster
ĠCent ury
Ġshoot ing
ort on
Ġtem porary
H aving
S ch
ak ened
Ġconqu er
E urope
Ġm ast
Ġl ust
ne xt
fic ial
V ER
ĠE astern
ung le
ĠDav is
Ġappre hens
Ġc ure
Ġd aring
ĠT enn
ri z
ĠU pon
Ġap ost
will ing
know ledge
ch ance
pl ain
ach uset
Ġsk etch
Ġvol unte
Ġplan et
Ġtrave lling
Ġreven ue
Ġhesit ated
Ġindustri al
Ġpr incess
m ove
Ġqu i
Ġinf antry
achuset ts
Ġstr ateg
Ġd iver
st ream
Ġswe ep
OH N
em ic
Ġpup ils
un a
Ġpass engers
Ġst ores
Ġde ed
St ill
Hen ry
ĠF ield
U ST
Ġtr an
pro bably
Ġregular ly
P oor
Ġde eds
Ġprof ess
Ġmaid en
Ġfee ble
r ice
r idge
ur is
Ġh id
be hind
Ġproceed ing
Ġsimpl icity
Ġ4 1
B oston
Ġrepl aced
Ġh oney
ne arly
Ġh ay
su per
Ġinc ome
Ġpeop les
d ale
ĠS up
os ity
Ġend ure
ĠMar ie
Ġsuccess fully
it o
ter y
ch air
ple asure
Ġmore over
K e
c over
f aced
Ġbl oss
Ġwr ought
inc re
ĠCharlot te
suffic ient
ĠM iddle
pr ison
Ġlive ly
Ġb er
Ġaw ake
Ġinstr uments
on ents
Ġkn ocked
Ġrom antic
Ġfun ctions
r ons
omet hing
Ġliber al
AC E
z es
reat h
Ġcomm ence
Ġass ault
Ġtal ent
akespe are
Ï Ħ
Ġl ing
ĠS her
ĠW ild
Ġrecommend ed
Ġrecoll ect
om p
ic he
us ively
Ġexp enses
May er
F R
ci ences
ĠBo ard
M c
ubl ished
Ġdoubt ful
leg raph
boy s
Ġl ion
Ġdes k
arr is
Ġdial ogue
Ġt it
Ġd arling
Ġbe asts
c re
Ġo we
Ġgall ant
at i
ĠR oss
Ġpo ets
uss ian
in us
om a
ĠM od
ĠF le
ĠDep artment
cclesiast ical
g le
Ġg ang
Ġmain ly
h ot
at ers
Ġbeh aviour
B en
Ġm ate
Ġgl ow
qu iet
os ph
Ġbeh alf
Ġself ish
ipp i
Ġev olution
Ġd rank
Ġbe ating
ri ver
ĠN i
spe ak
b ott
Ġhat red
ĠF oot
" ;
n ie
Ġh ut
ĠT est
Ch apter
.' "
v ous
Ġpr inces
Ġheav ens
ĠL iber
Ġsp orts
ĠCh icago
Ġname ly
Ġexhib ited
L ie
let ter
Ġrespect able
Ġcorrespond ence
Ro bert
Ġf ury
ĠC ivil
nor th
ĠT urn
Ġind ifferent
Ġfear ful
if ference
Ġwhe els
l ady
Ġfif th
ĠP oly
Ġput s
Ġamuse ment
Ġtremend ous
Ġre li
Ġconf irmed
Ġjud ges
Ġl osing
Ġorgan ized
Ġfun eral
Ġtransl ation
Ġfeather s
Ġv ice
Ġnerv es
. ),
Ġh ated
Ġh unt
an ing
id ity
Ġall owing
under stand
Ġpos itions
Ġsympt oms
Ġst ress
Th rough
Ġinf ant
U pon
ĠO l
Ġpres ident
every thing
Ġf ishing
ber y
Ġchall eng
Ġm ail
ĠP an
Ġrepresent ative
Ġsqu ad
Ġinclud es
Ġabsor bed
ĠC y
ĠE st
Ġneighbor hood
u ations
at ically
Ġbe ard
ĠH orse
Ġcon j
ĠG irl
Ġapp ar
Ġattack s
s ylvania
en cer
Ġcontin uous
Ġmag ist
Ġsurre nder
so le
Ġwrit ings
ĠAd am
Ġhar sh
Ġsens ible
Ġsh aking
ig s
Ġvan ished
Ġfran cs
on ies
Ġp ush
ĠB O
ĠB uck
pl ied
ĠTurk ish
c ro
m ounted
Ã ³
en es
ag ers
Ġ4 4
J u
th ird
Ġbr ass
Ġeffic iency
ĠDiv ision
C oll
k ward
ch ant
ĠU p
Ġii i
itz er
w ant
Ġu gly
ill ings
Ġdiffe rences
Ġsignific ance
t rue
Ġb ri
Ġth irst
Ġre tained
Ġcoll e
Sh all
Ġassoci ation
W ould
Ġm our
Ġe th
Ġ5 7
Ġ6 5
Ġli able
Ġchild hood
Ġrele ased
Ġgloom y
ri ly
ĠF riend
Ġapp et
ĊĊĉĉ ĊĊĉĉ
Ġin k
Ġmy th
Ġnew ly
flu ence
Ġprov ides
Col onel
ĠFlore nce
Ġp ul
Ġd ict
Ġj ack
ĠCom mon
Ġce ase
Ġd irty
Ġsl ope
Ġchar ges
ĠR alph
c orn
Ġl ament
ĠM oh
ĠL ow
Ġcre pt
Ġexper t
i eth
ĠL ight
Ġpersu aded
phe w
Ġw ake
ay ne
Ġ4 7
Ġown ed
Ġdesir able
ĠW oman
ĊĊĠ ĊĊĠĊĠ
L AND
P res
ĠW ould
Ġ5 1
Ġrom ance
Ġdisg race
! âĢĻ
ĠS em
Ġeduc ated
Ġdiam ond
] "
Ġcol ony
R em
ult an
Ġdes cent
Ġprompt ly
Ġf olly
se ems
ĠAd miral
Ġexpl os
athe tic
ĠAtl antic
Ġ4 3
Ġclim bed
Nor th
Ġb und
ĠJ acqu
ask y
ENT S
Ġfront ier
Ġar isto
Ġgl it
Ġsle e
C I
ig an
ĠBet ty
ĠStep hen
5 00
ys ical
m ine
Ġr am
Ġed ges
Ġillustr ated
Ġvers es
ĠPortug al
m aid
ĠB att
N OT
Ġf ox
Ġabund ance
ult ure
Ġinter national
ĠIn f
az ed
Ġmis chief
ĠWell ington
Ġcalcul ated
as ters
em b
Ġport ions
Ġgener ations
Ġdest ined
Ġperiod s
Ġswift ly
t itle
Ġt ip
ĠH E
Ġremain der
Ġpublic ation
Ġsteam er
ĠLa ura
ĠRog er
a ired
ĠP ap
Ġinv itation
Ġla wn
Ġacknowled ged
Ġf et
st range
Ġro ar
it als
Ġoccup y
ĠLaw rence
det erm
S outh
ĠI ng
ĠV ery
ubl in
Ġvis its
Ġhelp ing
Ġextend ing
s en
Ġup right
Ġdes ires
Ġprodu cing
Ġcontin ues
Ġstart led
Ġreven ge
Ġorgan ic
Ġcan non
Ġeffect ed
ĠCent ral
in ch
Ġc ock
Ġn erve
Ġdi plom
Ġm ant
Ġch annel
Ġday light
Ġ5 2
Ġillustr ation
Ġmut ual
w ering
ĠL en
C ount
F ather
em ents
ne ys
fe el
Ġapp ointment
Ġcor por
Ġmot ives
olit ical
c amp
ri ages
gg y
ĠRepublic an
m ont
Ġn it
ter m
Ġh iding
ord ered
ĠDe an
Ġquant ities
ĠGree ks
an tern
Ġan gels
Ġdeal ing
writ ing
s ense
gr own
f air
P ER
ĠB unk
ĠL anc
Ġinj ured
ĠB ecause
Ġ5 4
Ġsw ung
Ġprov inces
part s
ĠConst itution
R ep
Ġs ou
Ġm axim
ent ire
ur rection
Ġinv ari
Bl ack
J oseph
Ġm ic
Ġsurpr ising
Ġp ile
Ġst aring
ĠC Ã¦sar
ĠH ot
requ ently
Ġschol ars
Ġr ang
ud ge
ĠC ro
Ġinqu ire
Ġapart ment
qu es
Th omas
Ġans wers
build ing
ĠM is
qu ick
Ġ10 5
Ġpat ients
Ġwild erness
ĠGr ant
H ad
on ia
am bers
un ts
idd ing
Ġcra w
Ġneg lected
le ans
Ġspe ll
Ġstrict ly
g un
re ceived
Ġag ony
ĠIs lands
Ġdead ly
ĠAustri a
b ot
i Ã¦
s ch
Ġw ars
se em
Ġt ing
Ġmin im
Pro f
coh ol
Ġe c
ĠP ublic
ab el
Ġsa ving
ĠD am
be come
Ġinc on
ĠL am
ult ies
Ġmus k
ĠRo ad
ĠJack son
and ed
ĠCom mand
inn ers
A W
s qu
Ġst uck
ĠTh om
ĠOh io
H ouse
oul t
pre p
Ġinse cts
Ċ ĠĠĠ
Ġb ust
Ġse ats
Ġso ber
ĠG ard
iz ations
Ġdress ing
Ġmach inery
Ġstro ke
Ġear n
ĠCon fed
Ġrepresent s
le arn
Ġall ows
bar a
T ill
Ġd uke
Ġdis gu
port ion
Ġw ool
Ġm un
ir ie
ĠB ank
res ist
Ġlight ning
car ried
m id
ĠR os
Ġaccompl ish
ĠAssoci ation
Ġw ard
Ġsp ots
Ġback ground
Ġreturn s
L ong
ĠH a
Ġin no
ĠW omen
Ġsan ct
w onder
ĠP y
Ġr ows
Ġpro long
we alth
sh ot
Ġindu ce
Ġt act
Ġt ons
Ġp iano
ĠM os
Ġcon greg
Ġloc ated
Ġglo be
Ġartific ial
Ill ustr
W or
Ġad apted
Ġcook ing
read ing
tern ational
Phil ippines
Ġ :
f aces
Ġsp in
Ġgo al
sm ith
ĠGree ce
N E
y a
ĠB R
qu er
cl ot
cl aim
Ġpass ions
Ġtra gedy
Ġimper fect
Ġinvest igation
Ġinev itable
Ġh int
ne ed
Ġth ai
Ġst y
Ġcritic ism
ĠB urn
Ġcon verted
ĠJ ournal
ren ches
Ġple asing
imp se
f old
Ġfac ed
Ġcompl ain
IF E
Ġr ings
cess ion
Ġmult itude
ĠTay lor
it iz
ci ation
Ġmeant ime
ĠBer lin
ĠW he
Ġv est
de ad
-- --
Ġplac ing
Ġpeace ful
Ġprocess ion
jo ining
Ġearnest ly
r ary
Ġb apt
Ġno is
Ġthere of
Ġfund amental
th row
Ġse qu
ĠW ITH
Ġch ances
Ġpo le
ĠVit agraph
c ause
Ġdisapp ointment
Ñ Ģ
Ġt ales
he nd
ĠC a
Ġsince re
ĠWith out
ĠM ir
ug s
Ġdro ps
Ġobl ong
Ġwit ch
hel p
ĠDan iel
ĠTex as
as se
ass o
Ġremind ed
or ph
Ġsens itive
ĠP oor
ace ous
iss ippi
Ġcr isis
An y
Ġut il
ra cy
ens ed
Ġ6 4
cond uct
Ġh ook
Ġwh ale
ĠC are
ast ing
Ġsc r
ĠC ook
Ġass igned
off ice
Ġenjoy ment
Ġobed ience
L ife
pl an
Ġrem edy
M ac
b i
ad ian
ac ross
Ġrock y
ur g
Ġan aly
Ġsh ru
Th y
Ġs ighed
Ġf ab
Ġto oth
Ġhung er
mus ic
ÑĢ Ð
Ġw ax
Ġ* $
ĠI S
Ġag reement
Ġfollow ers
Ġserv ing
Ġcand le
Å ¿
Ġch in
ĠEnglish man
Ġele ph
Ġdram atic
ĠD ur
ey ed
stre ng
C r
ol ated
own ing
t ro
t alk
Ġf ib
Ġup ward
Ġsub mit
Ġ5 8
Ġdisapp ointed
C al
u zz
Ġst em
Ġor gans
Ġman uscript
ne ighb
Ġinter course
Ġpol ite
ribut ion
Ġgaz ing
Ġwithdra w
S w
ĠCom mun
b able
Ġkill ing
M ex
y gen
Ġb od
ĠC ab
ĠL es
Ġv alleys
Ġval ues
Ġp itch
ut or
ass ador
ĠA uthor
ĠAl so
Ġdev ice
al ty
Ġman ager
Ġcharacter istics
Ġclim b
Ġthir teen
ĠM onday
e es
u i
Ġarg uments
Ġc ens
Ġsu bl
Ġtrave ller
Ġout line
sh al
ĊĊĠ ĊĊĠ
Ġsun k
Ġbreat hing
Ġsatisf y
ie ce
Ġcr um
follow ed
Ġ1 10
ĠBr and
h ire
Ġbe held
Ġfarm ers
Ġrespond ed
Ġtables poonful
on ent
Ġrel uct
Ġvers ion
Ġentertain ed
circ umst
Ġ5 9
ĠMar tha
Ġconf used
Ġlo aded
Ġ14 0
ĠHel en
h istory
re ached
Ġc unning
Ġper f
Ġoff ence
ĠK enn
Ġpract ices
ĠAl fred
Ġaccur ate
A g
g ers
Ġd ug
ĠH ope
Ġcost s
pro ve
Ġhar vest
s us
Ġsubst ances
Ġsmo king
ed uc
att ention
Ġrele ase
Ġwand ering
m ad
re te
Ġn aval
il i
ĠR oy
Ġhum our
Ġindign ation
I AM
Ġg own
Ġle mon
Ġpol ic
Ġsal ts
Ġclo ak
Ġash ore
Ġs que
Ġ6 7
Ġhe els
Ġra w
ĠY e
Ġmo le
Ġvirt ues
Ġleis ure
l ab
Ġc ert
cri be
Ġmon ument
c row
Ġwitness es
Ġstat ue
P AN
Ġm ajesty
ĠJ os
Ġbo iled
IT T
tr uth
pot hes
Ġpatter n
Ġlege nd
c ry
c ivil
ĠB art
Ġam ple
Ġcount ed
Ġmus cles
A ugust
Ġpart ner
ĠJohn ny
Ġphilosop h
Ġw agon
Ġv ulgar
Ġsecond s
Ġagricult ural
Ġof t
or ce
Ġd amp
Ġag ents
Ġcl osing
Ġlow est
Ġc rest
Ġstir red
Ġadvent ures
an i
ld er
Ġwor ry
sequ ently
l ain
Ġshall ow
Ġfair y
sy stem
g ic
Ġcirc ulation
ĠCap t
Ġstrange ly
Ġfun ny
Ġbox es
Ġevent ually
Ġconsist ing
B ook
es y
Ġdisg ust
h in
oy s
Ġlevel s
A pp
_ _
ĠH ind
Ġpl anned
ĠPe ace
Ġhe m
Ġc ash
im m
Ġwe igh
Ġall e
Ġcomm end
vent h
Ġco in
sem bly
Ġassem bly
Ġt ie
in ally
Ġd un
Ġab ol
peri od
Ġrecogn ised
ĠP age
Ġinv al
Ġveget ables
Ġjew el
contin ued
ĠN EW
Ġsent iments
ask a
Ġcomb at
Ġju ice
. {
Ġto il
od ge
ĊĠĊĠ ĊĠĊĠ
it ively
Ġequip ment
ke e
Ġins piration
ct ic
Ġwe lf
s le
ul us
Ġtra ces
Ġple as
Ġsk ull
Ġmiss ing
d am
ĠI mp
Ġsa iling
Ġsub tle
Ġfact ors
Ġtrust ed
Ġdistribut ion
ight ing
Ġall ies
ĠSt uart
Ġ6 2
Ġ13 0
mind ed
Ġris en
d irector
Ġn om
Ġ8 5
h o
h al
Ġj e
ĠHe brew
Ġsol utions
Ġcorrespond ing
ĠFR OM
Ġwelf are
TH ER
Ġadv ised
Ġweap on
comfort able
M ER
Ġconf irm
Ġ7 8
ĊĊĉĉ ĉĉ
ĠVen ice
in ople
Ġun pleasant
Ġ7 9
might y
Ġ ib
Ġmin eral
Ġrepresent ing
Ġo ven
Ġm amma
ĠM aur
ĠL ibrary
Ġc ad
i astic
ĠI X
Ġgu ilt
Ġmult ip
Ġpup il
Ġsp here
ten ance
Ġdri ver
Ġfac ing
cond ition
l oc
Ġcru cial
Ġeleg ant
ou ri
even ing
ĠMass achusetts
Ġfare well
Ġming led
Q ueen
ĠE le
Ġvar ieties
Ġlie utenant
Ġtrave lled
ĠA I
us al
Ġ5 3
Ġhast ened
Ġlux ury
ind a
S pring
as ily
Ġg ross
Ġwh oles
Ġse ver
ĠL E
Ġvent ured
S an
ĠO s
Ġdiv ide
OM E
agree able
Ġno bles
ach t
Wh ite
Ġrest ore
Ġsecret ary
ĠFlor ida
Ġw alks
Ġbe wild
ow ered
ra ine
Ġv ener
p ath
he alth
Ġo un
Ġst amp
Ġman s
ink le
IS S
Ġpassion ate
Ġdise ases
Ġnewsp apers
Ġwra pped
C HE
t or
ĠC L
con c
Ġcreat ing
b en
m iles
ed e
angu age
Ġcultiv ation
l iving
re ally
ĠS cience
Ġrel ax
su gg
Ġ9 2
av ior
Ġfl ames
S ay
z er
Ġs ink
Ġp y
ol i
Ġcontin ent
ĠBe ing
Ġpal m
pher d
Ġmeas ured
C L
R ev
y d
Ġth ither
Ġl unch
Ġcommand ing
Ġcont est
ĠPl ace
Ġtradition al
h ole
Ã ¯
ĠP oint
Ġdis order
Ġvisit ing
id able
ĠG reg
ĠWilliam s
Ġheaven ly
Ġeffic ient
Ġencoura ged
f urther
Ġfl owing
ret ion
Ġt ap
Ġs om
ag s
Ch urch
Ġdesp ite
F ar
Ġwar ned
AR Y
Ġobs er
Ġband s
Ġcere mon
k l
Ġc ats
Ġbut t
ble m
Ġconf essed
Lou is
Ġse asons
ĠL ane
O OT
Ġjew els
in ety
Ġp airs
ĠM ountain
Ġhum or
ĠChar lie
p aper
Ġl ou
ĠP ower
az ing
Ġ7 2
serv ice
Ġsus pended
n el
ed ies
Ġtre acher
hab ited
Ġfra gments
Ġc ake
OU S
p ool
ret ch
ĠAl ice
Ġst ages
Ġar oused
Ġdischar ge
Ġs illy
ĠW alk
Ġadv is
Ġprom ises
Ġvict ims
Ġcop ies
ĠNor man
Ġpress ing
ĠK irk
Ġdiv isions
ocr atic
ou bled
ol o
Ġf ant
ĠB our
Ġdes erve
Ġwitness ed
c ott
Ġprepar ations
ec hes
Ġ9 1
val ue
Ġpor ch
Ġpost er
advant age
P H
en cing
Ġno b
Ġim ages
be yond
ĠSt an
Ġdef in
Ġcow ard
W H
Ġv i
Ġinv asion
Ġspr ings
Ġre action
ĠL ast
Ġcar s
rec ogn
om ing
ĠF aith
Ġinte nd
Ġheart ily
Ġadv ancing
Ġdr ama
a ire
Ġam used
Ġsk ills
ĠMon te
Ġsail ors
Ġdoc uments
Ġgor ge
T ra
ic ism
Ġ7 6
Ġrenew ed
ĠJ on
Ġsc enery
IN D
Ġlangu ages
ĠMc C
ste in
ĠFrancis co
ĠC ooper
Ġj un
Ġextra vag
ĠScot ch
Ġc reek
ment ioned
ci ed
Ġinc ons
ĠJew ish
" .
g ence
l aid
Ġre b
Ġsu cc
Ġch airs
Ġrec alled
Ġpur sue
um er
Ġconf ession
Ġmis fortune
ĠM olly
ĠC O
Ġold est
Ġdefe ated
Ġben ch
Ġam using
ĠV is
Ġaw kward
Ġrepresent ation
Ġf ain
Ġsu p
ag an
sh ad
Ġcontin uity
Ġfav ourable
Ġdistribut ed
Ġex agger
Ġcr imes
Ġpost s
ĠEm ily
Ġble w
Ġtransl ated
Sp ain
c all
h air
on ic
Ġneighb ors
f aith
le ave
Ġse al
add ed
Ġpot atoes
Ġappreci ate
f ine
he tic
Ġl akes
ĠM ason
Ġpart ners
Ġeste em
M ost
Ġne phew
Ġab ode
IT Y
Le aves
Ġpro sec
act ed
ĠBr ad
Ġresc ue
Ġmar vell
Ġsymp ath
Ġexha ust
ĠPenn sylvania
b irds
Ġf erv
ĠSt ar
Ġpers istent
att empt
Ġfoot ball
ĠF el
Ġent ry
Ġcertain ty
iver ing
Ġtender ness
pur pose
Ġconsum ption
Ġelectric ity
W ar
Ġbr ut
ĠU S
Ġsw ear
Ġult imately
m el
ot o
ĠJ un
Ġbl ows
Ġlin en
Ġ á
Ġm oss
ĠO ri
Ġdel icious
ĠAl b
Ġ7 7
Ġillustr ations
Ġsevere ly
D ick
Ġc oo
Ġf iring
Ġj oke
ces ter
ĠC ran
aps ed
Ġadm ired
Ġdoor way
Ġs ession
Ġc yl
Ġhe ated
Ġv ir
ĠO R
Ġqu it
Ġann ounce
Ġgall ery
G ive
U D
Ġexc iting
Ġflo ating
id ly
ĠW ed
Ġend less
C ons
Ġsh irt
ĠD omin
Ġad equ
bl ue
You ng
Ġ7 1
Ġar ray
Ġd at
Ġn a
Ġcon grat
ĠN ext
Ġpar liament
Ġacqu ire
Ind ian
Ġprev ailed
om on
Ġmar vel
Ġprinci p
Ġgrand father
Ġneighb ours
Ġ6 8
Ġcontro vers
Ġgest ure
Ġwhere in
AS S
ĠPal ace
ĠAnn ie
A ccording
Ġal tered
pro ceed
ĠInst ead
ut ton
iss ance
Ġ4 44
ON G
Ġhost ile
Ġcrim son
itzer land
Y S
Î µ
ĠHe alth
Ġprop osition
reg on
ĠJust ice
Ġconqu est
Ġth ri
ark s
Ġmur dered
Ġdiam onds
Ġofficial s
Ġbatter y
Ġc ode
tain ing
ĠW ork
ĠD ublin
ob ed
Ġf ri
ol ves
Ġar row
Ġpre tended
Ġlast ed
Ġmem bran
iqu es
S pan
g ery
Ġle cture
Ġcook ed
fashion ed
em pl
ove l
Ġres ent
Ġres ign
Ġresem blance
ĠIm perial
F ox
P L
d ress
Ġthe r
Ġin flict
ĠLe ague
Ġsummon ed
ĠĠ Ċ
Ġ1 17
Ġthem e
Ġfl ashed
medi ate
T e
Ġst ole
Ġun necessary
fe eling
ign or
Ar t
Ġcrown ed
h orses
Ġf uel
Ġsc ant
Ġve il
in ine
ll ers
Ġab oard
vers ed
Ġprodu ces
Ġmor ality
ĠWr itten
Ġst opping
per t
Ġfact ory
app l
Ġcirc ular
Ġopt im
g ency
Ġwh it
ĠM ountains
Ġsh y
ber ts
Ġest imate
Ġstrugg ling
n ine
Î ¹
ot a
Ġappe aring
Ġtu be
Ġsubstant ial
l ength
it ud
Ġacknow ledge
A p
et ies
ĠTh ou
Ġres ort
15 0
Ġcalm ly
u ble
the l
un ter
Ġcomp are
Ġimp art
Ġem inent
Ġinc ap
Ġ8 2
Ġw ag
ot ism
Ġv enge
el se
ĠN ell
Ind eed
Ġnegro es
and y
Ã© es
h ig
on et
is ible
Ġc rop
Ġkn ock
ĠCl ark
Ġinflu ences
return ed
Ġobsc ure
A nt
r um
w elt
Ġin vention
st ruct
wor king
Ġproc ure
F our
Ġd re
il ight
Ġfund s
I RE
d anger
Ġs am
Sm ith
ine a
ĠOr leans
ĠTom my
Ġtra p
Ġtra ffic
ĠMar quis
Ġconce ive
Ġstir ring
an x
an z
Ġhe ap
Ġbe lls
se ver
Ġvig or
Ġridic ulous
O ther
Ġreg ulations
Ġmet als
ĠTem ple
Ã »
ĠS aviour
pp ers
Ġthere in
Ġ7 4
Ġ9 5
Ġhero ic
Ġwh ist
Ġ1 18
ĠP RO
ann ah
R ed
Ġm orn
ĠF riday
Ġun l
Ġpre acher
Ġwar rant
Ġsad ly
Ġstret ch
s outh
Ġas hes
Ġch ase
Ġgl impse
cept ible
Ġdis aster
Ġbel t
B R
Ġm athemat
Ġst olen
ĠThe od
Ġ7 3
Ġlear nt
b ear
Ġf oe
Ġrep ent
Ġtechn ical
Ġhal ted
Ġsurround ings
et urn
ight ed
Ġfl ock
uc le
er ts
Ġde emed
oc racy
Ġopen ly
Ġmeet ings
Ġexerc ised
Ġcruel ty
Ġv iz
Ġcomp act
Ġcommun ities
Ġpet ition
Ġcur se
Ġhar mon
ev il
Ġfill ing
Ġyield ed
C o
ĠF amous
Ġres ident
ĠHow ard
Ġhy p
c as
ĠA z
Ġid ol
Ġcontribut ed
Ġvic inity
fol k
Ġs aints
ĠC ond
Ġrel ating
an us
Ġle aped
ĠSt and
sc reen
Par is
gener ally
A lex
ĠA ld
ab ilities
ple nd
Ġver d
d istance
h istor
ĠT en
Ġreason ing
Ġlay er
ĠFrank lin
Ġen lar
Ġ8 6
Ġrequ ested
Ġemb ark
Ġsail or
u be
Ġd angers
ul ed
Ġar rows
Ġlover s
abb ath
ĠLl oyd
Ġtra ced
Ġ6 6
Ġhope less
ĠScott ish
Ġdis hes
Ġgu arant
Ġappro ved
Re ferences
Ġwand ered
Ġc ul
Ġd ated
Ġjust ly
Ġ10 4
Ġneg ative
Cont ents
ĠD et
act ive
Ġapp le
Ġtax es
P al
Ġtr im
Ġmess enger
O ver
ĠJ r
enn ett
Ġhair s
Ġpun ish
Ġattribut ed
Ġl az
ĠNo v
Ġdescri bes
uls ion
V ol
g all
Ġfra gr
Pl ate
j amin
Ġde arest
Ġfact or
ĠÂ ¶
ĠAnt on
ĠAss y
Ġpuzz led
b read
h ours
ar p
Ġup wards
Ġ20 20
gl as
pie ces
M ENT
h ast
l iter
Ġsh oe
sh ow
col ored
Ġfle e
l ost
s weet
Ġcar ved
Ġperson ality
st ock
Ġd ashed
Ġent reat
Ġmother s
Ġsun light
Ġmach ines
Ġphilosop her
Mad ame
Ġenh ance
v ii
ĠM ars
ol and
Ġpr ime
Ġhand kerchief
ey ond
Ġmoon light
Ġbitter ly
ck er
Ġqu aint
Ġres erved
Ġrec overy
Ġ8 8
Ġprop ose
Ġw reck
Ġcontem porary
Ġfortun es
Ġal armed
Ġgo in
Ġper ple
Ġsearch ing
ip es
sp o
Ġrelation ship
a um
Ġt id
ĠS idney
ĠA v
It s
Ġjust ified
vers ion
Ġm ater
IL D
Ġtyp ical
Ġfoc us
ĠF re
ĠK ings
count ered
M eanwhile
ĠSh akespeare
Ġpock ets
Ġveget able
at en
it ations
it ating
Ġsil ently
Ġvan ity
Ġha w
ĠWh it
Ġconqu ered
Ġelabor ate
s oul
ĠA then
Ġsh ops
ĠD i
Ġrep ose
Ġdet ailed
Ġdisp ute
Ġfold ed
ĠProv idence
h usband
u ced
Ġass urance
ĠSw ed
F red
p un
ear y
Ġcl am
Ġind ifference
Ġ8 3
sc ope
l oo
id ance
ĠSt one
Ġ6 9
Ġl ots
ĠS au
ĠS anta
Ġimp osed
Ġap olog
Ġwarm th
re ll
it ia
ist an
urs day
Ġsuper intend
Ġbatt les
Ġcryst all
Ġwh ip
Ġ8 4
ĠInd ies
d oll
Ġl ent
se cr
ĠB ow
Ġlet ting
ob serv
Ġdef ined
Ġheight s
Ġgar ments
ĠCard inal
Ġtran qu
e rer
Ġbe er
ud son
Ġins ol
Ġcare less
D ist
Ġst ake
ĠSo cial
Ġmel ted
Ġvary ing
m aterial
ĠH ung
ĠP L
itt s
Ġscar let
Ġancest ors
s light
Ġt iger
st reet
Ġsh ud
Ġfe eding
iz a
ange l
ĠCam bridge
S at
a ited
Ġto ol
Ġp ious
ile y
Ġ8 7
Ġdev ices
ĠFl owers
Ġconcl ude
Ġsubsequ ently
; [
I nt
y t
as ks
al is
ie ves
Ġgod dess
interest ing
ar c
cl oth
ĠAn thony
Ġsepar ation
Ã¢ te
Ġproject s
Ġsust ained
ĠFin ally
f r
Ġ6 1
Ġconf er
Ġrepresent atives
C ath
ĠF ro
Ġspe cially
Ġinc idents
ĠCom edy
Ġr ou
Ġch uck
Ġbro od
g od
Ġf aster
ĠR and
Ġsl opes
V al
ĠS ylvia
Ġint ent
br ance
ĠNew s
Ġperpet ual
ĠVi enna
op ened
Ġcan vas
gg s
Ġele vation
Ġsol ar
sec ret
Ġinterfe re
i age
Ġ1 19
Ã© n
Ġple asures
Ġreal m
Ġ9 9
ĠSo on
ane ously
Ġdecl ined
after wards
Ġer rors
m atic
ĠC as
ĠK ate
H el
f illed
Ġw ont
Ġre ct
ra h
Ġv en
Ġex h
ĠG et
Ġen light
Ġte asp
Ġ8 1
M U
ĠB ad
um erable
ival ent
ĠEve lyn
B esides
ĠH ug
ĠW ILL
Ġar c
ĠX IV
ett le
Ġpun ct
Ġaccord ance
J es
ant on
Ġpro ced
ps y
Ġheart y
Ġcat hedral
ĠRay mond
Ġs ke
Ġl antern
Ġare n
ĠAnd erson
Ġ10 6
gra ve
K E
ĠC rom
Ġperson ally
Ġparticular s
Ġt urb
Ġm ourn
Ġwh irl
Ġpl us
ĠCH APTER
Ġappreci ation
Ġcomprehens ive
om y
Ġcivil ized
Ġhydro gen
Ġinvari ably
T E
Ġs oup
Ġp int
Ġse ize
Ġdep rived
Ġphys i
Ġrese ar
ĠC ru
Ġch a
Ġmem ories
Ġty ran
nes day
Ġdig ital
ĠBru ce
Ġcomr ades
Ġform idable
Ġprint ing
Ġcover s
Ġident ity
c up
l ace
Ġw oo
ne x
Ġ9 8
Ġearth ly
ĠX XX
ĠNever theless
c old
p est
Ġli p
Ġcomp ounds
iter ranean
Ġfan cied
Ġbe ef
un ks
Ġtr ump
ĠMiss issippi
Ġport s
ĠC ousin
S il
j our
Ġa fore
Ġsav ages
as ury
Ġshould n
Ġox ide
Dav id
ĠS everal
ĠE li
Ġwar n
appe ars
Ġplun ged
m ate
li er
Ġtem por
ustri ous
G et
O F
Ġto m
im er
Ġsu ng
ĠCl are
cul es
Ġsal vation
Ġremo val
M art
Ċ âĢĤ
Ġt renches
ke ys
Ġrepro ach
Ġhe s
Ġdif fer
Ar thur
Ġgrave ly
Ġreve rence
Ġrid ges
U E
Ġ9 3
Ġord in
com pan
Ġb its
ot or
Ġe man
ut ies
Ġcar ries
Ġmult i
OV E
Ġvenge ance
ON S
M en
Ġm and
im mer
iz z
Ġpur ity
Ġtot ally
ick er
Ġchief s
Ġw ander
Ġe h
ch ard
Ġsu ited
Ġde alt
Cor p
am an
ĠD own
Ġport raits
Ġpray ed
ĠM U
Ġcol onel
ues day
ĠCarol ine
Ġbetray ed
l ived
on ial
Ġthr ong
Ġcoll ar
Ġox ygen
Ġluck y
Mex ico
et ry
ĠU N
Ġ8 9
Ġspeak er
ar my
Ġe cclesiastical
id ences
ink led
Ġunivers ity
Ġbrief ly
ĠA ch
Ġex ert
Ġexp ensive
RO W
ĠLy ons
orig inal
ĠR ue
Ġpart ial
Ġconvey ed
it imate
Ġserv es
OR D
pe ace
Ġsand y
Ġconcern s
ĠSer ies
Ġcas ual
Ġimmort al
ĠBunk er
p in
Ġf ug
ĠE N
ĠIn n
Ġrece ipt
Ġ186 1
Ġhun ter
Ġpist ol
M arch
l augh
ra g
Ġrequ is
ĠT reat
Ġgl ac
se nd
Ġ1 14
Ġsmall est
Ġdec ent
Ġcompet ition
Ġproc ured
M ont
d i
m agn
Ġb ars
ĠRo berts
Ġass isted
Ġcorn ers
Ġcustom ers
Ġdoctr ines
Ġw ounds
Ġwe ep
Ġch ains
Ġinter pre
Ġdec ay
great er
Ġchall enge
n amed
ess es
ist en
Ġcont ented
AN CE
Ġprop osal
Ġbas in
Ġprivile ges
tow ard
Ġtar get
Ġabst ract
R oman
W il
ĠI r
ĠN ic
Ġglass es
Ġrequire ments
u is
am ph
un ken
ĠF if
app y
ann a
mar ried
ĠTur ks
d iction
Ġen su
Ġsw ell
Ġgra vity
Ġdepend ent
Ġhe ed
ĠR am
Ġpl um
ony m
Ġcompl iment
Ġcontribut e
a pped
Ġg ri
ul ent
ment ed
ru ce
Ġpap a
ĠTur key
Ġspeed ily
Ġlod ge
ĠMur ray
Ġsh illings
Ġfl ank
LE Y
Ġtro p
ol ics
Ġfac ulty
d ers
ĠB ul
ĠO ffic
ale nd
Ġland lord
ĊĊĠĠĠĠĠĠ Ċ
M other
f at
m itting
Ġv ot
Ġpro dig
Ġfl ies
oss ip
Ġsk et
C ast
Ġt une
ĠR ail
Ġun just
Ġmon ot
ĠT ar
ĠJ a
Ġpart ing
Ġclot hed
Ġbull et
P at
Ġhe ir
ch anges
ĠA ud
Ġunder take
Ġhy mn
ĠAb raham
Ġimper ial
Ġdish on
J une
b ased
Ġwe eping
ĠP op
ĠK night
pro ved
Ġca res
Ġchap ters
Ġback ward
ĠWe b
Ġcur iously
Ġalong side
ĠPark er
Ġinvent ed
Ġrejo ined
h at
Ġas ks
ĠB ig
Ġ1 16
ĠL uther
Ġass erted
Ġrespect ive
got ten
Ġemb ro
b ank
v oc
z o
Ġb orders
av in
Ġgl owing
add y
ĠGold en
Ġcir cles
Ġcon ject
Ġpl ane
Ġvol can
Ġenjoy ing
Ġident ified
Ġr ushing
ĠCh ase
Ġpract ised
Ġmain tenance
Ġche ese
ĠMiss ion
arent ly
d og
st ones
ent er
Ġsh orter
Ġcl er
vent ure
Ġdra g
Ġsun set
Ġthe ories
ĠS i
ĠH orace
Ġsh rew
ign s
Ġhapp ily
ĠQ ue
Ġhop ing
omb ard
Ġemotion al
Ã´ t
m ur
ro lled
Ġst ove
ĠB road
Ġde fic
Ġun ity
Ġw i
Ġd Ã©
il ation
ĠIn quis
Ġwar fare
ins ula
Ġmir ror
im mediately
Ġcl ust
com par
Ġ5 00
Ġinv isible
amil iar
ĠBra h
d ain
Ġ Ã©
ĠO regon
Ġcomp ound
Ġdisc ont
Ġass ert
ĠSp encer
Ġca using
Ġwin ning
Ġcommod ities
T w
s ure
Ġsa ils
Ġcar go
see ing
in ently
Ġf ile
Ġj est
b right
ĠA cc
Ġ1 15
Ġrel atives
Ġrest less
ĠNe ither
Ġguard ed
Ġeld est
Ġavo ided
se par
Ġsp ared
Ġwind ing
Ġmean while
Ġ25 0
Ġdream ed
ĠAp ost
Ġentertain ment
u z
Ġf aded
Ġm ock
Ġp oll
ĠR ow
Ġcons pir
Ġbow l
Ġfert ile
D U
er ie
ON E
Ġstud ying
Ġd ates
Ġneed le
Ġtre asures
ring ton
ĠRep resent
Ġimpress ions
p ay
s ize
y x
Ġli kes
Ġbeaut ifully
Ġmer its
Ġprob ability
D an
s uddenly
Ġt iss
Ġal as
ear ch
Ġelev ated
Ju ly
Ġf og
Ġwe bs
ĠS pring
ig ration
rodu ction
Ġbron ze
C ertainly
S im
c ow
m aker
Ġd welt
Ġgu ards
ĠAb bey
Ġanx iously
Ġcup ful
he ar
Ġw oe
Ġto wers
iet z
Ġbest owed
app re
Ġbreak s
H al
l am
ĠB ed
Ġshe riff
certain ly
ET TER
ĠPers ian
Ġcliff s
Ġhed ge
âĢ ĥ
Ġrest aur
Ġstrong est
Ġaff irm
ĠOr der
agg age
Ġcaut ion
Ġobey ed
Ġ1 12
ĠE nd
ĠV e
ph one
Ġtra cks
Ġbelie ving
Con st
ĠJer ry
E ach
l ate
al us
Ġsh ine
Ġar bit
Ġste al
Ġcommand s
Ġpack ed
Ġwealth y
Ġmarvell ous
K O
Ġs inking
ac cept
Ġhy pothes
Ġtrad itions
ĠFed eral
Ġc ove
Ġm aj
ĠB aker
Ġcon ver
Ġper cent
arm ing
Ġfort night
Ġflu id
Ġb ills
le igh
ĠI d
Ġal cohol
Ġmon aster
Ġquestion ed
Ġemb race
idel ity
R ec
r one
ac re
Ġso ot
Ġwor sh
Ġli ghter
oc ity
pre v
ĠCOM PAN
ubes cent
O ff
u its
at ra
ĠO t
ĊĊĠ ĊĊĠĠĠĠĠ
Ġpol es
Ġdr owned
cle ar
Ġpeas ants
Ġc os
ĠW ard
gr ic
Ġmet aph
pass ing
ok es
Se pt
J o
Ġchar ms
unt ary
Ġbar gain
Ġlab ou
Ê ¼
Ġun common
Ġins cription
Ġfur ious
Ġtem ples
H istory
g arden
ll or
Ġr oused
Ġsecond ary
Ġbar ren
âĢĶâĢĶ ,
Ġdecl aration
Ġjud ged
ĠC ow
ĠC all
Ġreg iments
RE E
Ġglad ly
Ġnav ig
w estern
ec il
Ġ9 6
Ġexpect ing
Ġobtain ing
ar ched
Ġwas ted
ri ers
Ġab use
Ġind isp
Ġ10 7
rem ain
Ġspl it
Ġtribut e
h ung
Ġas cend
ĠH alf
ac ent
ĠG ene
ie nd
Ġdra in
Ġ âĢĿ
th irty
ĠB arn
ĠH IS
ĠF itz
b ig
ud s
Ġsc andal
ĠY ear
EN CE
Ġ9 7
Ġgrand mother
b one
Ġre de
Ch arl
jo ined
Ġult imate
Ġbul k
B oth
Ġto ps
dra wn
Ġ| |
Ġprec aut
aver n
Ġin ward
ĠB or
Ġattend ing
atis fied
M a
ĠP ress
Ġj ar
du ed
li est
Ġpur se
min ster
col oured
Ġliter ally
ĠConstant inople
Ġp ump
Ġrel ieve
Ġbare ly
G rand
Ñ ĭ
is hers
Ġj uris
if ting
ĠSh ould
Ġlow ered
Ġenc ounter
ĠBatt alion
v ant
Ġre aches
aw are
Ġter med
Ġcirc um
ĠEd mund
Ġbreat he
Har ry
occup ied
ĠN ile
ne ither
Ġad joining
ĠK n
Ġwork men
ĠMat the
ĠW y
el ed
ĠCh amber
olog ists
osp ital
ĠCount ry
Ġwarri ors
Ġfab ric
re ve
Ġcan al
ĠPr ice
Ġlord ship
Americ a
aw l
G r
Ġb rig
ĠB alt
Ġbl owing
Ġfort ress
Ġsick ness
oir s
gentle man
Ġneut ral
m ates
ĠS ultan
ke eping
ag as
Ġsc ri
Ġ9 4
fortun ately
kel ton
Ġholid ay
Ġl ined
il ful
gr ams
nat ured
ĠSqu are
Ġany way
Ġ4 00
G overnment
Ġf oul
ess ions
Ġshe er
Ġbr isk
con v
Ġmur de
Ġess entially
in ement
ĠS ay
Ġall eg
Ġdec re
ĠBe au
Ġexpress ions
Ġforb idden
f ly
ot al
ak a
ne ath
Ġcr ushed
Ġoccur rence
Ġintrodu ce
Ġfro zen
Ã¡ n
ĠJul ia
P et
f urn
ind ividual
ph ilosop
Ġcost ume
estab lished
H on
u en
Ġl ords
ist ered
ig ent
ang ular
Ġent ers
Ġhes itation
Ġm ol
Ġsc ra
Ġstr ata
Ġ10 8
Ġincon ven
W all
m ach
t ics
cl aimed
Ġback s
ĠLa ur
field s
Ġdoll ar
Ġproport ions
mun ition
Ġach ieved
umin ous
b as
it ably
ĠM id
Ġme als
Ġmon ks
Ġbro ok
.... ....
Ġsevent een
l atter
ab et
Ġtri fle
Ġbeh avior
Ġmod els
Ġjud ic
experi ence
ĠCOMPAN Y
o king
Ġe tern
Ġj ail
Ġaw akened
Ġobv iously
Ġst er
ĠMiss ouri
ĠHen ri
Ġyouth ful
Ġneighbour ing
Ġded icated
Ġtort ure
Ġf etch
Ġsub mitted
fl ing
Ġstate ments
ha ired
Ġtransfer red
c ases
Ġhe n
M in
S y
Ï ģ
ans wer
Ġprodu cer
ĠPr ussia
Ġpossess es
ĠDist rict
e cess
Ġshe ets
Ġcomp rom
Ġsupport ing
Ġpen cil
Ġmaintain ing
Ġtempt ed
Ġf itting
Ġbut ton
Ġpl uck
ĠMar c
IV E
Ġsem i
j e
Ġde ceived
ous ing
ĠG ive
ĠD irect
ĠAn gel
Ġdevelop ing
Ġbe gg
Ġbre eding
Ġplan ning
Ġaffection ate
Ġaccur acy
Ġf ir
ĠT R
Ġy onder
Sec ond
Ġchalleng es
Ġg ospel
ĠS ac
ĠH ell
Ġde w
un less
Ġpro ves
Ġte legraph
br ing
Ġhoriz ont
M il
g ard
at um
ow ell
ĠIn ternational
ribut ing
Ġball s
ĠTer ry
circumst ances
ĊĊ ĉ
oo ped
cl usion
OR T
Ġreve al
gin es
Ġx xx
Ġthreat ening
ĠAlex and
ĠNich olas
L aw
ri v
ie ving
ĠV ar
Ġbed room
ĠX II
under stood
occ o
sub st
OUN T
streng th
b earing
w el
cc a
-- "
Ġsk ins
Ġtri b
Ġprom ote
Ġhosp itality
S C
in fluence
Ġgu idance
ĠSar ah
Ġliqu or
Ġjealous y
Ġwe pt
ĠC reek
XX X
success ful
opin ion
V ar
Ġtw isted
Ġobserv ing
m or
Ġbe am
we ight
Ġbl own
ĠRe view
ĠBr id
NOT ES
d ream
es see
ist ration
ip ed
Ġlong ing
Ġapp oint
Ġbre ed
ĠHar old
do ing
sl ow
Ġtor rent
Ġunfortun ately
Y ork
b orne
ure au
sh op
Ġsix th
âĢĶâĢĶ âĢĶ
gu ish
Ġep is
Ġs its
ro it
ĠS ing
ict ory
Ġrel ate
Ġappro x
bo ats
Ġfle x
Ġa er
ĠS a
ĠF ire
pt ure
IC T
ĠReg iment
Ġrebell ion
F OOT
Ġd ash
ĠS P
Ġright eous
Ġdisc ern
Ġaddress ing
Ġun c
AM P
Ġinher it
Ġsh alt
ĠP a
Ġfl ushed
Ġinter val
Ġant i
Ġeduc ational
Ġard ent
Ġw aved
all ic
Ġv ii
Ġen countered
Ġfavor able
last ing
ĠWel sh
ietz sche
N ap
S l
p ence
Ġpo pe
Ġbre ach
Ġdoub ts
or ic
Ġjust ify
get ting
ĠBr idge
Ġexpl o
bit ious
think ing
ATION S
k i
Ġb ind
an ne
Ġr ural
ĠX I
ĠDiv ine
st art
ent on
ra ised
Ġall ied
rem ember
Ġtrave llers
Ġc av
Ġun av
Ġfine ly
Ġblood y
Ġfatig ue
b ons
is ons
Ġp uff
Ġad vers
Ġ10 1
Ġaw oke
Ġexcl usively
Ġwid th
E P
it he
st ar
ri pp
Ġst icks
ĠR ight
ĠBe at
cons idered
Ġhistor ian
ĠMill er
onom y
Ġappet ite
ex pected
Ġfa ire
Ġru ff
Ġmed ia
Ġcro ps
n old
Ġf isher
ĠL uke
Ġk id
are n
Ġappl ications
inst ead
Ġn ic
Ġl inks
Ġstand ards
ann els
Ġexhib it
N ext
P re
s ummer
Ġt ack
Ġp enny
de g
Ġbold ly
Rich ard
ĠW ord
ĠG arden
ĠE arly
ĠAs sembly
Ġproceed s
Ġtrem bled
t d
Ġk in
ĠCh amp
com ed
Ġgas ped
Ġantiqu ity
Ġp atch
Ġst ub
Ġv ide
ough s
Ġmo ves
Ġplay er
Ġcirc uit
ĠGreg ory
p ol
ĠT ower
ig ne
ci le
ans wered
Ġtr ades
ĠK en
AN G
Ġsugg ests
pers ons
Im age
Ġs ack
ic ating
pe ction
Ġhard er
RE D
Ġlad der
ĠDu chess
Ġincor por
E r
s ol
Ġd umb
st ro
Ġall iance
ey e
Ġtal ents
Ġcig aret
ĠGeor gia
ĠE ug
Ġup stairs
Ġthought ful
Ġser mon
ent ered
ĠAnd y
var ious
Ġgig antic
c ord
d ear
ĠU l
With out
Ġpra irie
cast le
á ½
Ġbe nd
Ġel im
Ġhorn s
P ut
l ies
ĠF ra
hold ing
Ġnob ility
E AR
J e
Ġtheir s
Ġdis may
Ġfore most
Ġhar p
resp ons
Ġpull ing
pent er
Ġswim ming
W al
s at
t ail
Ġb ows
Ġv it
Ġro d
Ġwish ing
amm ar
long er
m oved
y an
Ġa ug
we ed
Ġam munition
con cer
Ġinn umerable
Ġang les
Ġconsist ent
Ġinnoc ence
beaut y
w right
ĠM S
Ġle nd
Ġpro se
ĠJ ar
ub b
Ġsubject ed
Ġstay ing
Ġgreet ed
Ġestim ated
Æ ļ
Ġf el
ĠH ER
ĠG oth
Ġr ates
Ġr ational
Ġtempt ation
y ers
ĠV in
Ġph ase
Tr ans
ot te
Ġn ay
um bling
Ġint ol
Ġexcess ive
p ine
Ġoper a
M al
in als
and o
Ġop ens
âĢĤ âĢĤ
ĠChild ren
ĠMic hel
Ġmic ro
ĠB apt
ĠHe nd
ĠBur g
Ġreject ed
ĠT able
Ġbl ocks
ars on
ĠCl ar
ĠEs q
Ġwe b
ĠD a
Ġal b
ort ing
sh ore
pro of
Ġhar bour
ĠBrown ing
Ġdeliber ately
ĠBelg ium
r Ã©
Ġw olf
ĠS C
Ġde af
ĠG rey
Ġsole ly
Ġwest ward
' .
P art
n am
Ġn inety
ĠM R
Ġsh aft
Ġag ency
ĠNew ton
exp ress
Ġvic ar
ĠFore st
Ġn avy
Ġn onsense
est one
Ġri pe
Ġla un
Ġdiscover ies
e lect
ĠM eanwhile
ĠL ETTER
Ġtw ilight
Ġbene vol
resh old
ĠCan adian
Ġexhib ition
U p
s we
Ġb ot
Ġg y
Ġde leg
Ġsm iles
Ġbra ins
Ġlad s
Ġpos itively
f al
ĠS abbath
ĠB eth
ast es
Ġinterpret ation
m ie
m ountain
in ois
Ġhe red
st yle
Ġ12 5
Ġfoot steps
Ġdecl ine
C C
j a
it ory
Ġf ountain
ĠS ab
ra b
led on
sp ir
Ġprof its
ruct ive
g ings
Ġd ine
ci an
ung s
Ġcommun icate
Ġimprove ments
it us
ĠH ur
ĠP il
Ġ10 3
Ġshout ing
alend ar
Ġt read
Ġf f
atter y
Ġrig id
R ob
s n
ĠH omer
Ġr att
ĠO ak
ber ries
ob ile
Ġgen us
ĠArch bishop
Ã¢te au
1 20
ĠA D
Ġse ctions
Ġde comp
Ġche cked
Ġbod ily
ou st
ĠC irc
ĠH istor
Ġ19 12
ph y
Ġprop het
m ethod
est ine
Ġv ow
Ġle agues
Ġins pect
mon ths
Ġcol oured
Ġconf ront
Ġeight eenth
Ġendeav our
Ġdepos ited
Ġdyn am
Ġhero es
mist ry
Ġmead ow
y ards
Ġw ider
on na
ĠPr inci
Ġimpat ient
D el
E v
P o
Ġd ans
Ġtruth s
ĠMed iterranean
Ġpersu ade
Ġenlar ged
Ġh ired
Ġm os
th ick
Ġrest ra
olog ist
Ġexcl usive
ĠSy stem
g oes
Ġis olated
Ġle ap
od d
Ġqu ot
ĠGu ard
Ġmad ame
pop ular
B o
Ġa ven
Ġl ur
ĠB ald
ĠE D
Ġdo ctors
.âĢĿ [
Ġspe nding
Ġcour ses
ĠJes se
Ġsuffer ings
Ġwith drew
ĠH an
Ġcur tain
Ġpol ished
ĠSh ort
ĠMess rs
Ġprejud ice
M ur
Ġst ately
Ġnot able
ĠN ick
Ġer a
En ter
ĠTest ament
prep ared
t ion
wh atever
Ġbo ast
ĠFran ces
Ġsusp icious
pend ing
IC AL
Ġcup s
Ġfier y
Ġunf old
wind ow
g al
Ġwas hing
ro d
ĠH udson
res ult
ĠJ OHN
Ġsc rew
Ġdra ught
Ġspect acle
ĠDou glas
D or
S al
g us
Ġc ows
ill er
ĠB us
ĠH i
Ġ1 13
Ġsh ades
âĢĿ ;
orn s
com pl
Ġadv ise
n ic
Ġf ath
Ġm it
ig ible
og a
Ġposs ibilities
Ġ10 2
r ising
Ġright ly
Ġtro op
friend ly
ĠB ased
Ġess ence
M ed
w on
Ġc off
as much
ĠA ug
ĠH unt
Ġdu ly
bro ke
Ġagricult ure
Ġvel vet
B er
m akes
en z
ĠM E
ĠC arr
Ġpill ow
Ġveh icle
d irection
p aid
Â «
Ġimp uls
Ġsuccess ive
Ġenv y
Ġmir acle
Pres ident
Ġin habited
Ġn ucle
ĠL ater
ĠF landers
ition al
hand ed
Ġmass ive
spe cies
p icture
Ġ Æļ
is er
Ġm amm
ĠCol or
Ġsecret ly
ĠAustri an
Ġse lling
ge red
Ġear ned
ĠU r
Ġcar pet
Ġpun ished
r ude
Ċ ĠĠ
ĠF ree
ia lect
Ġappar atus
ĠH arris
Ġfl ows
Ġhor rid
Ġconcl usions
n orm
Ġd azz
ĠW right
ord in
Ġ12 3
Ġresult ed
irm ingham
min utes
gu er
Ġcompl aint
Ġviol ently
Ġmotion less
Ġhesit ate
Ġgle am
ĠCub a
ĠÆļ i
i ating
Ġin justice
ud ding
Ġper ish
pr ints
Ġmon ster
ĠAn na
aff ord
olit an
ĠAustr alian
Ġmans ion
Ġcon secr
com pany
ĠCl if
Ġdev ote
Ġsol ic
ĠAll en
Ġpil ot
G reen
Ġt ips
Ġd ies
Ġdest ro
OU SE
Ġinquir ies
p iring
Ã ī
Ġs na
ĠC ould
me et
ĠCom mons
Ġsun ny
spe aking
tem per
Ġchim ney
obs erved
Ġc ran
im ore
ĠP ed
Ġexp osure
Ġinflu enced
Ġrub bed
o ons
Ġa we
al ie
Ġtra gic
me re
oc ation
17 0
tend ing
St ate
co al
sur face
H igh
S O
Ġb ishops
Ġm ac
Ġg erm
ĠB ear
ĠB uff
Ġgover ned
Ġcourt esy
ĠCamp bell
t in
Ġto re
ĠF ruit
Ġen closed
Ġcal yx
Ġess ay
Ġsolemn ly
Ġwh istle
Ġar ches
ign ific
16 0
ĠAn ge
Ġrepl ace
ĠBen jamin
ĠDev il
Ï Ĥ
bl est
Ġadm ission
Ġappro val
ĠRich mond
Ġengine er
Ġresour ce
Ġrecoll ection
c rit
p ing
ink ling
Ġsecret s
Ġinstinct s
rett ir
s oft
is ive
Ġf res
Ġp ushing
ĠW ife
ne g
Ġint entions
13 0
head s
Ġamid st
D oes
L I
w anted
Ġd anced
Ġso fa
ĠE lect
Ġstr ings
fl owers
Ġest ates
rem ained
Ġsweet ness
char ge
Ġdiss olved
Ġenthus iastic
Ġimp lement
Ġrespect ed
Ġbreat hed
Ġhistor ic
Ġfault s
ĠGra ham
our ge
ĠO wen
Ġloyal ty
Ġincap able
re pe
Ġpre aching
ĠV ic
Ġact or
Ġdep ression
Ġclass ic
w arm
Ġfor s
Ġfar ming
let ters
ĠĠĠĠĠĠĠĠĠĠĠĠĠĠĠĠ ĠĠĠĠĠĠĠĠ
Ġaspect s
ĠC OL
ant i
int on
Ġexpect ation
ĠGl ad
1 10
j oice
ol ve
Ġsp aces
Ġcl asped
Ġconsider ations
law s
fig ure
ĠMaur ice
S uddenly
ve lled
ur able
ĠA ir
Ġpart ially
Ġpart icles
Ġsur geon
Ġins ist
ĠBur r
am er
Ġprom ising
Ġdest iny
Ġloss es
Ġbread th
Ġfashion able
Ġadorn ed
Ġdef ense
Ġpath s
Ġf oes
ad ies
ĠL og
gr ass
Ġrest s
Ġcle aring
ĠCom p
Ġphilosop hers
Ġgran ite
ĠR a
Ġany how
Ġprot ested
Ġencourage ment
o z
be ck
Ġend ing
ĠHar vey
offic ers
ĠLaur ie
g race
cr im
Ġpossess ions
Ġlat itude
S unday
Ġa th
Ġp est
ĠB razil
Ġjoy s
stra ight
Ġphenomen on
f ear
Ġbe nding
ĠL ab
Ġch oo
ĠR en
Ġdes erved
Ġhere after
Ġru gged
Ġrob bed
Ġamaz ement
Ġborrow ed
s um
are rs
Ġcountry men
Ġbelie ves
ĠBr un
Ġaut hent
Ġlif ting
ĠFil ms
Ġj olly
ans om
Ġb ury
Ġun willing
Ġhar bor
Ġaffect ions
Br own
Ġdepos it
Ġprolong ed
Ġshrew d
c ils
se ason
Ġhead ed
form ing
spe c
ĠEduc ational
B ro
ĠCh apter
ater n
Ġdisc ourse
ĠBar bara
Pr ince
Ġrevel ation
B E
G e
O ST
Ġth ar
ĠC our
ĠB L
Ġmurm ur
u f
u h
ĠM ort
Ġwond ers
Ġsouth ward
Ġdeb ate
El izabeth
ĠSil ver
Ġbuff alo
H as
p ointed
am y
Ġhas n
Ed ward
d ied
Ġb unch
Ġc ogn
Ġcl ung
Ġsk ies
Ġtri als
Ġconst itute
Ġconvers ion
Ġsymp athetic
Ġassist ant
f ood
Ġmem orial
Ġcompl icated
pret ty
S ure
Ġl os
ĠA my
ide a
ru ly
ail able
Ġfol iage
Ġinvol ves
interest ed
Ġd ome
ag en
Ġsuperior ity
s ound
Ġp ige
Ġg ossip
ĠT al
ĠB an
um ble
Ġunder taking
Ġgu ided
Ġph il
unt arily
Ġir resist
Ġcommun icated
Ġident ical
Ġsevent h
Ġf iction
ild red
sp read
che on
ov ate
entire ly
ĠS om
Ġag itation
ple ased
Ġhonor able
Ġj ungle
Ġvar iations
Ġpres ervation
bur st
Ġattempt ing
Ġloc ation
Ġp ione
al ions
th m
ĠB attle
Ġun worthy
Ġev ils
ĠÂ ½
Ġinqu is
ĠNap les
mean ing
Ġdismiss ed
Prof essor
ic us
Ġgr in
Ġmar sh
ĠSim on
l on
l ake
Ġm onsieur
al ted
ĠG ro
ĠG RE
Ġcons ented
Ġatt achment
Ġsuccess or
add ie
pass ion
Ġdepend ed
Ġt ick
ĠM it
Ġen er
LE D
Ġredu cing
ĠPat rick
or ia
ĠL at
ĠF L
so ever
Ġcre ep
Ġrul ed
Ġexerc ises
Ġfulf il
Ġcig ar
BER T
din and
Ġin land
Ġer rand
Ġadequ ate
r us
en ch
Ġv irgin
Ġbr ows
ĠWh atever
ĠSc ots
Ġener get
Ġw aving
ce iving
Ġsh o
Ġsp ur
Ġ10 9
Ġequ ivalent
Ġcra zy
ĠDist ributing
Ġobser ver
l anguage
it ar
Ġf anc
and ing
Ġle ctures
ag us
Ġen cl
Ġatt raction
Ġmar ching
ĠHer bert
Ġspo il
Ġdecided ly
H all
P T
v ial
Ġst ations
ers ed
cl uded
Ġclass ical
ĠPet ers
Ġnav igation
Ġu m
il ian
ĠW olf
ĠF anny
Ġseem ing
Ġglob al
Ġgreat ness
ether lands
Ġn our
ĠG R
Ġbar rel
Ġve in
Ġlegisl ation
ol k
Ġqu ad
Ġass ass
Ġmod esty
Ġran ch
bel ong
Ġexec utive
Ġendeav oured
Ġthank ful
Ġsen ior
Ġan guish
Ġsh apes
Ġpo ly
ut tered
ĠS uddenly
Ġ1 11
ĠP icture
Ġper for
so cial
Ġsec uring
fl ower
Ġdisci ples
Ġsubl ime
Ġa while
im o
Ġwh ites
ĠG ran
Ġappro aches
ĠEd ison
cer ity
ĠEvery thing
screen play
et he
Ġloc ality
ĠColl ection
pp y
Ġtr icks
Ġri p
app ointed
Ġcal am
sy mp
ĠÃ Ĩ
a unt
Ġg em
qu ality
ab y
Ġwill ingly
Ġnow here
14 0
Ġ13 5
fer red
hold ers
ĠG entle
Ġup set
ove re
Ġdes erves
Ġeffect ively
ograp her
Ġunder taken
ec d
exp ression
Ġingen ious
es ley
ver b
Ġch opped
Ġkn ights
Ġover all
Ġatt ent
Ġins erted
Ġprop ag
empt ion
Ġ186 2
u y
ens ible
Ġtra ct
Ġcustom er
Ġheat hen
Ġpeculiar ly
Ġric hes
A IR
E gypt
i ants
Ġn ig
Ġco inc
Ġdraw ings
Ġcompl ained
Ġinstruct ed
R el
b attle
Ġin cess
ĠO tt
ath a
Ġel bow
he at
Ġd ru
Ġl ace
Ġpl ough
ans ion
ĠEnglish men
ĠLord s
Ġsol itude
Ġpast e
Ġsucceed ing
Ġbag s
r usted
Ġsh aken
ord inate
Ġve ter
ĠPhil osop
Ġlob es
Ġextrem ity
s d
Ġlong ed
ĠSh all
imp ossible
Ġremo ving
Ġâ ħ
vill age
er als
Ġd irt
Ġre verse
ĠP ole
pl ant
A pril
Ġl as
Ġcab inet
ĠLu cy
ĠSol omon
Ġcompass ion
Su pp
ĠLeg isl
ĠHot el
ic ide
ĠT ech
ĠH ans
em a
Ġexcell ence
ĠAra bs
I CH
i ard
v iii
ic ia
Ġn iece
Ġy ell
Ġun it
Ġbo ards
Ġhigh way
Ġimag in
Ġant agon
mod ern
Ġtit les
Ġf ost
ĠL amb
ĠD oes
Ġal ert
ĠCan on
Ġenvironment al
ĠBru ges
ĠMoh ammed
it ative
ĠW ade
Ġsc ent
Ġdec ree
Ġca ver
A ng
p ublished
en joy
ul ously
Ġher d
Ġal ien
Ġref res
Ġdoub ted
tr ade
Ġnet work
P lease
e er
u ph
w orn
Ġ âĢ¦
ĠF urther
ĠIn ter
Ġsl aughter
oun cing
Ġmat urity
? )
Ġth ief
ĠD aw
op eration
ĠCh ance
Ġacc us
igh ter
Ġincre ases
fall en
conc ern
Ġt un
in j
Ġw retch
ĠA ut
Ġex changed
Ġch orus
Ġear l
IN S
br id
Ġcost ly
ĠMor gan
ĠCath olics
stru ck
M AR
Ġthe at
Ġb aggage
Ġg ems
Ġsu ms
ĠR oche
LE T
Ġpred ecess
Ġpreced ed
girl s
he nded
ĠH amm
Ġsub dued
Ġsw ing
ĠEd ith
Ġbur ial
w an
is en
Ġke ys
omet er
Ġread iness
ĠAr k
Ġref ined
Ġhast y
Ġpatter ns
Ġh anged
Ġg rip
H a
M ajor
Ġst ip
ĠA st
ul um
Ġaw aken
ĠInst itute
Ġcontro lled
Ġpropriet or
C ur
Ġg ap
el esc
Ġdr um
on ge
Ġb aking
Ġg ale
Ġy o
Ġch at
Ġpre ached
Ġir re
Ġlim b
Ġemer gency
W ood
Ġo mn
Ġopp ress
ustr ous
asp ing
ĠKent ucky
C O
st ery
ĠĠĠĠ ĠĠ
Ġnot ions
ER N
Ġins pection
Ġtemper ament
mark ed
say ing
Ġris ks
Ġapprehens ion
Ġpre ach
ĠK now
Ġfier cely
ch amber
if ice
est ial
Ġthick ness
clot hes
c itiz
v iol
em en
Ġph osph
ĠWill is
Ġ12 2
Ġbitter ness
Ġclergy man
Ġmoist ure
1 15
M em
i ography
Ġt rench
Ġb onds
en emy
Ġex ult
el ia
Ġmanufact uring
agas car
ĠM ethod
ĠD ie
Ġdes olate
ens able
cient ific
.âĢĻ âĢĿ
Ġremem brance
Ġprocl aimed
FOOT NOTES
1 12
ĠC ad
Ġsh ower
pro cess
ken ess
Ġ12 4
Ġ12 6
Ġmad am
Ġorn aments
B on
Ġb ount
ir y
ĠS pr
ĠG ulf
fore st
Ġtr amp
Ġmus cle
Ġstri kes
opp ortun
begin ning
r ounded
s ick
Ġh ol
pe ls
Ġr ash
Ġdis agreeable
Ġbl iss
che ll
Ġcheer fully
ena issance
Ġdelic acy
v ard
Ġim itation
Ġill umin
D is
ĠL ine
Ch ild
Ġmod ified
Ġo wed
al ians
me rely
Ġstart ling
Ġsit uations
Ġexc urs
bel ow
Ġdischar ged
Ġbund le
is ement
ĠL ang
act ly
OR N
Ġswe eping
Ġexam ining
ĠX III
ext ra
ĠÂ §
ĠBet ween
Ġincred ible
Ġf oss
fl o
sk y
Ġcatch ing
Ġresem bling
kins on
ĠMag azine
S k
enn is
Ġann ually
Ġdescend ants
Ġh oof
ĠL ear
ry an
vers ation
Ġpres ume
Ġill ustrious
col m
Ġident ify
Ġloud ly
ĠMil ton
T urn
k h
m oon
á ¹
ĠS urely
ĠM ake
ĠE X
ĠO cean
Ġfound er
r in
y ellow
Ġcast ing
Ġtim id
Ġt ough
Ġb ru
Ġm ask
ĠB rigade
ĠL iving
Ġqu ote
ĠCor ps
Ġincl ination
AM E
rish na
sk in
Ġextend s
Ġbranch lets
ĠIllustr ations
C ong
l ined
le aves
Ġn aught
ĠM uch
Ġsh rill
ĠW inter
ĠL or
ĠE t
str ous
Ġstrugg led
Ġfem inine
o ks
ent ric
Ġce iling
Ġfaint ly
Ġbatter ies
ĠBern ard
h om
Ġl eng
Ġl amps
our ce
ĠFrench man
Ġvill ain
Ġfrank ly
estab lish
m ag
Ġo y
il ated
ĠL iter
ĠD ear
ĠTh ird
ave ment
Ġpe nd
Ġpar agraph
Ġview ed
Ġoblig ation
Ġwel comed
ĠPresent ly
Ġdign ified
pres ence
Ġcryst al
ĠHend erson
U P
Ġt asks
he avy
Ġl oos
ĠM inn
ĠC ecil
ĠB ol
od ox
Ġmor als
poss ession
Ġtight ly
3 00
Ġth reshold
ĠC ost
av an
Ġsp ines
Ġext ension
ivers ity
ĠRo ach
Ġexceed ing
Ġmission ary
Ġhypothes is
Ġa is
Ġf ut
Ġbe es
te nder
Ġsc ut
Ġfr ing
Ġaltern ative
Ġtoss ed
Ġsquad ron
M S
u pt
ain ty
Ġsu nd
ĠJ l
Ġam bitious
Ġdet ached
ped ition
Ġcongreg ation
d ue
Ì ĳ
Ġp oo
ĠA rist
qu est
ĠCh ris
Ġdefe nded
Ġdesir ous
s pr
ve land
ĠH itt
Ġv ag
Ġpl ent
Ġam iable
Ġham mer
ex istence
So on
ik es
ĠSw itzerland
Ġdeli very
ĠTenn essee
Ġaristo cr
J er
r iment
Ġg al
Ġpr ow
Ġcons umed
Ġlast ing
ĠBr us
ortun ately
dist ingu
consider able
Ġd ow
Ġl ane
Ġcon ference
Ġpre lim
Ġrem n
Ġcr ust
Ġhon ourable
ĠBl ake
umber land
S ur
Ġc oc
ĠH o
Ġspe eches
Ġking êĿŃ
Ġdest ination
do ors
Ġclim bing
Ġsignific antly
ĠVictor ia
1 14
ĠS um
ĠW ay
IN T
ĠBe aut
IT E
Ġopt ions
Ġre ass
ĠP apers
Ġoff ensive
Ġcor rid
cont rol
Ġfant astic
Ġcontrovers y
N at
Ġ Ð
ch i
ĠC AR
Ġr ay
Ġmon uments
atisfact ion
ĠA ust
Ġimp et
ĠX V
ĠWar ner
Ġfra gment
Ġresem ble
Ġens uring
Ġt ents
Ġc aves
ic ut
ĠS kelton
em ale
nt on
ĠD uc
Ġpe ep
Ġleg itimate
Ġwonder fully
Ġexpress ing
Ġfasc inating
l ower
ĠP ont
act s
ann i
Ġconc ert
Ġfoot note
ĠIll inois
s is
Ġwh isk
ĠB irmingham
ol ed
ĠL oc
Ġdis like
Ġvol s
Ġdefinite ly
Ġeloqu ence
f inite
g or
n ell
n one
Ġd iverse
Ġex pend
Ġen velop
og ical
li ber
ject ed
Ġtrans verse
Ġ14 5
AM ES
Ġalle ged
Ġp ubescent
ĠSt ra
Ġans wering
Ġprof itable
Ġattend ance
Ġbatt alion
Ġconcent rated
Ġemphas is
Ġembra ced
I B
Ġs ales
Ġb ol
Ġrece ives
Ġimport ed
Ġbusiness es
Ġexcl aim
Ġproof s
Ġmyster ies
Ġamaz ing
ĠSax on
Ġprincip ally
w inter
Ġo u
ĠC reat
Ġex ile
ting u
Ġtri fling
ĠJul ian
Illustr ation
Ġdre ary
G en
r ating
Ġworld ly
Ġ14 1
ID E
L ast
W ater
j u
ĠC atherine
Ġ12 1
Ġexc av
happ iness
relig ious
b ted
Ġsu llen
olog ies
Ġinde bted
Ġ13 2
Ġdro pping
Ġto ken
ĠA th
ĠA ff
ĠW ords
sh oot
Ġarri ving
ING S
Ġdisp osal
Mar ia
Ġjoy ous
icip al
Ġhaz ard
p ock
en ario
Ġst ems
âĢĶ '
ag ner
Ġdec isions
Ġune asy
ĠAng lo
Ġdetect ive
Ġas cended
ĠC ON
ĠK ansas
ann on
ĠBe e
An n
Ġhear th
Ġremark ably
Ġorgan izations
ĠSw iss
Ġbless ings
ĠMex ican
sold iers
employ ed
d im
Ġat om
ĠCh ap
Ġac ad
Ġrough ly
Ġax e
Ġmour ning
nt il
Ġdes cending
Ġint ensity
ĠAr m
Ġfra ud
ĠSat an
Ġstor ms
Ġc akes
Ġbe e
ĠA aron
ĠM ain
Ġman hood
Ġro be
Ġind irect
Ġanim ated
Ġfood s
ĠMor ris
E ast
S ometimes
b red
Ġw agg
Ġb ake
st orm
ĠM oon
10 5
Ġdeath s
Ġdeep est
Ġstri p
OU ND
some what
D own
W E
w atch
Ġc ob
ĠW is
ĠF ive
so ciety
io v
Ġred dish
Ġprosper ous
learn ed
Ġa ims
us c
ap a
Ġvar iation
Ġ12 8
isc op
Ġpet ty
ĠBo ers
Ġtum ult
S ax
âĢ ķ
ĠN avy
Ġsupp lement
vel ope
Ġgu essed
Ġref resh
OR E
Ġpar lor
Ġconc rete
did n
M at
m its
v re
on str
ict s
Ġcont rived
ft en
az ar
Ġlab ors
Ġgrand eur
Ġterri bly
Ġqual ified
s ort
an cient
Ġd usk
ill ustr
Ġme ek
ĠG os
ud al
over n
Ġpopular ity
p ictures
Ġb rigade
Th an
Ġchild ish
Ġresult ing
IR ST
happ ened
Ġapart ments
wit ness
M ag
Ġo mitted
Ġc ement
Ġp omp
Ġad ult
ren cy
de fe
Ġel ong
ĠCount ess
Ġascertain ed
Ġdece ased
relig ion
Span ish
1 13
t est
Ġsh ift
ĠR est
Ġmin istry
AN S
eal and
t one
qu ant
ĠP ubl
Ġappe aled
Ġyoung est
Ġass ertion
Ġ14 3
Ġ14 4
u an
ĠB kl
mark et
ĠTrans cript
ĠEduc ation
conn ected
Ġjuris diction
M ake
° Ð
Ġle ague
ĠE z
Ġ12 9
Ġconv ince
v ings
Ġs add
am eless
Ġme ets
Ġoccasion ed
ĠLouis iana
Ġcomplex ion
H y
P eter
j ac
m ount
Ñ ģ
at hed
ĠS ou
Ġcl ad
Ġthan ked
Ġret orted
Ġrest oration
ĠAt t
Ġval ued
f resh
ad le
Ġen gines
Ġfl owed
Ġcontract ed
itts burgh
p ole
Ġg reed
Ġwe ighed
ri val
ous ers
âĢĿ .
ĠMar shall
Ġteasp oonful
A y
b road
w ine
Ġh alt
Ġc iv
ĠA y
Ġse q
Ġcon form
Ġch ill
Ġper ished
su cceed
Ġinter ven
Ġsw ords
10 4
reg arded
lo ad
Ġmagn etic
IR L
ĠHart ledon
Ġstrateg ies
ak i
pl ate
Ġsp ray
Ġlight ing
Ġser geant
Ġstri fe
Ġresol ute
Ġtest ing
Ġstat us
Pe ople
Ġdecor ated
# #
i antly
u ber
he res
or ney
ut er
Ġsp y
Ġbl ast
Ġcons olation
Ġtra ins
Ġcur ve
reed om
Ġsever ity
c ost
i at
Ġb ounds
ĠL ind
Ġhand ling
pro p
Ġsoft ware
ST R
Ã¨ s
Ã¨ res
Ġfem ales
Ġvirt uous
asc al
Ġappreci ated
Ġsan ction
Ġwithdra wn
mem bers
Ġimprison ment
a un
Ġh ue
ĠL yn
ex pect
Ġint rig
Ġ12 7
Ġ14 9
Ġassoci ations
1 18
ĠS ic
we ek
ĠCo ast
25 0
Ġcreat ive
spo ken
1 16
E X
ĠB at
Ġr ider
Ġal k
ade qu
fe ld
ĠV ers
Ġend owed
10 2
ĠPar adise
ĠÃ Ĺ
Ġinvest ment
Ġamb assador
Ġproced ure
U G
on ian
Ġl ance
Ġg land
ĠP ic
Ġsent ences
Ġdescri bing
Ġmir th
Ġgain ing
Ġhide ous
produ ced
Ġchron ic
Ġh ire
ĠA ges
ĠU se
reason able
c ers
w ish
Ġl umber
Ġsh aped
ĠJ enn
HE N
Ġgener als
Ġhapp ier
Ġfac il
Ġfaith fully
cell ent
ĠSte ven
ĠSy ria
cond itions
F air
re plied
ou x
Ġh ob
Ġwh ither
us ky
ĠJer sey
Ġaim ed
sa fe
Port ug
ĠRand olph
i ature
Ġw rest
Ġb ite
Ġc ush
pe culiar
co very
Ġanim ation
Ġnorth ward
ĠCr us
ĠThom pson
Ï ĥ
Ġt astes
er ting
ĠL ib
oura ged
Ste p
Ġfest ival
ĠCrom well
qu in
Ġri bs
Ġlong itud
Ġact ors
Ġthick ly
u gh
ul i
Ġapp rent
Ġsupp osing
Ġass ign
Ġpan ic
Ġmead ows
ĠMatthe w
guer ite
y ll
ĠI bid
ay a
ĠS weet
Ġst ag
ĠB right
Ġso d
Ġsc hed
Ġref ers
Ġtrans formed
Ġbig ger
tr ouble
Ġeast ward
sil ver
C ourt
M Y
s ail
s ister
le ading
Ġst amped
ĠF ay
ck ing
Ġfe at
Ġgr asped
Ġhead quarters
ĠWe re
Ġaff ords
Ġsal ary
Ġproduct ive
ĠRel ig
p ite
Ñ ħ
Ġl ime
Ġl ustrous
ĠI T
ĠT rue
Ġbr ute
Ġdet ected
c ock
c ried
is se
Ġf ul
ash a
ĠN one
ĠNat ural
Ġconvention al
Ðµ Ð½
Ġceremon ies
c apt
Ġc ited
an che
ult iv
ract s
Ġ14 6
Ġcommun ications
Ġpoet ic
Ġinfinite ly
ITT LE
t i
Ġc um
Ġre joice
ĠS ien
pl ing
Ġhand ful
mon th
Ġ13 3
Ġobject ed
point s
thr own
Ġreli able
1 17
b eth
Å į
Ġa qu
ĠL ud
co ast
equ al
Ð½ Ñĭ
I rish
p olitical
Ġ Ñģ
Ġt unn
ar g
am on
Ġout rage
ĠTh y
ang s
ĠEng ine
Ġmin ing
Ġaw aiting
Ġhorse back
Ġfail s
Ġbas ic
particular ly
Ġhorizont al
Ġen qu
Ġpr udent
Ġarg ued
b age
Ġspe ar
ool s
Ġdisc retion
Ġbeaut ies
Ġ13 8
Ġfail ing
Ġinher ited
d ust
Ġy acht
ĠH uman
Ġcor pse
10 3
Ġappear ances
Ġ13 6
light s
Ġelect rical
Ġcustom ary
Ġconven ience
Ġimpress ive
ĠRob in
! )
it uted
Ġrel ates
Ġdr unken
ĠMary land
Ġsn ake
epend ence
Ġcommence ment
ÑĢÐ °Ð
it ter
im al
ast rop
Ġdis appear
ex ec
We re
Ġmag azine
ĠMer cy
ly mp
ĠA gric
th odox
Ġde gr
ĠG ib
Ġsw ore
arch y
spe cial
ĠCH AR
war f
Ġrestaur ant
ÐµÐ½ Ð½Ñĭ
s ides
¶ ÐµÐ½Ð½Ñĭ
he ro
ĠA ge
Ġ15 8
Ġtre ason
Ġsix teenth
Ġpar l
Ġhun ters
Ġemer ged
ĠLeon ard
Ġdefin ition
ĠÑģ ÑĢÐ°Ð
¶ÐµÐ½Ð½Ñĭ Ñħ
ĠÑģÑĢÐ°Ð ¶ÐµÐ½Ð½ÑĭÑħ
f ixed
p ound
ct ive
ra il
li ked
Ġ14 8
OU GH
Ġglit tering
ran ch
Ġdark er
ĠLet ters
Â° âĢĶ
Ġlog ical
proper ty
P ass
W hether
d ate
Ġe agle
ĠH as
Ġ2 20
ĠGod s
dra w
Ġt ub
Ġo val
Ġh ats
Ġh ounds
ra ise
ra pid
Ġper ception
Ġtr am
Ġopp ose
rem acy
Ġlater al
mark s
ĠSel ig
d al
Ð ¾
Ġsh rie
au nd
Ġen force
Ġ16 1
Ġide als
Ġlo an
Ġ14 2
ĠFore ign
Ġrepublic an
ĠT W
ĠL IFE
Ġr anges
art ments
Ġsw orn
eng aged
ĠWith in
Ġpil grim
disc overed
C ONT
E arly
ar rived
Ġse arched
ĠL im
Ġcan oes
me eting
AD E
Ġeager ness
Ġb red
ri fied
Ġex alted
ig en
iv an
me red
Ġlay ers
ĠPh ill
Ġcut s
Ġbound ary
Ġep och
sim ilar
AK E
ic els
Ġbl aze
ull ed
Ġapp les
Ġcontin ual
10 1
Ġdraw s
ĠWest minster
Ġring ing
Ġveget ation
person al
Spring f
m ort
á ¸
re port
on to
Ġl av
od ied
Ġres igned
Ġ16 2
Ġbur d
Ġtravel s
i ences
Ġan ecd
um inate
AN K
Ġgra vel
Ġsett lers
ĠPal mer
Ġtong ues
ĠMus ic
ing le
st arted
Ġre ly
et ime
ist les
AN C
az a
Ġ15 3
Ġpen alty
Ġspr ung
Ġconstit uted
Ġb other
ar range
ĠS omething
ĠP rom
Ġmon k
scar cely
A CH
Ġto mat
st an
Ġfor k
Ġcon ve
ant ine
ĠF ab
Ġj aw
Ġun comfortable
Ġpresent ing
Ġread s
Ġfin er
ĠPl an
Ġguard ian
Ġw ist
id y
Ġsh rub
Ġte ams
con ce
TER S
Ġsubst itute
Don ald
Ġmarket ing
Ġlod ging
Ġpars ley
ĠF ound
Ġun its
ĠV ice
Ġnarrow ed
Ġdelay ed
Ġsoci eties
g ian
ac ies
ft ed
Ġdecl aring
Ġmad ness
Ġcrit ics
Ġcaut iously
A unt
Ġhe ars
Ġcur tains
ĠSm all
thought s
Ġlack ing
ĠRob inson
Ġcord ial
grow ing
Ġanticip ated
] [
ant es
Ġpre gn
rest on
Ġass ess
Ġsw inging
Ġinvol ve
Ġgro ve
Ġgovern ments
Ġstair case
Ð »
ĠL ion
ĠTh ink
ick ens
me ant
Ġ13 1
Ġesc ort
Ġsend s
wood s
Ġoffe nded
Ġ187 0
ĠVin cent
R ome
Ġo live
st ation
Ġha ught
ab by
Ġpl under
pl us
Ġcomp ensation
air d
con sequ
Ġrevol t
Ġeloqu ent
ĠBert ram
in ous
Ġbe ams
Ġar ising
fl oor
Ġexc ite
Ġbes ie
Ġtender ly
Ġsevent eenth
Ġsuperst ition
Ġmultip le
g il
m ountains
ĠP om
ĠF arm
com pre
Ġfac ulties
ĠMad am
ION S
ĠVen us
n uts
se ts
ag a
Ġmon op
Ġ15 7
ĠCl ass
ĠCon vention
Ġsugg estions
ĠWor ks
ĠMin or
Ġconsult ed
Ġiv ory
stru gg
ĠĊĊ ĉ
F e
r ast
s leep
t ried
st retched
Ġse rene
ild a
ric s
Ġinde x
hard ly
Ġfold s
Ġseam en
Ġwholes ome
ĠAnton io
i Ã¨re
Ġc ust
Ġadv ances
Ġbra ce
Ġpret t
ĠMad emoiselle
sim ple
ĠArmen ian
ĠF al
ĠE th
ĠE xt
Ġcour te
10 8
12 5
De ath
quar ter
diffic ult
Ġrein force
Ġfor ci
ap se
Ġun ite
ix t
Ġstra ined
ĠGu ards
Ġcrow ds
cro ft
F ort
L o
Ġc ub
ĠP H
Ġch icken
Ġ14 7
about s
Ġthro b
Ġho arse
Ġo st
Ġf rig
Ġd ialect
Ġre ci
ĠM ade
ĠF en
Ġbl ade
ĠCh ron
Ġgl or
Ġes p
ĠPr ot
Ġstart s
iver pool
Ġappl ause
fortun es
ĠHon or
grow th
Nap oleon
g ives
t te
in cial
ĠR KO
ĠN ay
ĠO scar
Ġpet als
Ġhun ted
Ġlog s
wr ote
Ġtor ment
ĠOther s
Alex ander
A c
t im
st ed
ch a
Ġex terior
un ciation
ĠV ir
ĠY ellow
Ġseem ingly
Ġ15 9
Ġ13 9
Ġresol ve
Ġrapid ity
Ġrul er
stud y
ĠM aid
ĠR oll
Ġfl ush
Ġimp osing
not iced
Ġsy ll
nat urally
Tur key
Ġtrop ical
p air
ĠM ildred
Ġro sy
Ġsc ope
Ġcou ch
cor respond
offic er
Ġwarri or
ĠPoly scope
V er
c ru
p ill
Ġn ost
un ity
ĠPlay ers
d uty
id Ã¦
ist a
out side
ild ing
ĠK elly
T Y
e rest
Ġo ars
Ġn ails
ĠL asky
Ġover fl
Ġpers pect
ann ers
supp ose
ĠBun ny
Ġninet eenth
1 19
m ass
at ches
Ġe b
ri ft
ĠP ierre
ab ella
Ġsa ge
Ġsw allowed
uck er
Ġpray ing
Ã¼ r
determ ined
C ould
I mp
e asily
Ñ ı
le ased
Ġv iv
og en
Ġcur ved
col or
Ġdiscuss ing
Ġing red
Ġdeliber ate
Ġdisgu ise
S ub
Ġe ll
ĠH ig
ĠH av
Ġen ch
ren ched
enz ie
Ġd ip
Ġn ests
ĠA ur
ĠH ort
ĠD al
Ġ15 5
eb el
Ġcomfort ably
ĠMed ic
Ġphilosoph ical
Ġenerget ic
d ouble
r unning
iv als
cc entric
Ġcan e
Ġover head
Ġwhere by
und ered
Ġbu ying
ĠCon f
ĠX VI
Ġhar ness
Ġprev ail
Ġweek ly
Ġtriumph ant
Ġclub s
R ead
d inner
p owder
Ġt enth
Ġp add
Ġp iety
Ġsp ont
Ġro bes
oon er
Ar ch
Ġcorrect ly
Ġrad iant
Ġspark ling
norm al
Ġd ent
Ġre ared
Ġse aled
ĠF amily
Ġsa p
ĠCh apel
Ġbu b
Ġlad en
sing le
Ġpick ing
lim ited
ĠPers ians
Ġimpat ience
M aster
Ġa ided
an throp
Ġl ungs
Ġcl ut
iss ions
ĠLa ure
Ġdeb ts
Ġrub ber
Ġfulf illed
elf th
Ġa le
Ġm ak
ĠW E
cl ing
ern al
ĠAr ts
pro gress
Ġcirc us
Ġpour ing
al ogue
ĠG rettir
mer ce
Ġmar ine
ĠAr nold
ĠZ ealand
Ġecho ed
Ġmaxim um
d ressed
t rem
ĠS now
Ġan ci
ĠN ietzsche
Ġdes criptions
Ġ15 4
10 9
Ġ16 8
great est
Ġthreat s
Ġcompet ent
Ġsuspic ions
ĠScript ure
R ose
Â §
ve red
ĠW ol
ĠL ower
ĠO per
rit ory
ĠU pper
Ġ15 2
Ġlab ours
Ġredu ction
Ġprocl amation
Ġpars on
J oe
Ġm ent
Ġp iled
le vel
Ġk ick
Ġequ ality
Al as
Ãª te
Ġmembran e
d d
Ġw ilt
Ġg n
ĠM aced
Ġrep aired
Wh ose
Ġ17 5
Ġ13 4
Ġwood ed
Ġrich ly
ĠRuss ians
Ġmess ages
W ait
Ï Ģ
ĠT ro
ĠO b
Ġrep uls
Ġtou ches
ĠEx ec
Ġindust ries
A ss
W el
e ffic
ĠC ut
ig o
ci o
Ġser pent
Ġ16 9
Ġ13 7
import ance
ĠRad io
m otion
u ating
ĠC ave
ĠP AR
âĢĻ ,
ĠG ill
Ġstru ctures
pre vent
May be
Ġinherit ance
E duc
Ġo ption
ĠS ER
ĠR ic
over s
rem em
Ġdress es
Ġmagn et
tra in
four th
Ġexplos ion
n ames
t akes
w ait
Ġm es
ĠH ood
Ġins urance
10 7
Ġearth qu
under standing
Ġjo ining
Ġenter pr
exam ple
ĠWILL IAM
f uture
Ġw are
Ġb idding
ĠM erc
ĠD ry
Ġobject ions
Sh ould
Ġtrad ing
Ġendeav or
Ġguarant ee
Jes us
C amp
b ill
w aiting
y ne
is land
th orough
Ġfac ilities
Ġindign ant
k illed
l orn
ĠS oc
Ġv ale
Ġref usal
AP P
Ġdesp ised
Ġgrad ual
cip ation
Ġvac ant
Ġp ays
ĠL it
ĠN ev
af ety
Ġeleph ant
c aught
g am
Ġit ems
ric ate
Ġaw aited
Ġmouth s
Ġvener able
W ashington
ar ter
le aving
am ar
Ġtr unks
not es
Ġmon strous
Ġ16 5
rop olis
ĠFer dinand
accom pl
ĠSup reme
P ri
c oun
en ne
Ġm orrow
Ġg ru
Ġst ew
ĠP ier
ab ol
Ġv ind
oll en
ph an
ER E
Ġinv ested
Ġ15 6
ĠCl ara
pre ced
Ġtyran ny
ĠB ath
ĠR ub
Ġinde finite
oly n
Ġmel ody
Ġillustr ate
Ġfo am
sett led
Ġindisp ensable
w alls
Ġse p
Ġsh ipping
ol ine
ĠD om
Ġpe er
Ġfar ms
Ġsim ult
Ġste ward
Ġhusband s
Ġimpro ving
author ity
Ġsurv ive
Ġd itch
ĠC ob
ĠW m
Ġch ambers
Ġacc ent
Ġfew er
10 6
ĠPh ot
Ġpat ent
Ġtop ic
Ġmot ions
Ġglo ves
ĠIllustr ated
n arrow
it age
Ġb ail
ut tering
ra ged
ĠR ud
Ġman ly
Ġdef iance
Ġrepeated ly
Ġwebs ite
pe cial
Ġkn ot
Ġworld s
Ġtrans parent
Ġaccount ed
Ġbar rier
g i
ĠR enaissance
Ġra gged
oc olate
Ġsupp ressed
Ġmanif ested
Ġblank et
Ġrab bit
O OL
Ġ --
er on
ol ks
Ġj er
Ã© g
Ġang rily
anim als
Ġexception al
Phil ip
Ġinit i
Ġrib bon
Ġchlor ide
ĠWed nesday
s an
in ian
Ġc ateg
Ġg um
ĠA li
Ġall uded
ign ant
Ġter race
Ġ17 6
Ġdeg ener
Ġcell ar
Ġstat ues
tro ops
Ġto es
ĠS ue
ate ur
Ġpl edge
Ġres ided
Ġinter ference
Ġvis ual
Ġ16 4
Ġtem pest
Ġcult ural
Ġwise ly
Ġlog ic
Ġcompre hend
ĠWater loo
abs olute
Ġbat hing
affect ed
Ġc age
Ġp ipes
Ġd ot
Ġd ined
ad ays
Ġfound ations
Ġequ ipped
Ġwild ly
Ġreflect ions
l ings
ĠA k
ol ar
fore ign
Ġsk irt
Ġbene ficial
dist inct
supp ort
Ġble eding
Ġreck less
c ook
in formation
ou ching
Ġp ow
ur dy
ĠL i
Ġsc ram
dra wing
Ġox en
dest roy
B UR
Ġp amph
ĠY ORK
Ġ18 27
gr ims
Ġple aded
Ġ17 2
Ġcur sed
Re g
Ġmort g
A IL
Ġp inn
ĠC art
Ġun anim
wh is
ath alie
ĊĠĠĠĠ ĠĠĠĠ
Ġgener osity
ĠBl air
Ġdecl ares
ĠBar ry
Ġstret ching
v ig
Ġfor fe
Ġch ast
te acher
Ġpre ference
Ġallow ance
Ġinstinct ive
Sc ot
Ġpear ls
mans hip
Ġs ciences
se ction
by ter
ĠDan ish
Ġpatri otic
) âĢĶ
J ew
s ave
se ct
ur ation
ĠA P
ĠA S
ĠR io
Ġus age
ier ra
rel ation
ev idence
Ġshout s
Ġbewild ered
b ag
ra ble
ĠB ack
ĠB elle
Ġch annels
Ġen erg
ĠTh ursday
att ack
Ġpat hetic
Ġtend s
Ġyield ing
Ġrout ine
Ġl am
ĠB rew
ect icut
Ġrep et
Ġhur rying
Ġshud der
S weet
l ives
Ġpro grams
Ġdec isive
Ġmem orable
Ġ24 0
sit uation
Ġreck oned
B O
v ain
ĠM oll
ol ia
Ġfl ocks
Ġgra ph
inter rupt
ĠScript ures
Present ed
ĠJar vis
ĠGlad stone
b uck
w w
Ġt ame
Ġb inding
le ments
em et
Ġch oir
ĠR ap
Ġdown ward
Ġ17 4
Ġ15 1
she ll
Ġwarm ly
Ġbas al
OW N
Ġtravel ing
Ġcontribut ion
Ã± a
Ġprocl aim
J ean
on ne
ot le
ĠG ate
Ġpre val
Ġdream ing
olic y
Ġfright ful
Ġgreet ing
st opped
ĠM u
el ope
ĠN ote
AL E
anim al
perfect ly
T oo
g um
s or
ant om
Ġro pes
Ġunder neath
Ġwork er
rid ges
ĠLet ter
Ġcompar ative
ĠMich igan
Ġmagist rate
Ġw age
Ġher ds
Ġcl inging
ĠK rishna
ph ys
Ġrec ur
Ġorgan ism
Ġdread ed
Ġflo ated
Ġspect ators
Ġec st
Ġm uff
Ġst ab
th ro
Ġsh ots
Ġdist ances
Ġfool s
Ġdepos its
Ġnegot iations
Ġbrut al
Ġsna pped
l an
l ic
Ġ ĊĊĉĉĉ
at ical
ĠP owers
Ġatt orney
pend icular
Ġdi agn
Ġod ds
Ġflag s
Ġphr ases
Ġs es
ĠT uesday
ĠH ospital
Ġ2 30
Ġcount ies
su it
ĠPer cy
ĠBer tha
Ġchest nut
Ġrequis ite
Ġirresist ible
T er
Ġsh a
Ġcom edy
Ġsc ru
Ġsl umber
Ġass ent
Ġins ignific
Ġcr ash
min ute
Ġpra ised
Ġsin cerity
supp osed
Ġhurried ly
Ġmedic ines
Ġcel estial
R oyal
c ustom
Ġf ern
Ġto w
Ġp ict
Ġas cending
alt ar
ĠGu y
Ġsplend our
Ġpier ced
Ġo re
et c
ĠB ud
Ġen l
Ġunder took
Ġcar riages
Ġrul ing
Ġvig il
Ġbrave ly
Ġharm less
oop ing
ĠPart y
h ills
s in
ĠH ist
Ġch art
Ġle v
iv able
Ġend ured
Ġever lasting
Ġrul ers
Ġaston ishing
g ame
Ġon to
if ts
un al
ate gy
Ġpro str
Ġli bert
Ġsc out
Ġmod es
ĠMay or
Ġgrass y
rap y
B re
s hed
Ġl ays
ĠO LD
ord e
Ġpe aks
Ġunivers ally
Ġprec ision
turn ing
del ight
Ġpersec ution
jour ney
T R
s plend
Ġst ored
ĠN an
ĠMar shal
ĠEd gar
ĠPe ggy
Ġterri fied
Ġplant ation
Ad d
Ġgar ment
Ġsche mes
Ġcorrupt ion
D ay
R om
Ġf ist
ĠB os
our ces
Ġun seen
Ġsk ipper
OR TH
IS E
ext reme
Ġrepe ating
Ġconstitution al
Ġintegr ity
Ġsh ocked
Ġsub t
play ed
Ġcand les
const itution
N O
R eturn
b ation
m iddle
ter min
Ġse gments
ens ively
Ġpers isted
13 5
Ġpublic ly
Ġconv uls
ĠNe il
AC T
Ġattend ant
Ġcurrent s
Ġestablish ing
Ġcollect ing
Ġcaut ious
Ġsurre ndered
Ġperple x
C orn
M R
or ters
ot ive
ch amp
Ġar ises
ord an
Ġbest ow
Ġmet allic
ĠPr ussian
Ġrespect ively
Ġaccept ance
bro ok
ĠReg ent
Ġting ed
Ġsty les
S chool
Ġa ux
as ingly
Ġl il
Ġdo om
Ġkn elt
old ing
con versation
Ġcontin uing
cur rent
Ġadopt ion
ĠStr ong
Ġvide o
A ct
Ġ19 7
Ġins ight
ĠAr ctic
Ġrequ iring
Ġdifferent ly
mist ak
Ġrender ing
Gl ory
Ser ial
Ġrab bits
Ġá ¼
Ġlaun ched
L and
l oss
Ġp ic
ĠB ast
ĠB ark
ĠO cc
Ġli keness
Ġra ins
Ġhard y
Ġdiv orce
yl um
Ġpost ed
Ġmist akes
mar riage
Ġeld ers
Ġsingular ly
ĠProtest ants
Ġvine gar
Ġn ave
Ġl ocks
id ow
Ġan k
Ġ16 7
Ġemploy er
ĠGil bert
B L
it ime
Ġn igh
ĠH AR
ĠG oo
sp oke
Ġ16 3
go ons
ĠAnt ony
Ġimpat iently
Ġcommod ity
Ġgam bling
Ġninet een
ed itor
Ġgo als
12 9
11 1
Ġobl ique
Ġclean ing
Ġresem bles
disc uss
G R
ri ls
Ġst u
ĠL ess
Ġgra ins
Ġpres cribed
Ġsol ve
A F
g ue
Ġb ounded
ĠT our
ĠG IRL
Ġle ver
ĠR et
Ġwor ried
Ġro ared
Ġbo red
gr ounds
OU T
giv eness
ĠVen et
Ġt ab
le ad
ĠE aster
Ġ2 10
Ġtr ousers
Ġcast e
Ġentertain ing
Ġ= =
riz el
f requently
it ous
Ġm ule
Ġso ap
ĠJ ay
Ġcons erv
ĠCl ay
rel ated
mar ine
ĠCat hedral
Ġmargin s
. (
V EN
re a
se arch
ĠM oor
Ġun usually
int rodu
Ġoff spring
Ġsw amp
ices ter
col our
ĠÂ ¼
Ġrevol ver
ĠDra ke
Ġstrengthen ed
N ature
m akers
v ice
in tended
id uous
ass ium
Ġless er
Ġcolon ial
obl ig
S ix
ĠC ertainly
Ġey eb
Ġindic ates
M us
Ġbe ads
Ġst are
ĠM es
Ġan te
um a
Ġsee ks
Ġeven ings
Ġ16 6
Ã¦ st
ĠSy d
Ġduck s
R ight
W ild
Ġn omin
ĠA cts
ĠL af
ĠR achel
Ġgo at
Ġpe ak
Ġkind red
Ġ17 7
ĠRe formation
ĠIN C
Ġshr ine
Ġpropri ety
ĠJacqu es
ĠS ong
um bers
ĠHe art
Ġli ver
Ġsur faces
Ġco ats
Ġspec ulation
Ġaffect ing
Ġcomb ine
Sc ott
Î »
Ġc aps
Ġp enn
ĠB ox
Ġde pl
Ġex tingu
ĠJ ed
ĠN obody
Ġimp ass
Ġacc idents
:âĢĶ âĢľ
Ġbatt alions
ĠFour th
Ġeste emed
Ġdisc rim
Ġcorrect ed
Ġnovel s
ĊĊĠĠĠĠĠĠĠĠĠĠĠĠĠĠĠĠ Ġ
H ome
Ġth umb
ĠI ce
ĠT ow
ĠP ast
iv a
ĠN ation
ose is
Ġrel ics
Ġste aling
des ire
ĠÂ »
Ġforeign ers
Ġtyp ically
achel or
c red
y outh
z ar
at ile
ĠS et
Ġex empl
ĠR ag
Ġus er
Ġinv ite
Ġamount s
Ġdom ain
Ġdem ocracy
ĠPers ia
ĊĊĠĠĠĠĠĠĠĠĠĠĠĠĠĠĠĠ ĠĠĠĠĠ
astrop he
Ġs i
ur ated
ĠT ed
pro portion
Ġstud io
OM AN
ĠAugust ine
Ġsorrow s
Ġprospect s
quick ly
Ġlaz y
N one
Ġt elesc
Ġc ore
nt y
Ġthr ows
Ġple ad
che stra
ĠSh aw
Ġpen it
ĠSus an
Ġpleas antly
he ars
ar ity
Ġp ony
ĠT ree
Ġri pp
de pend
Ġgl are
Ġpat ches
Ġeng aging
Ġcross es
Ġforget ting
Ġinit ial
Ġinse ct
B al
re cked
ed ged
Ġm ice
Ġm ature
le e
cl ed
pr im
Ġtrans ition
Ġgen ial
Ġur ge
princi ples
ĠConfed erate
Ġinno v
Ġetern ity
Ġw ig
it is
ill o
Ġsu its
Ġsc ared
ex erc
ual ity
Ġsk illed
Ġopp onents
... ."
Ġtop ics
after noon
Ġspo iled
Mad agascar
Ġadvoc ate
ĠColor ado
Ġprelim inary
H ard
Ġth aim
ĠB ri
ĠH arrison
rom e
ĠW agner
Ġk ids
ĠJ ake
Ġexp ort
Ġhum il
12 8
car ry
Ġsacrific ed
Ġcigaret te
G L
ar f
ch anging
Ġst ren
Ġch o
Ġim pe
ĠPro bably
Ġve x
ĠJe h
Ġbull ets
Ġlod ged
Ġov ate
d le
id ious
Ġv ia
Ġplan ets
Ġlif etime
father s
Ġflo at
AB LE
Ġpaint ings
ĠSuper vision
ĠKenn edy
r ative
u il
u ction
Ġt ank
Ġw its
ĠSe ven
Ġreal ised
Ġhon ored
Ġhon esty
Ġmark ets
Ġur gent
Ġplant ing
Ġep ic
Ġcryst als
Ġblank ets
ĊĊĠĠĠĠĠĠĠĠĠĠĠĠĠĠĠĠ ĠĠĠĠĠĠĠ
ĠRog ers
ĠBrand on
opportun ity
p owers
w ear
ce re
ĠS ummer
ul ch
op atra
ask ets
ĠMan chester
AY S
omb ia
Ġanal og
Ġtransport ation
N ay
Ã Ĩ
le en
ĠM ind
Ġr amp
ady s
aw k
up iter
Ġ20 19
ĠSen ator
ĠSel ina
im b
ĠG ener
Ġpl ague
Ġ17 8
Ġaw fully
Ġexcept ions
Ġbroad er
ĠKe ep
A uthor
or ate
Ġin asmuch
ad mir
ĠS yn
ĠB acon
ĠP le
Ġam mon
Ġ18 4
ĠDe f
Ġhelp ful
uff s
ruct ure
Ġ186 4
Ġadmir ably
ĠLie ut
g ression
Ġc able
the ast
ĠM ach
Ġ19 4
wor ked
des cribed
ĠAugust us
ĠCons ul
cra cy
E llen
M A
Ġt ed
or ie
Ġg ird
ri ving
ter bury
Ġcon vert
Ġacqu is
through out
Ġmonaster y
ĠI v
ĠH orn
ĠPro p
Ġadj acent
Dist ribution
emet ery
D u
en ched
ch lor
ĠS O
ĠB land
to fore
ĠJ oh
ck et
ond e
Ġstr ategy
fl ag
Ġass umption
OR GE
Ġfac ility
Ġstor my
Ġimprison ed
move ment
ĠSwed en
Ġcoff in
ĠTech n
s ized
Ġe jac
id o
ĠW ald
ne ck
Ġper sever
ull ivan
Ġtreat ing
Ġsens ations
Ġrecogn ise
ĠRep ort
Ġprogress ive
othe red
ĠBi ograph
ĠAccording ly
ĠTw enty
ĠDer by
ĠSyd ney
Ġh ier
Ġqu est
12 7
Ġdest ructive
Ġsuper natural
Ġnurs ery
i per
Ġt ests
ur ous
ĠS ennett
sh owed
Ġsc rub
rist ol
Ġfre ight
apt ation
ĠAg nes
Ġpet iol
Ġutter ance
Ġpossess ing
Ġroof s
OND ON
L uc
T ime
Ġon ward
ĠM otion
Ġpers ist
Ġ17 3
Ġrev ived
Ġsurv ived
Ġencoura ging
Ġrhy thm
L u
M el
N ote
v irt
w aters
Ġe ighth
ri al
Ġv ib
Ġ19 5
Ġ19 00
Ġcount ing
Ġsw allow
Ġsum mons
do zen
ĠFran Ã§
Ġpit ched
esc ape
Ġaccess ible
Ġamaz ed
Ġstub born
ĠBus iness
Ġn uts
ĠT art
ri ans
Ġshe pherd
Ġyour selves
uch an
vent ures
Ġ20 6
Ġexpect ations
your self
Ġtechn iques
Ġaccompany ing
Ġarbit rary
g om
if er
os h
Ġun natural
Ġatt ach
Ġlaw ful
Ġbott les
ĠEgypt ians
Ġsacrific es
Ġresent ment
h anging
Ġm entions
Ġd ainty
ĠN athan
Ġhorse men
Ġoper ate
Ġterri fic
ere rs
Ġuncertain ty
Ġcher ished
y ss
he ment
Ġp ork
Ġd io
ish ly
Ġ18 5
Ġsupp orts
ĠLou ise
Ġadmir al
Ġunconscious ly
Ġmant le
ĠInquis ition
A ustr
Ġmed al
Ġpal aces
Ġstock ings
vis it
ĠGall ery
diffic ulty
Ġpir ates
F inally
Ġh uts
ĠF ront
ĠE ar
Ġout come
ĠRe al
ĠAb ove
Ġpot ent
Oct ober
Ġmal ice
Ġsettle ments
ĠRem ember
whe el
ĠMod ern
B ell
Ġg oose
Ġon ion
ĠH il
ĠH og
ĠL A
Ġall y
ens er
ĠAs he
12 6
Ġhur led
Ġdig ging
N A
Ġas cribed
ĠH op
ĠL ock
ĠL addie
ĠN av
att an
Ġdepend ing
UR ES
Ġpursu ing
ĠMal colm
Ġobed ient
UB L
Ġcrum bs
Ġelong ated
M ack
S omething
le af
Ġover looked
Ġpre cept
ov a
ĠĊ ĠĠ
Ġrob bers
Ġshel tered
Ġtal ks
Ġarchitect ural
Ġobst acles
Ġsentiment al
pher ds
Ġgorge ous
Ġhered itary
d iss
Ġhe aling
Ġen ables
Ġappe nd
Ġ17 1
13 2
Ġpast ure
gl ad
ett a
Ġchamp ion
deg ree
w ond
Ġm ouse
Ġre igned
ast rous
Ġmust n
Ġswe at
Ġdest itute
Ġdiss ip
conscious ness
Ġrevolution ary
Ġdimin ished
Ġingen uity
pl ane
Ġbl ush
Ġbl azing
Ġ18 37
Ġmil itia
Ġstrugg les
Ġadminist ered
Ġbrid ges
Ġmart yr
Ġscant y
Ġhe el
Ġg au
os o
ens is
cept ions
pri vate
Ġdiff ers
ĠNell ie
l oved
Ġa ward
Ġl amb
se ud
th in
ĠC urt
ĠH az
ĠL OVE
ual s
ĠWh ich
ern on
Ġext inct
Ġhor rors
Ġill eg
fact s
Ind ians
open h
L L
c ence
Ġst ating
ap le
Ġpro verb
Ġac ids
gr oup
13 4
13 7
Ġsett ling
road s
ĠCont in
ĠGoth ic
ĠBapt ist
P ot
g ow
Ġm aps
am i
ĠC uth
est e
Ġgl ancing
Ġprodu ctions
12 4
ĠZ e
Ġcre eping
ĠĠĠĠĠĠĠĠĠĠĠĠĠĠĠĠ ĠĠĠĠĠĠĠĠĠĠĠĠĠĠĠĠ
Ġdomin ion
Ġbloss oms
ĠPed ro
in habit
Ġw oke
Ġf its
Ġde ceive
ĠP O
ĠF oster
over ing
Ġfr own
OL L
bes ides
Ġbrand y
Ġconnect ing
ĠDar win
Ġha unted
pl ays
Ġsl ack
Ġsub mission
Ġinst all
com pet
Ġtele gram
Ġannoy ed
C at
c ou
h ips
Ġy awn
ĠK at
Ġpass enger
Ġepis ode
a illes
Ġv ibr
Ġne gl
Ġdis dain
ip h
Ġmay or
Ġcons cient
Ġmon itor
13 9
Ġaw ait
ĠBro s
h oles
Ġsince rely
Ġval ve
ĠEl iza
ĠTr uth
Ġindul ged
Ġminim um
s cience
ĠM end
ĠB udd
ĠF ellow
ĠO range
Ġ19 8
Ġhand led
Ġsuff ice
Ġstri pped
Ġattribut es
r ings
Ġp ots
ĠT od
Ġab dom
for get
Ġins pire
Ġinj uries
Ġvig our
ĠSto ck
Present ly
4 00
n ings
w ig
re ach
ch ain
ĠB ag
own ers
Ġsc rap
Ġhon oured
Ġperform ing
Ġbirth day
Ġhonest ly
Ġmechan ism
Ġprem ises
ĠDaw son
iov anni
Ġbe ans
ĠB ever
Ġv ile
Ġhapp ening
Ġ20 3
Ġspring ing
Ġresc ued
Ġtiss ue
ĊĊĠĠĠĠĠĠĠĠĠĠĠĠĠĠĠĠĠĠĠĠĠ ĊĊĠĠĠĠĠĠĠĠĠĠĠĠĠĠĠĠĠĠĠĠĠĠĠ
k o
Ä «
Ġhe res
ĠB eyond
ĠH or
Ġha il
Ġ18 3
Ġnum bered
ĠCal vin
Ġassoci ate
Ġdim ensions
Ġstor age
Ġdur ation
Ġenerg ies
c our
g as
in isc
Ġf idelity
Ġto ment
ĠC ib
ell es
12 1
requ ired
Ġpor ter
Ġtele phone
Ġfragr ant
Sept ember
Ġdestro ying
N EW
S aint
V an
m ile
Ġin ex
Ġst if
Ġsh ares
ĊĊĠĠĠĠ ĊĊĠĊĊĠĠĠĠĠ
ĠE agle
Ġab bey
Ġes pecial
12 3
ĠBr others
Ã¦ us
Ġoper ating
ĠWell s
Ġoblig ations
Ġproud ly
Ġprotect ing
rup ulous
Ġmurde rer
H alf
he im
Ġg it
ĠD Ã¼
ĠR if
Ġpost p
fall s
offe red
Ġpred omin
Ġinflict ed
Ġp as
ce ph
Ġst ain
ĠP E
ig nty
Ġlaw yers
Ġ20 4
AT T
Ġhy ster
Ġsuper b
Ã§ on
Ġling ered
f ight
h orn
gh an
ĠS uff
Ġat ro
ĠH amp
ul ates
Ġ18 35
atter s
eng ine
Ġsing er
ĠSte wart
Ġreward ed
ĠAlexand ria
Ġt icket
Ġm ales
ĠP ract
we ather
Ġpr udence
Ġneighb oring
Ġsuper vision
Ġmagn itude
Ġassem bl
slow ly
D en
s av
s ens
Ġb ou
Ġl uc
al og
st ick
ur ate
th reat
ell ows
Ġlo af
Ġobject ive
Ġ186 3
Ġprim arily
Ġshru bs
M ic
Ġs all
Ġb acter
Ġwe ars
est ead
ĠG ore
ĠD yn
ass ed
mer cial
Ġ20 5
Ġwond rous
Ġindul ge
Ke ep
ĠClar ke
M E
l it
Ġh ood
Ġun question
oth s
Ġstri ving
Ġhost ess
Ġhom age
Ġpul pit
Ġtid ings
D ra
F ore
I EL
V irgin
c ourage
Ġf ret
Ġst ability
ĠM ust
âĢĿ ,
Ġgr ade
Ġ18 1
Ġ18 2
Ġcr ush
With in
vere nd
Ġtrave led
inst ance
Ġstation ed
Ġpatri otism
Ġleaders hip
fav our
ĠBrus sels
i op
in formed
Ġb ourge
Ġfor cing
ri l
un ion
Ġcan cer
Ġfl ashing
Ġres idents
Ġ18 48
me asure
Ġref using
Ġfort ified
Lie utenant
Ġnois y
Ġs cept
Ġd rug
ĠG ros
ĠR ou
Ġsur ve
Ġsk irts
Ġ28 0
Ġsepar ately
ĊĠĊĠ Ċ
Ġ187 2
Jan uary
power ful
Ġexplain ing
ĠDen mark
sil ence
Ġjack et
Ġannounce ment
Ġexert ions
Ġensu ed
Ġthe ore
ĠG az
Ġag gress
Ġag itated
Ġrel atively
14 5
13 3
Ġbig gest
iction ary
Ġkne eling
tw elve
wr ong
Ġregret ted
sal m
Ġpig s
Ġbarbar ous
fif ty
Ġenlight ened
an se
ĠC OR
ĠC arm
ore n
Ġab ilities
Ġform ula
ĠSe ward
Ġbar on
ĠX VIII
ĠMed ical
Ġdesper ately
Ġmanufacture rs
Ġplun ge
Ġp aces
ĠI ra
Ġwe eds
ĠC air
ab ul
ous ins
ĠG rit
Ġper t
Ġri ot
Ġwr ist
Ġexpl ains
hy dr
Ġamount ed
Ġkeen ly
Ġgif ted
AV E
dri ven
Ġaffl icted
develop ment
Ġpy ram
Ġconspir acy
ĊĠĠĠĠĠĠĠĠ ĊĊĠĠĠĠĠĠĠĠĠ
P ray
S everal
re nder
th ou
ĠO lymp
ine as
av ian
Ġbl unt
Ġrec re
Ġcr ude
Ġpat iently
Ġgro aned
Ġconstit u
Ġbri ghter
p ack
Ġp ines
Ġn ail
ow a
Ġwe ird
ĠS ound
ĠH unter
Ġher bs
Ġv oid
pp ery
ĠL iverpool
Ġke eper
ĠMc G
Ġ190 7
serv ant
M et
m i
it i
Ġel astic
13 8
Ġinf all
Ġprev ailing
ĠTr inity
ĠPet e
Ġfortun ately
Ġpill ars
Ġaccur ately
dec ided
Spe c
Ġcomr ade
educ ation
O SE
c op
ll i
Ġre bel
ĠG ab
Ġopp ression
Ġexcl amation
ĠMe g
ĠBro die
Ġsym met
Ġscr ut
Ġtreacher y
Ġcorrid or
Ġh inder
ac cess
sh own
Ġref rain
sp ace
ĠDe velop
ĠCon way
ĠPh ys
Ġfav oured
Ġsad ness
Ġep it
Ġengine ering
Ġoverwhel ming
Ġinval id
B ob
C ent
D am
Ġt a
Ġc ant
Ġre nders
ĠH annah
ab und
un cle
Ġman aging
ĠJ oy
ĠK ur
14 8
14 9
Ġvis ions
Ġattend ants
Ġstro ve
Ġtermin al
Ġflav or
f un
t was
ce lled
ĠC f
Ġdo omed
act ing
for gotten
ĠNor way
IR D
Fran cis
Ġjudic ial
C apt
L y
M ess
Ġback ed
gr ay
Ġvict orious
Ġwis er
Ġimper t
Ġmir acles
ĠCont inent
Ġoun ce
f amiliar
g re
o ise
al ysis
ce ler
ri el
ĠM all
Ġch ival
Ġcl ause
17 5
Ġmon key
Ġfear ing
Ġprevent ing
Ġmanufact ures
ĠEll is
Ġa venue
Ġf oll
es p
am el
ĠA le
ĠW AR
ĠJ asper
Ġpl aint
Ġcomp ressed
Ġneed n
Ġpast or
Ġrub bing
Ġelement ary
ĠEmp ress
Ġverd ict
t ically
in cing
on ous
Ġas cent
Ġst amps
Ġv otes
our selves
Ġ2 12
Ġsec ular
ĠMar ine
Ġcor on
Ġopp ressed
Ġdev ised
Ġtrem ble
Ġcro oked
N ational
S ar
m ess
Ġt ies
Ġth ieves
ch ie
Ġst ature
ĠB ou
ĠE thel
Ġro aring
Ġpe b
ĠSt at
ob tained
Ġtrans formation
Ġver tical
Ġcapt ive
Ġcert ific
hig her
j pg
er oy
Ġd y
Ġe ccentric
ĠG a
Ġshe w
ĠO pp
Ġ19 6
ater nal
ĠSt ation
less ed
Ġinter mediate
15 5
Ġ20 1
ĠPl ate
Ġarch bishop
Ġcard inal
Ġcontempl ation
ĠFel ix
Ġsket ches
Ġclust ers
T en
Ġl iv
Ġse ct
me as
Ġsk ilful
Ġdep ressed
Ġprof essed
AS H
CONT ENTS
N ation
c ab
f right
w ounded
Ġre ferences
ĠF ull
ons on
ink ed
13 6
ĠOr gan
Ġattack ing
Ġforth with
Ġexec ute
Ġbreath less
dist rict
he aven
Ġs ow
ll ey
ch in
ĠP ear
ĠJ ess
ĠU k
Wh atever
Ġcount less
In st
az ines
fort y
Ġeffect ually
Ġdev out
Un cle
Ġimag inary
Ġjob s
Ġorn amental
Ġthrill ing
Ġsuperintend ent
J im
d read
Ġb is
Ġd it
ill on
ĠP el
ĠY ears
rest ed
12 2
Ġphys icians
sm ile
Ġproject ing
Ġz one
Ġcontempl ated
Ġgrie v
Ġchoo sing
adequ ate
k ne
Ġg ild
em er
ĠG E
od a
ĠK ar
Ġ3 50
Ġapp lying
Ġgl oss
Ġback wards
ple ase
Ġgu ides
Ġsit es
kn ows
ĠPe pper
ĠPort rait
Ġexper ts
Ġarg ue
M att
c ong
se at
Ġover se
Ġri fles
ced ed
Ġtri es
Ġappro ve
Ġ27 0
Ġnovel ty
Ġpear l
Ġcomprom ise
P ur
V en
st aff
Ġde als
Ġout lines
Ġkn ives
Ġgl ances
Ġprom oted
Ġfif teenth
Ġcontem por
Ġpu ber
Ġlux ur
div ision
Ġc ured
ĠN ear
ĠO bs
Ġj aws
man ufact
Ġvar ies
Ġda res
Ġdepart ments
bel ief
Ġtur f
Ġelder ly
ĠHol mes
onym ous
Ġum bre
Ġbourge ois
L asky
N ER
b ows
Ġb aff
ot ent
ĠA venue
Ġcl ient
Ġap ology
eth oven
14 7
W in
r ants
Ġw iped
Ġshe lf
ĠR ex
we ak
Ġprom otion
ĠBeat rice
f ra
n i
ir ies
ri um
Ġan at
Ġv ines
Ġv oted
Ġinto x
Ġdis comfort
pract ice
Ġinev itably
j ar
Ġre ins
Ġal oft
Ġj unction
Ġstill ness
Ġorder ly
Ġfoot ing
care fully
cap ital
Ġped est
Ġpenet rate
Ġinfl amm
ĠBurn s
citiz ens
ĠHitt ite
ĠCuth bert
T rue
c ad
Ġf ills
Ġp ension
ĠM as
ĠB OOK
ther s
Ġ2 13
Ġ19 9
Ġro lls
gg er
app arently
val ier
Ġcop ied
Ġdam ned
Ġaddress es
ĠMa ude
Ġexagger ated
Ġfath oms
O CK
P ierre
Ġc ripp
ĠC raw
ĠB h
Ġen velope
pend ix
Ġmus h
Ġcorrespond ent
Ġdemonstr ation
epend ent
G entle
I reland
f irm
i atic
Ġb rew
Ġbe et
ad op
ce tic
Ġsh awl
Ġch anced
ag ged
Ġres ume
Ġcomp r
fl ies
ub in
Ġcare lessly
16 8
bel ieved
Ġmission aries
ĠBook s
prov ided
Ã´t el
on st
Ġb oss
or um
Ġwh ales
ĠM iles
Ġex ertion
Ġdo ings
aw a
Ġsl im
He aven
16 5
Ġdear ly
idd y
ĠWood s
opp osite
Ġcyl inder
Ġc ough
ĠC ass
if erous
ĠP and
ment al
pr int
att ened
Ġdra ft
Ġsw elling
ĠHow e
Ġla ure
Ġstri ve
Ġsand s
Ġscient ists
Ġsimpl est
Ġretire ment
Ġinno vation
Ġembark ed
ĠRepresent atives
f ail
r ament
Ġw olves
Ġs led
an ning
Ġbe ck
Ġbe gging
Ġst urdy
ĠThe atre
res a
Ġle e
Ġtr ot
Ġimp ost
com mend
ĠAp oll
affect ion
or ily
ic ulate
ĠP ain
ĠE ff
ĠK er
AN E
13 1
Ġ20 9
Ġstru ct
RE ET
Ġcru c
Ġendeav ored
Ġmat ches
ul atory
Ġv icious
Ġall usion
Ġexp ansion
14 4
Ġexcept ing
mond e
otes que
Never theless
Ġl ump
ĠW it
Ġv iolet
ĠK al
ĠK ore
Ġpain ters
would n
Ġdrink s
bour g
Ġric hest
Ġingred ients
M onsieur
S urely
m oral
Ġg ains
per iment
ĠK ey
Ġwhere upon
Ġ18 30
Ġdist ressed
me al
she l
D iv
f ruit
Ġt int
Ġre ef
pass age
ĠMil an
poss essed
ĠWat son
Ġprophe cy
ĠEz ra
b ore
o ves
Ġac re
cript ive
Ġjud ging
Ġsuper flu
acc ustomed
Ġpack age
tell ing
ĠDen is
Ġintense ly
dif ference
Ġprejud ices
Ġprogram me
Ġoverwhel med
t us
v ious
Ġ ic
Ġs izes
ĠS erve
Ġsh attered
ĠD ream
Ġfl or
Ġdist ur
Ġinter vention
Ġ20 8
Ġaccom pan
ĠAndrew s
Ġdrift ed
Ġextravag ant
C ON
H orace
c art
p orts
ar ine
Ġwh ipped
Ġse wing
Ġde ity
ĠD og
Ġsl ices
Ġdist rust
Ġappe als
ĠAl ps
Ġ26 0
Ġcrown s
ym ph
Ġsculpt ure
atisfact ory
M od
b reath
e asy
t ax
er ic
qu estions
ĠL odge
op ot
ĠK h
not ice
ĠAl mighty
sp ot
Ġimport ation
AD Y
Ġcontribut ions
Ġshadow y
Ġimpl ies
Ġpsych ology
B LE
Ġin herent
Ġl ame
ĠM ul
ĠP reston
ĠL ot
Ġk ins
Ġ2 16
ĠDe ad
There fore
ĠQ U
ruct ed
min istration
Ġgrow led
yr us
incl uding
Ġpsych ological
Ġvel ocity
M ON
g room
Ġfor lorn
ĠC ase
ĠD O
ull s
sc ene
Ġdri ves
Ġbound aries
Ġtend ed
Ġsmo ked
Ġcultiv ate
Ġpenet rated
bott om
ĠLegisl ature
f ro
m ic
Ġl oft
Ġas pir
ĠL ac
ĠL td
um sy
ru le
Ġgo ats
ĠV illa
Ġmod er
Ġtrans action
ert rude
Ġheav ier
Ġmot to
writ er
Ġcandid ate
ĠJacqu eline
Ġoun ces
Ġsup remacy
ĠBuff alo
A th
W he
i ors
Ġs own
Ġc alf
ĠM and
ĠH ob
Ġun mistak
other wise
man ces
Ġcons olid
Ġ18 12
Ġtra its
az on
Ġemb ry
bre aking
Ġune qual
ca used
ĠRes earch
Ġindul gence
princi ple
Ġembarrass ed
Ġfoss il
H old
v oy
z ig
it ives
Ġf uss
Ġl oses
the st
ĠP lease
Ġli king
be aten
Ġgra ves
wer p
spe ed
Ġdu chess
Ġbrid le
ĠLiber ty
I ER
ed ar
Ġ( "
li hood
ollow ing
aff airs
Ġpubl ish
Ġ189 6
ĠBald win
G reek
b are
l ifted
al ds
and ise
ĠC elt
ĠB av
ĠP ad
Ġk ettle
ĠO p
ĠO rigin
ĠMar guerite
arr ick
Ġlegisl ature
iÃ¦ val
D ial
D uke
G irl
x ter
it ic
Ġus ers
ER AL
Ġreg ister
Ġ6 00
ey ton
Ġhon ours
af raid
Ġdesp atched
Ġ186 0
Ġ188 0
Ġdefect s
mil itary
Ġsumm ary
Ġsoot hing
n ative
re sem
ĠA B
Ġan ten
ĠH OUSE
ĠG host
Ġle aping
Ġsp acious
ĠK il
Ġsc or
no ble
EN E
Ġpres erving
An ne
Ġstra gg
Ġdeterm ining
Ġoccup ations
Ġfalse hood
opy right
. *
Ġn ap
ĠP erson
Ġ2 15
RE T
Ġremember ing
inst inct
De cember
Ġbab ies
Ġax is
Ġlic ense
ĠTurn er
corn er
ĠWalk er
ĠStan ley
ĠHort ense
Ġth or
im ity
Ġ2 17
Ġ19 1
br ush
Ġopp osing
Ġtrans actions
Ġpret ence
ett es
Ġimpro per
Do ctor
Ġhang s
Ġdemonstr ated
Ġcam era
ĠRh ine
ĠLes lie
s itting
Ġy oke
ition ally
Ġsupp osition
15 8
Ġdec oration
Ġpar adise
kn ife
ĠTra vel
Ġshoot s
fin ally
conf idence
More over
decl ared
Ġveh icles
ĠClare nce
2 20
L ar
f ounded
Ġthe ology
Ġb ould
Ġb isc
al together
se vere
Ġv oy
Ġyear ly
Ġtri vial
sc enario
rel ief
Ġban ished
Ġ187 1
pock et
b irth
in vest
en burg
ack er
Ġcons iders
Ġreg ulation
ug n
16 7
tr ust
ĠAm b
Ġdig est
ĠConn ecticut
Ġstam ens
H ER
d ry
u pper
Ġt avern
um en
Ġrem orse
14 6
arr anged
Ġrob ust
Can ada
Ġimpl ied
fin ished
ĠSupp ose
histor ic
= "
L ew
on ing
st ay
st ates
ĠP am
Ġ2 25
cl oud
end eav
oot s
Ġdet er
Ġ20 2
Ġsal mon
Col ombia
ĠBoy s
accom panied
Ġengra ved
p owered
Ġs ly
ind ers
ff e
ip ing
IN C
15 9
Ġmo or
Ġess ays
Ġhast en
Ġtend encies
Ġmir ac
Ġlod gings
Ġbapt ism
Ġconfer red
C are
h ol
ĠM oney
ĠC ustom
ĠH om
Ġr ites
Ġgr ated
Ġcomp ens
Ġind ication
ours es
Ġx ii
Ġbal anced
Ġaccommod ation
s alt
Ġw aking
Ġm ound
Ġg ilt
Ġreg ulated
con ven
Ġconf ounded
ĠX L
iff s
Ne ill
remark able
Ġber ries
Ġvigor ously
Ġted ious
c un
n ets
Ġst ained
to le
ĠD ays
out e
Ġen forced
Ġhon ors
ĠHer r
ĠQu in
** **
Ġunexpected ly
c and
Ġc yn
Ġm ules
Ġfor giveness
ĠB orn
pe lling
art on
ĠE ph
Ġar isen
Ġ18 15
Ġresol utions
Ġrad ical
ĠHigh ness
ĠBelg ian
Ġaccum ulated
Ġperspect ive
D ep
Ġm ont
ĠP orter
to on
ĠG ent
own er
Ġout fit
Ġ2 26
Ġ18 38
Ġbo ot
Ġfig ured
Ġrefer ring
Ġdem ocratic
Ġforb id
Ġobst acle
bran ches
matter s
Ġconsecr ated
H ur
Ġg hast
ĠS alt
ĠB orrow
Ġcon tend
ĠG rizel
Ġr ats
for ces
du ke
Ġchar ter
Ġpresent ation
Ġill usion
ĠSo ci
Ġcomfort s
zz a
ĠRich ards
sur pr
Ġkiss es
Ġengine ers
Ġinsignific ant
L es
v able
Ġd oubled
Ġg aming
ĠS old
Ġso ph
Ġfr amed
St reet
ĠEd itor
reg n
pre c
Ġsweet ly
isc illa
Coll ege
Ġcolle ges
Ġadvis able
ĠOri ental
N ovember
s now
Ġat oms
Ġal ph
14 3
ĠFor m
Ġmus cular
che l
Ġsleep y
Ġphotograph s
Ġbutt ons
ĠAthen s
u ance
le ar
Ġch Ã¢teau
ĠBl ood
present ed
Qu ite
bene ath
ĠSau ce
Ġplent iful
d well
d rop
Ġ }
Ġto e
ro gen
ĠB ird
ĠD isc
act ivity
Ġreason ably
Ġcomple tion
ĠIs le
rem ains
Ġ186 5
Ġrob bery
ĠColumb us
Ġaltern ate
wonder ful
Ġcalam ity
w alked
Ġbe lly
ir o
ĠM A
oun ces
let t
24 0
Ġdisp ersed
Ġbright ness
esc ence
Ġb omb
Ġd in
id as
ĠS ally
ĠS oph
ĠM aine
Ġne ur
ĠF rit
ĠF ried
Ġun fit
Ġsub ter
get s
Ġey el
Ġph ases
Ġbon net
Ġmathemat ical
Ġsund ry
U ND
p to
Ġst ops
ĠC her
Ġme nd
Ġdo st
Ġtra itor
gr ateful
br and
Ġoccup ying
Ġdistinct ive
Ġpolic eman
V E
h u
v ict
Ġa y
ĠC row
il er
un c
ĠD y
ud ley
Ġsc al
Ġple a
ĠRe f
Ġauthor ized
Ġsqu ir
UL L
Ġfed eral
Ġvault s
intell ect
Ġdisturb ance
ĠBalt imore
L in
er ia
Ġm useum
ble ms
Ġsec re
14 1
Ġel apsed
Ġexpl oring
Ġexpl oration
hib ition
Ġexpress ive
Ġhost s
represent ed
Ġpool s
Ġlink ed
Ġvolunte ers
Ġmun icipal
Ġresign ation
B ishop
G ra
Ġs or
ab oration
Ġfe udal
Ġbr im
Ġtr out
Ġpar a
Ġconduct or
Ġ189 8
Ġacquaint ances
Ġanci ents
s and
Ġp avement
ch al
il ess
Ġ2 27
ĠSt re
ĠV a
Ġins ane
Ġemploy ees
Be ing
Ġrejo iced
Ġhence forth
appro pri
ĠTheod ore
aum ont
Ġtom bs
Ġprecaut ion
ĠExec utive
b odies
f inger
on gh
Ġm ute
ĠI ron
Ġch rom
ĠV iew
Ġra gs
17 6
Ġco il
Ġins urrection
ash ire
Ġsil very
Ġtrans mitted
ĠEd wards
ĠMy les
Ġsoft ened
Ġjoy ful
iqu ity
mo ving
M uch
M ark
p enny
Ġf ren
ĠB ush
Ġag encies
ĠMar ion
Ġut ility
Ġcre ed
ĠArab ia
ĠPol and
Ġcandid ates
Ġpetiol es
H ung
b rill
l at
or ms
Ġd ad
Ġl ions
ĠP ly
Ġgr ate
ĠK ay
Ġthought fully
Ġhum bly
16 6
16 9
ĠAl as
Ġbeh aved
Ġ23 1
ĠBur ton
produ ce
Ġstern ly
Ġsuggest ive
Ġmaj estic
! ...
I AL
J ones
f ighting
s ong
Ġt uck
the ory
ass y
Ġ24 5
Ġassoci ates
Ġhistor ians
Ġposter ity
g uns
Ġe ve
ut able
ĠC e
ab e
ĠF ood
ĠE ver
ĠN a
bl ers
ult ural
was h
15 6
che t
Ġbene fic
Ġexped ient
Ġbelief s
Ġconject ure
remem bered
opot am
p ale
Ġre ver
ĠD ig
Ġ2 18
oc ent
17 9
Ġmar quis
14 2
OR S
str icken
Ġexcl uded
Ġwait er
Ġexpress ly
ĠHim self
Sam uel
ĠKirk wood
F ive
V ill
b ones
l ia
Ġto ast
ent ertain
ĠB RO
Ġor chard
ĠSt ru
Ġev al
Ġmin iature
Ġ20 7
Ġer rone
Ġ187 3
Ġrelation ships
Ġcondem n
F er
P ers
b anks
i oc
Ġhe ating
id al
ĠH erm
ĠR un
Ġab ide
Ġ2 29
ened ict
Ġter ra
Ġ23 6
bes ide
sl ave
Ġstat istics
Ġearnest ness
Ġburst ing
sim ply
name ly
top her
ĠEv ans
Ġengra ving
D ar
t ong
Ġm are
Ġde em
Ġun broken
15 7
Ġpract ise
23 0
Ġ25 3
Ġund ist
á ¿
Ġ ,
ou bles
Ġf ow
ĠD up
ĠN umber
Ġus ur
ER Y
Ġac uminate
like ly
Ġve hement
Ġdesign ated
ĠChe shire
Ġsch ooner
rec ord
uk or
Ġlou der
A fric
O rigin
W oman
Ġt earing
ĠS M
Ġsu pers
Ġcon verse
ĠW ing
ĠG aul
Ġcl in
ĠV on
Ġcomp onents
Ġass uming
Ġdra gging
Ġbene fact
Ġsuper ficial
Feb ruary
Ġpit iful
Ġdust y
Ġprompt ed
Ġneat ly
Sat urday
M ass
re aching
en cia
Ġse gment
Ġch oked
15 3
ĠMar sh
ling ton
ĠSc ar
ĠSur vey
squ are
ĠSien a
Ġeyeb rows
B ra
O x
Ġt utor
st age
Ġcon gen
ĠG riff
ĠG avin
Ġsa g
te es
Ġdown stairs
Ġchar coal
Ġbeh ave
Ġbar ley
Ġwat ches
Ġur ging
wind ows
Ġdisapp ro
gentle men
Ġtroubles ome
Ġske leton
Ġrestra int
ĠT ab
ĠM ose
oo ps
Ġ2 11
Ġrest rain
Ġdet achment
Ġ20 21
Ġsign ature
Ġappl ies
Ġclim ax
Ġge ographical
repe ated
Ġcaver n
R ay
c ery
ĠI g
ĠT RA
Ġst ooped
ul u
um pt
ĠF lem
ĠR idge
Ġ2 22
Ġ2 21
che z
Ġ23 7
ĠIndian a
Ġsn atched
Ġfurn ace
Ġgrat ified
omer set
Ġlux urious
S us
l og
v alley
Ġo ri
Ġs ings
ĠJ ordan
bl ind
16 3
ev i
Ne ither
oult ry
uzz le
Ġintol erable
P ost
Ġl ists
ir led
am pton
ĠC op
Ġor ator
ust ry
ĠD ame
of fer
Ġwor m
Ġdis astrous
Ġpr ote
ull ier
ĠK ir
Ġrec ourse
AR E
Ġpol ar
Ġtrans form
Ġconv incing
ĠChurch ill
Ġcompl aints
Ġcomment ed
Sec ret
Ġdiplom atic
Ġghast ly
e ager
ĠR ound
ĠR ams
ĠN OT
Ġad du
17 7
18 9
Ġclose t
Ġdisp ose
Ġ24 3
ik a
Ġcivil isation
Ġban quet
Ġoffer ings
Ġ187 8
organ ic
Ġrav ine
Sax on
quant ity
J ane
L isten
r ality
w y
Â ¼
Ã º
st all
ĠS ad
Ġ2 14
ĠAn cient
St r
Ġdev ils
Ġ186 9
Ġlegisl ative
Ġlun cheon
Ġfanc ies
C all
R ussian
st op
the astern
ĠCh air
18 5
Ġins in
ger ia
Ġ23 4
ĠTr ade
Ġsn uff
Ġboard ing
vis ible
Col umb
Ġjoint s
ĠSher man
Ġwag ons
ĠArist otle
b ull
Ġf ishes
as iness
ĠP ons
ĠW rit
ĠD ix
ĠE nt
ĠR ain
od s
ag ram
Ġcan on
Ġqu ivering
Ġper v
Ġ18 50
ĠRe ad
ĠBy ron
arrow s
ĠSer geant
foot ed
Ġbud s
Mart in
Ġlabou rers
Ġw an
Ġfor ts
ĠC R
ĠP olly
ĠE ight
ell er
Ġcl ients
Ġent rusted
ĠBr itt
Ġ26 3
ĠCan terbury
Ġpot assium
Ġcat astrophe
Ġdiscuss ions
ĠMc K
ser ious
Ġvague ly
Ġplum age
Ġapprox imately
T was
ent e
art ing
Ġap ron
17 8
Ġ24 8
Ġ23 2
Ġmagist rates
concern ed
G er
s ir
à ¸
is ans
Ġth orn
Ġy elled
ĠF ortunately
ak spe
ect ions
Ġout break
Ġ2 28
ĠV iv
Ġins cribed
Ġreal ise
Ġill um
AP H
Ġsepar ating
Ġsecure ly
Ġresem bled
Ġhosp itals
gent ina
Ã©t Ã©
Ġtablespoonful s
B ill
m arch
t ar
Ġb ug
Ġp ard
se au
ro ar
Ġst ig
ĠB ristol
ĠE y
ĠE sk
ĠN athalie
Ġsc ound
Th ink
Ġhard ened
St ud
Ġpal ms
tic le
Ġsplend or
ara oh
Ġkingdom s
Ġeleg ance
commun ication
sac rifice
num erous
Ġresear ches
compre hens
J E
L ight
b in
ĠC el
Ġha re
ol ith
ab ling
ĠL ITTLE
ĠF ern
Ġwho ever
Ġfam ine
Ġcur ls
ĠAl ab
ĠCom pan
Ġpoet ical
Ġgle e
Ġachieve ment
Ġamend ment
Ġworsh ipped
S en
d iam
Ġcon text
ĠL ost
Ġover throw
Ġra cing
16 1
Ġed itions
ĠAl most
arn ish
Ġfur iously
Ġdro oping
Ġenc amped
Ġsex es
Ġric her
__ __
Ġcav ity
M ich
j an
Ġt asted
at tend
Ġd ough
ĠB le
ĠJ upiter
Ġpl astic
Ġ2 19
oll ey
ile t
Ġhel m
Ġdwell ings
ĠJim mie
ĠSpe cial
ĠLis bon
Ġsom bre
Ġtrump et
Ġfug itive
Ġd ub
Ġd warf
ĠD ark
Ġcl uster
cl ad
ats y
Ġcommon place
onel iness
itect ure
Ġrejo icing
Ġconstit utes
Ġconnect ions
Ġindic ating
Ġdazz ling
Ġrepet ition
J ud
k ill
Ġw reath
Ġb ob
Ġm ason
ent ious
ĠN ina
av ens
Ġend urance
Ġret iring
Ġpar as
iter ated
bit ter
ĠBar b
Ġpeculiar ities
wr ite
asso ci
Ġhaught y
f ers
Ġb oo
om bs
Ġre nd
ĠC os
Ġsu icide
to ps
Ġwere n
Ġpro ving
Ġun b
Ġ3 30
pri v
Ġsqu ire
ais y
Ġprohib ited
W r
Ġsh aring
ĠL akes
In to
18 7
15 4
ĠRe yn
Ġ24 6
Ġ24 7
Ġver ge
Ġmusic ian
Ġpal p
Ġtext ure
Ġremind s
Ġgle aming
Ġow es
inhabit ants
Ġa ught
Ġb oughs
ro e
Ġnot orious
Ġno blest
au ld
Ġcl aws
ĠY an
Ġass ail
ĠLe icester
Ġaccept ing
Ġrob ber
Ġtor ch
Ġsustain able
Ġbloss om
Ġconfront ed
abul ary
W ed
ro of
ain ing
ĠJ AMES
Ġ2 24
Ġun kind
ĠU t
gin s
pr ice
Ġev ap
Ġcr adle
Ġ24 9
ĠConst ance
Ġnice ly
ĠVol ta
Ġtu ber
Ġconsult ation
Ġtoler ably
Ġshru gged
DU CTION
iscop al
B u
c ities
Ġ icy
Ġw oven
st own
un to
ĠD orn
ĠK ath
It alian
Ġlast ly
Ġhum ility
16 4
Ġ27 6
Ġstat ute
Ġperil ous
Lie ut
overe ign
G ree
I Z
t ables
as gow
ĠH ull
Ġv itality
Ġdo ck
ick ering
Ġfl int
Ġdirect ing
ĠPr im
Ġcold ly
look s
Al ice
Ġgrand son
cil iation
UR N
tra vel
Ġtail or
Ġdisapp oint
Ġpoison ed
Ġalter ation
Ġjump ing
treat ed
igr ants
s up
Ġg ulf
ĠC ole
ra cks
ul k
Ġqu er
Ġnow adays
Ġsc aff
19 5
Ġarm our
Ġoccup ies
Ġtrad ers
Ġrid den
Ġacad emic
L aur
f arm
l uck
y ield
| -
Ġt ak
Ġl ava
ĠF alls
ĠG ame
self ish
ran ces
17 4
ĠAn im
alt ies
Un iversity
ray ed
pass es
Ġclean ed
Ġstream ing
SE CTION
Ġpier cing
Ġeleph ants
ĠJon as
S un
p os
Ġt ension
Ġan ew
ĠB eng
Ġha iled
ess ing
ĠL adies
Ġend uring
Ġhum orous
Ġfin ishing
uc ke
cr own
Ġmed iÃ¦val
Ġcompl iance
ĠSy m
acqu ainted
ĠMark et
Ġthread s
Ġprophe ts
B ack
f amous
y cht
Ġw ires
Ġre cl
ĠB ene
ĠJ ove
Ġsk irm
Ġche mistry
Ġfore going
Ġpar ade
Ġ26 7
Ġ27 5
ĠGu inea
Pro v
equ ally
ĠCons ider
Ġgrim ly
Ã® tre
Ġmob ile
complete ly
2 15
M ah
m ixed
r ations
Ġto y
ĠM axim
ĠV iolet
17 3
Ġaffect s
car rying
anc ers
Ġinj urious
direct ed
Ġannoy ance
C ut
Ġt ested
Ġs ate
at hing
on i
ic ans
ĠM otor
od ed
ĠN ancy
right s
ĠPr iscilla
Ġcollect ions
Ġslee ve
L iving
O C
W ARD
u um
or f
st at
ĠH ector
ge ons
Ġch rist
Ġper pendicular
Ġchar itable
irl ing
Ġdet ained
Ġmoment ary
ĠIs abella
Ġdesp atch
char ged
lo ving
Ġhall s
ĠCommand er
S top
T em
ĠM am
Ġse izing
ret on
Ġ24 2
ĠDon ald
Ġ189 0
Ġmaid s
po et
Ġdomin ions
Ġling ering
Ġpione er
ĠWords worth
Ġparl our
ĠAur ora
t ry
ĠH ou
Ġgr inned
Ġgot ten
Ġpap al
Ġhealth care
Ġdepend ence
ibr altar
Ġnurs es
ĠDÃ¼ rer
D er
P ark
T y
V ictor
m ember
ĠM ist
un ned
Ġch ickens
Ġ" '
Ġdo ve
Ġhome ward
Ġprom oting
Ġmis fortunes
ĠPl ant
great ly
Sh ort
stre ets
Ġrot ten
Ġlege nds
F riend
] ;
an ity
st ir
am orph
os als
ag u
Ġwill ow
Ġfe es
Ġdis regard
Ġrep ay
15 1
ĠCl a
ograph ic
IV ER
ĠWor cester
Mor occo
Ġ== =
n is
ĠH undred
ore rs
pl ants
ty ard
19 9
EN S
ann es
Ġinf ancy
Ġdelight s
ĠEr nest
advant ages
Ġslee ves
ĠTreat y
Ġsimult aneously
g own
ad aptation
ter rible
Ġso da
ĠD und
ĠSt range
con y
Ġcur t
ĠSe ason
Ġprov incial
Ġfav ored
Ġlim estone
des cription
ĠSw ift
Ġinterrupt ion
Ġpist ols
ĠMack enzie
mach ine
Ġlongitud inal
gom ery
E ve
b ish
c ill
Ġb aked
ĠC in
Ġme ll
ĠO pen
ack now
Ġcont ing
Ġ18 40
ĠWh itt
Ġmar rying
Ġboy hood
Â° ,
serv ants
adv ance
cap tain
Ġwhisper ing
grad ually
Ġcraw led
interrupt ed
o ct
it ual
as is
ac inth
Ġbl ot
com mission
15 2
Ġinv aded
ĠDe bor
Ġopp onent
Ġspec ul
ĠEd win
ĠWar ren
Ġban ner
Ġpra ises
Ġexplan ations
div ided
Cath olic
Ġgland ular
R iver
m ast
n ations
ĠS had
Ġab omin
Ġad ults
ven ge
20 8
TER N
Ġinf irm
ruct ions
Ġgard ener
Ġpack et
Ġaccident al
Ġtransport ed
ĠDebor ah
P op
l ated
ing ers
Ġre cip
ri bly
ĠS ant
Ġbut tered
Ġk icked
ĠD oll
Ġch alk
Ġpro x
ect ive
Ġar rog
ather s
Ġres isted
18 6
18 8
Ġed ifice
AR K
Ġfra il
Ġplant ations
Ġ188 2
Ġvain ly
cal m
suff ering
FOR D
Fred erick
Ġtunn el
2 25
F L
f ac
Å «
ĠS und
ich t
un ct
air y
Ġwar like
Ġco ated
Ġvol untary
Ġla unch
ĠMay be
fortun ate
Ġadvance ment
Ġshr ink
Ġfert il
ĠInf antry
ĠMit chell
f ool
Ġ âĢ
ĠS oul
ra v
ĠF ate
og ene
ĠU P
ĠRo om
Ġunf av
ĠCle opatra
lad ies
Ġexpend iture
Ġearthqu ake
m art
Ġd au
ĠM O
Ġkn ots
Ġbu zz
AT ES
ĠSh ip
ĠAd olph
cor rect
Ġforb ear
post s
Ġanch ored
Ġposter ior
Ġreb els
Ġmonot onous
uchan an
K now
Ġf ry
Ġg er
ear nest
Ġdis orders
Ġpriv acy
ĠYork shire
Ġviol ation
ĠStand ard
Ġath let
H ence
is cher
Ġp ulse
im ens
ĠB est
Ġbut cher
Ġcom pel
te br
act ually
Th anks
ject ion
Ġhere tofore
Ġcommun ion
Ġ24 1
Ġ26 8
Ġ23 3
spe ech
Ġdesp ise
Ġexpress es
ama ica
prom ise
Ġmud dy
fell ows
ĠChance llor
Ġg ut
Ġe cl
ĠM ey
ĠP ine
ab i
ave nder
ph ysical
18 3
Ġvill ose
Ġbright ly
ov ah
Ġwrong s
Ġmel od
Ġ189 5
Ġ190 8
Ġmanufact ured
keep ers
ĠLar ry
riz ona
Ġhoof s
M ill
v ary
Ġb in
ed er
Ġh ints
Ġsh aded
Ġch ocolate
Ġcl umsy
sh ut
br is
Ġsol uble
Ġten ant
light ed
gu ing
play ing
mem ory
Ġinvestig ate
Ġintim acy
Ġrestrict ed
ĠNi gel
Ġabol ition
Ġalleg iance
distingu ished
he ight
Ġp seud
Ġv ul
ĠG as
ĠO UT
be coming
Ġwork man
Ġdoub ly
ĠPl ato
count ries
Ġmor bid
enth us
Ġaf ar
Ġ189 3
Ġfil ms
doll ars
Ġtw elfth
Ġgr ammar
Ġgr otesque
ĠTh ames
Ġsub ordinate
Ġant ique
ok er
Ġox id
Ġreflect ing
udd led
Ġsymb ols
ĠBabylon ian
Ġinfect ion
Ġphysi ological
Ġlibert ies
B ad
F aith
M is
Ġp agan
ĠM ISS
ĠG ir
int ention
Ġcomp uter
Ġstr ang
Ġexp anded
Ġinc ur
Ġcap it
Ġpar cel
ĠAll ies
Ġquar re
ĠBet ter
Ġsovere ignty
Ġautom obile
A H
r ition
in ished
Ġb amb
Ġc amps
Ġth igh
im ps
ĠT ucker
and om
ĠM ik
un ches
ĠG us
Ġcom ments
op ening
ord ination
ĠCh in
ph in
Ġ18 25
but ter
AP T
Ġcharacter ized
Ġrepl ies
Ġcomb inations
Ã± or
ĠFriend s
ĠGRE AT
Ġburd ens
i ore
Ġt ire
Ġs angu
er ably
Ġhe aps
am en
Ġco ins
Ġdra gon
sp ent
Ġ188 1
dist ant
ĠBro ok
Ġbi bl
cross ed
Ġembarrass ment
develop ed
c us
Ġd ances
Ġst al
Ġsh ifting
be h
ign y
sh ops
sh arp
land er
Ġexp ose
Ġsle w
appe aring
Ġorgan isation
col umn
Ġmel ting
Ġdim ly
ĠMem orial
Ġmeas uring
Ġweigh ing
ĠVenet ian
S n
p red
Ġan terior
ĠR ip
ure n
ian cy
17 2
19 4
Ġ23 8
ĠAnt werp
Ġthir teenth
Ġdyn asty
Ġprodig ious
. :
C am
F urther
i ens
Ġs ont
Ġs arc
ll o
as sem
ook s
pr inted
16 2
Ġneed ful
Ġadm iring
erm ont
Ġdef ensive
cul ine
Ġelect ro
Ġign ored
Ġdu pl
Ġstates man
Ġzeal ous
Ġcoo lly
A I
B ri
P ART
l ips
t rying
ure r
av ia
Ġmar itime
Ġref inement
Ġdirect ors
Ġtreat ise
Ġbir ths
ĠBo hem
Ġcolon ists
Ġsob bed
ĠRail way
Ġcler ks
p urch
re z
Ġc ooper
Ġd ire
se vent
ĠM ol
if ix
ĠB ot
Ġsp oon
Ġdis mal
ex cellent
Ġstr ay
Ġten ants
Ġsystem atic
Ġnorth west
Ġconsequ ent
ĠNe gro
Ġproject ed
ĠLu cia
Ġperman ently
ĠâĢĶâĢĶ ,
grad ation
Ġtranqu il
Ġacquis ition
hydr ide
B ab
p ires
z t
Î ¼
ĠS che
ul ace
ale b
Ġfire place
Ġ23 9
Ġpursu its
Ġanal ogy
Ġinvestig ations
Ġvap our
V IL
in os
ĠC up
ĠP it
de b
ĠY OU
att ract
Ġfact ories
Ġcor p
Ġacqu ies
ipp ers
ET T
Com mon
Ã§ ade
Ãª me
Rem ember
Ġtact ics
ĠArk ansas
J eff
W estern
t aste
ĠC amb
Ġv iii
Ġr im
ĠR s
ang a
Ġcomp oser
Ġsl ay
ĠBe hind
ĠEd dy
Ġesc aping
Ġcra cked
Ġsal oon
sm o
Ġsnow y
necess ity
cur ious
s udden
Ġthe ological
Ġc ousins
Ġm m
ar ians
an or
Ġd arted
Ġn inth
ĠS ister
ab and
Ġk il
iv ia
Ġtra versed
Ġwom b
19 7
Ġnecess ities
Ġhope ful
Ġbra very
Ġregard less
ĠEurope ans
Ġ27 4
ĠRom ance
Ġcy cle
ĠLanc aster
slight ly
Ġinterpre ted
ĠApost le
Wall ace
c ultiv
y nd
ce ls
el on
ĠL abor
ĠTh ings
Ġwhat soever
oss al
Ġ18 00
.âĢĶ âĢľ
Ġcur rency
20 6
arch us
rel ations
Ġobl ige
car riage
back s
Ġdam aged
Ġpan el
Ġcas ino
Ġrust y
subject s
Ġconcent ration
Bet ter
Ġimpart ial
Supp ose
: --
J a
v ie
w ished
Ġsp ake
Ġpre face
ĠK le
Ġunder lying
Ġint ricate
Ġev olved
Ġpain fully
Ġmag azines
ĠMe eting
Christ mas
Ġmyst ic
Ġastr onom
Ġextract s
Ġperfor mances
L at
Ġf owl
the e
ĠG y
ĠO live
Ġsun rise
Ġdev ast
IS ON
bour ne
eff ort
mil k
Ġvolcan ic
' âĢĶ
en Ã§on
ĠI ND
ac o
ig ate
Ġ2 23
ip se
ign ity
Ġste pping
20 5
ĠCon ference
ession al
Ġorigin ated
Ġ23 5
ok i
Ġsusp ense
Ġcelebr ate
Ġsubs cription
Ġindustri ous
Ġghost s
ĠVill age
Ġheres y
B ig
F if
Ġw al
ĠR ector
ĠO ften
ĠO ullier
iz ard
18 4
Ġblack s
IC AN
Ġgall eries
compan ion
Ġforci bly
in str
Ġs inner
Ġex erted
ĠF und
ĠG iovanni
Ġcom ic
Ġman ual
ĠN E
ck ers
Ġinv iting
20 7
ev idently
Ġmel t
Ġgro ves
Ġlabor atory
consider ation
ĠChamp ions
Ġcourte ous
b ast
c use
h unting
r ide
Ġn ought
ĠS aints
ĠN est
Ġ( Â§
Ġsur m
17 1
uss ars
Ġcor al
Ġobl iv
Ġpin ch
pract ical
Ġlust re
ĠLen ore
Ġhyp oc
Ġquot ation
e ze
Ġt ex
Ġb ald
an ay
st able
Ġon ions
Ġsh ri
ĠP eyton
ĠF ish
ci er
19 3
ĠAl aska
uss y
Ġpract icable
23 9
So ciety
Ġled ge
Ġ26 4
ext ent
ĠVer ona
Ġcompanions hip
school s
Ġexperiment al
Ġtreacher ous
Ġscri pt
ĠHistor ical
ĠCreat or
2 26
T im
es cri
Ġp ett
ĠC ock
ĠJ am
ag ara
Ġsp ruce
be comes
ex actly
Ġsweet est
Ġcompl iments
ĠST REET
Ġcalcul ation
Ġscream ed
Ġbegg ar
Ġpredecess ors
C re
C ross
in ters
ĠA bs
Ġde ities
Ġpl ung
19 6
Ġprof ile
ribut ed
Ġ24 4
Ġinstinct ively
experi enced
Ġsuperst itious
Ġmortg age
P OR
Ġe rection
Ġre hears
ĠB ry
em ing
ĠE conom
ag gy
Ġro ds
Ġra ging
Ġ20 18
20 9
leg s
Ġgro an
Bl ue
Every thing
hur st
Ġmathemat ics
Ġaristocr atic
Ð¾ ÑĢÐ
a its
en ged
Ġp ite
ĠT oo
ĠT ry
th irds
ĠG i
ĠR i
ĠN orton
Ġqu itted
Ġres erv
ian ces
ise ase
ex ceed
Ġrest rained
Ġconf ine
alt a
Ġann ih
Ġoper ator
Ġ26 5
Ġobserv es
know ing
Ġsli pping
Ġsurv ival
Ġcott ages
opl ane
Ġgild ed
c ard
Ġt ang
Ġg room
ĠG ay
ĠE than
od ing
te ars
Ġra id
Ġcomm em
Ġcle arer
Ġcur led
ĠNor folk
Ġ25 6
Is n
Ġkiss ing
Ġretreat ed
Ġaristo cracy
ĠMos cow
ĠClif ford
ĠGaz ette
A ustri
S qu
f ur
k ens
Ġb lend
Ġp addle
Ġdo se
Ġsc ores
end ed
And rew
18 2
Ġgra b
Ġty rant
should er
Ġ190 9
Ġstro kes
Ġdiscover ing
amil ies
Ġwing ed
Ġattribut e
pop ulation
ĠAL L
Wor ld
ĠDa ily
Ġd ashing
ce lebr
Ġit em
Ġha unts
Ġv acc
Ġdo d
per ate
Ġen large
Ġ18 45
ail and
su bs
fl our
Ġhard ships
Ġperson age
Ġmem or
par allel
St and
Ġdiv iding
ĠColl ins
Ã¢ n
met ic
ĠMil itary
ĊĊĉĉĉ ĊĊĉĉĉ
ĠFle et
ĠPeters burg
2 13
2 29
T ri
] âĢľ
e vent
in ia
er os
Ġb ully
es the
ut ations
ĠF ine
Ġr ue
Ġunder ground
Ġra ils
ither to
19 8
Ġweight s
Ġlocal ities
Ġgrat ification
AU GH
parent s
ĠÐ º
chie vous
B oy
E xt
F IG
H im
U nd
j orie
k iss
u ates
on ians
ol ving
ty pe
man if
su perior
ĠRe leased
Ġdec iduous
Ġfr iction
Ġprev ents
atin um
ĠCent er
requ ent
Ġreprodu ction
Ð¾ÑĢÐ ¾
b Ã©
g ium
Ġb ases
Ġc es
Ġg lands
th ank
il ia
Ġha ul
ak istan
oss ibly
Ġra g
Ġadm its
Ġval ves
ĠBe ach
iment ary
Ġ27 9
ustri al
ĠGl adys
Ġstar ving
Ġdeliver ance
fig ures
Ġornament ed
ĠOffic er
Ð» Ñı
ĠÐº Ð¾ÑĢÐ¾
ĠÐºÐ¾ÑĢÐ¾ Ð»Ñı
1 Â½
2 10
2 28
C OM
g rew
Â £
it arian
ll an
Ġn un
ĠL I
Ġar sen
Ġtw ist
Ġcomp onent
Ġte aches
Ġact ively
irl well
ific ent
Ġpay ments
Ġworth less
Ġ26 6
ĠBo er
Ġz inc
pur su
Ġped icels
Ġapost les
FR OM
concer ning
Ġh amm
Ġd ol
ch y
ĠC old
Ġv ows
Ġr andom
op ard
are well
Ġdis advantage
ip pe
Ġcar penter
ib ar
Ġgener a
ern ation
Ġgra pes
break fast
ĠBroad way
Ġunav ailable
Ġimpuls es
e h
it Ã©
Ġin sufficient
ot to
Ġg ear
ve lling
ĠS in
ĠA G
Ġr attle
ĠCh annel
che er
Ġ26 2
Ġvict ories
Ġpassion ately
fav or
Bet ween
Ġrelax ed
Ġrepent ance
Ġbacter ia
2 23
2 24
p read
ow e
Ġde xter
ĠP or
ud er
Ġbr icks
Ġinter cept
rem oved
min ister
Ġoper ated
inn amon
Ġorgan isms
Ġwit hered
Ġspect acles
Ġteach ings
poss ibly
Ġdomin ant
ugg age
Ġrust ic
B i
G al
H OW
b ase
b uds
g ently
r ays
Ġ ix
Ġt ails
Ġa ft
Ġd agger
id an
ĠT op
Ġy olks
ri ped
ĠC OV
Ġsh ines
Ġno cht
Ġcomp artments
Ġpriv ately
Ġ28 7
Ġspot ted
Ġ189 7
ubb ard
Ġincess ant
Ġtelesc ope
p olit
th rew
ĠM ike
ĠH ost
Ġr ansom
ced e
ret ty
Ġchar iot
Ġev ac
Ġsw ollen
Ġ29 0
OT T
ĠJoseph ine
flo at
] ."
re ndered
at ories
on te
Ġf oster
Ġd ing
ion ys
Ġst ony
th ag
Ġsh illing
ud ora
Ġra ven
Ġlet s
Ġac celer
Ġgu ineas
Ġ25 5
Ġdi pped
Ġsimilar ly
inte gr
Ġcampaign s
Ġconfident ial
Ġjun ior
Ġrefres hing
ĠSteven s
á¸ į
2 16
Ġb olt
Ġf iss
ad ier
ĠM aj
ĠC lement
ĠC alendar
Ġor thodox
Ġen acted
de ck
Ġ18 26
ale a
Ġwar med
Ġappro bation
vol ume
.' âĢĶ
Ġcreat es
Ġhot els
IC A
Ġ27 7
Ġmerch andise
Ġobst inate
ĠCorn wall
suffic iently
obed ience
) .âĢĶ
2 27
W omen
Ï ħ
ro be
ĠA MER
Ġher itage
Ġv ices
we eks
cl im
Ġ18 32
ix ture
Ġsur plus
EN N
Ġsecond ly
ĠEd ited
Ġbra ke
ĠCar olyn
Ġpolit icians
Ġcoun cils
Ġ187 6
Ġ188 8
ĠPal estine
dark ness
Ġchuck led
Ġt ires
is i
ro cks
ĠL em
ĠL ily
ĠF ellows
ĠN et
," âĢĶ
Ġim itate
Ġimp ly
Ġinst alled
ĠEx pl
Ġ27 8
Ġmid rib
Ġdam n
ĠSE C
Ġunivers ities
Ġexhib its
ocr ates
Ġwire less
Ġspin ning
ĠHung ary
ĠPhilosop hy
Ġnost rils
ĠBrew ster
l en
Ġex pended
Ġpl aus
Ġimp lements
pr ay
Ġind ol
,âĢĶ "
unt a
ĠIs lam
Ġbur g
Ġcoast s
IG N
Ġrad io
Ġlack ed
necess arily
B S
b ach
f ier
j ourn
n age
ĠS OU
ĠW ORK
sh r
aw ed
att ached
Ġfour teenth
Ġsuccess ors
idd les
ĠX VII
tr ad
cell ency
ĠVol unte
ĠArab ian
ĠThor nton
/ /
S to
Ġb ass
Ġl uminous
im prove
ĠS ullivan
ĠE den
ath s
Ġinte nding
Ġexpl ored
ĠCl oth
ĠMad ison
Ġhom estead
Ġnurs ing
Ġmonarch y
hig hest
Ġcontempor aries
Ġumbre lla
2 14
f il
m ajor
p apers
t ouch
Ġt urt
Ġt ennis
Ġo ct
Ġto morrow
st ore
ĠH ills
Ġex empt
Ġrem edies
Ġspe edy
Ġra pture
was hed
Ġser mons
Ġ28 5
ĠFl ora
Ġconduct ing
Ġmix ing
Ġfert ility
ĠLanc ashire
ĠDet roit
Ġexcurs ion
2 18
i ator
s ic
Ġa us
Ġs ab
Ġl ain
Ġas ylum
ge nd
Ġex asper
Ġover board
ĠV all
Ġ3 20
ves sel
Ã© r
Ġass ented
bed ded
ĠBe ethoven
Ġsight s
dis ci
Ġloc om
sl avery
Ġsav ings
ctr ine
Ġtriumph s
Ġrecover ing
Ġstag gered
V ENT
Ġp iles
as er
ore r
iz er
Ġra ft
Ġbar rels
Ġthy self
ech an
Ġur ban
ĠSchool s
treat ment
ĠArmen ians
ĠEss anay
shad ow
ĠGene va
ju ice
ĠRelig ion
2 19
B ay
p ure
ou ped
Ġc ot
Ġra pt
Ġval id
Ġdef ine
ĠHer od
pri est
Ġrepresent ations
Ġgrass es
Ġrecon c
Cle veland
olds worth
Ġauthent ic
Ġtheat rical
' -
R IST
s atisfied
Ġs ine
ide as
Ġfl attering
Ġdes olation
Ġreg istered
Ġfr ames
AT ED
Ġsol ved
hab its
ĠChe ro
mas ters
Ġflood s
princi pal
Ġprem ature
ĠWind sor
Ġconj unction
Ġpige on
o bey
Ġt ubes
is piece
ĠB AR
est im
ĠF IL
Ġbl uff
sh ape
ĊĠĠĠĠ Ċ
Ġcomp ose
Ġdark ened
king dom
Ġsign als
ĠEx am
Ġsal ute
Ġsn ap
Ġcapt ivity
Ġcaptain s
Ġtechn ologies
Ġpron ounce
Ġsumm its
M o
n ay
t ons
t empt
Ġs per
an ked
ĠF at
Ġr anged
ĠR ange
ak h
Ġdis pleasure
Th or
ĠU s
und y
Ġtre asury
20 4
ĠPh Åĵ
RE F
Ġ25 7
ev ents
Ġinqu iring
ĠSl ave
Ġrev ival
Pe ace
Ġprofound ly
Brit ain
Ġcolle agues
S on
on so
Ġb ung
Ġb askets
Ġd uel
ro pe
ĠS ierra
ĠH ast
ach ments
Ġlong est
Ġsur gery
Ġhouse keeper
20 2
Ġstri ps
Ġperiod ical
urs ed
ĠÃ ī
Ġweak ened
Ġgate way
prot ection
Ġdru gs
x ide
im per
Ġ1 000
ĠP aper
ĠP ICT
ĠN O
Ġsp ed
Ġpre st
Ġco als
Ġve xed
cent re
do ctor
Ġconvers ations
Ġ188 4
dro pped
Ġplat forms
Ġvac ation
Ġfix ing
Ġconcept ions
Ġconfirm ation
Ġattent ive
ĠSic ily
Ġsha fts
2 17
B eyond
Ġm ars
Ġm use
Ġd usky
ter ms
Ġr ushes
out ed
Ġman ip
ry s
Ġpl aster
ars ons
Ġdisc ord
Ġhapp iest
Ġdri ll
Ġtreat ies
Ġ25 4
Ġ26 9
ha ust
Ġjour n
happ ily
heart s
Ġmonth ly
Ġcelebr ation
Ġtrib unal
B illy
v ic
Ġp au
ĠT ang
th ly
ĠH um
ĠL oseis
ĠG ano
ĠE ND
ell s
Ġkn ocking
Ġro ast
ĠTh anks
oss ibility
Ġbu oy
ys on
Ġform ally
20 1
St ar
Ġrespect ful
Ġweak er
supp ly
Ġbi ological
Ġachieve ments
ĠMax well
Ġholid ays
Ġbenevol ent
oblig ed
Ġl ac
th ia
ĠF act
Ġsa fer
ĠD iana
ĠR ights
Ġthem es
Ġpl ank
Ġ18 14
ĠU K
could n
Ġspecific ally
creat ure
ĠAssy rian
ROW N
Ġejac ulated
Ġpuber ulous
b ia
f ilm
in ers
Ġw ield
ic ates
ĠI l
Ġwith al
ĠP ag
ĠP ER
un ivers
nt ario
Ġbefore hand
18 1
ĠUn fortunately
Ġvill a
IT ION
ĠPl ut
dis p
Ġpen insula
Ġhost ility
Ġfro ck
Ġcool ing
ĠBro ck
Ġcommission ers
IST ORY
Ġgrie ved
ĠArmen ia
Ġau ction
nex ion
fat ig
succeed ed
2 12
H oly
M ust
b reat
l od
or thy
as a
ent ieth
Ġsh ifted
ig ers
Ġ19 10
Ġbl est
Ġown s
Ġpri zes
Ġstra ins
Ġ25 8
sur prise
acqu aint
ĠGal ile
orig in
Ġavo iding
liter ature
Ġmourn ful
Ġt ut
at ible
is an
Ġh ound
st ained
ĠT am
il fully
ill ity
Ġsh rank
ĠE uph
Ġup d
Ġad herent
Ġfl attened
Ġhand y
Ġ18 36
pr on
Ġexp and
Ġarri ves
Ġtemper ate
ĠPort land
Ġder ive
Ġid iot
Ġ179 3
Ġdisg usted
Ġplate au
ĠAssoci ate
M ir
Ġb acon
Ġd ensity
Ġg ust
Ġha uled
ĠP all
ĠE ric
Ġab hor
ĠN ine
Ġj elly
Ġsur mounted
Ġinter posed
Ġconv icted
sec urity
Ġaccept able
ĊĠĊĠ ĊĠ
Ġtax ation
ĠJul ius
Ġmerc iful
ĠCab inet
Ġhaw k
J OHN
N elson
Ġo min
it utions
Ġc emetery
Ġd rying
Ġg inger
ir ation
ĠB ir
Ġ2 000
ides pread
arr ative
roy al
Ġattract ions
Ġadmin ister
Ġflo ors
Ġaltern ately
Ġlimit ations
Ġfragr ance
Ġembro idered
Ġrighteous ness
Dor othy
n ovel
s atisfaction
Ġb ays
Ġc arts
ad i
ĠT rent
ĠS ign
Ġst umbled
ĠB oul
ĠG U
Ġsl ice
Ġconf inement
des cr
should ers
sl aves
exp ressed
Ġdemonstr ate
Ġrhy me
liber ty
Ġundist urbed
m ud
s erved
Ġw ins
Ġc ater
al tern
ĠI da
the ning
ĠM ig
ĠM aud
res cent
ĠN IGHT
ass ad
Ġad mon
Ġres ide
me chan
Ġhead ing
Ġspec ulations
min ent
Ġimpro bable
Ġsn ug
Ġreve als
Ġnoble man
Ġsubs istence
ĠTer ritory
E st
N est
n igh
Ġpr one
ia zza
ĠBut ler
Ġrep airs
Ġint imately
19 2
Ġquestion ing
Ġchurch yard
Ġ25 1
Ġthick et
Ġ27 3
ump ing
Ġpan els
Ġ180 8
ĠFort une
prom ised
Ġren owned
incre ased
b igh
e at
t ight
ĠR ice
own ess
Ġam ph
cl amation
ĠK urt
Ġ18 22
alk ing
ivers ary
asion ally
Be aut
Ġcand y
ĠArab ic
ĠSil as
Ġdivers ity
thorough ly
Ġpict ured
Ġp and
ĠF all
Ġout law
Ġun successful
Ġsm ugg
ĠBut ter
Ġ18 46
Ġacc ession
Ġgl ist
Ġdet est
ĠMay o
Ġ27 1
Ġinvol ving
adv anced
Ġmagnific ence
Ġstret ches
Ġsympath ies
anx ious
Ġmonop oly
ĠHop kins
T or
Ġm ax
Ġto ys
Ġp ose
Ġg ases
ĠM ember
ĠM Ã¼
per form
Ġfl aming
Ġcont riv
Ġevery day
Ġcour tyard
new s
Ġ[ âĢĶâĢĶâĢĶ
ĠPh araoh
ĠAd apted
Ġ188 3
ĠLar ge
Ġvap or
Ġtempor al
Ġsuperflu ous
B OOK
w atched
re volution
Ġbe re
Ġre eds
ĠC rit
Ġsh uff
ort ion
Ġind ications
gr ade
ĠPet it
ĠCat al
Ġpatron age
Ġmount ing
Ġpolic ies
respons ible
Ġtomat oes
ĠAlab ama
C oun
re ceive
ĠS CH
art ist
Ġthere to
Ġgl ories
In c
Ġstr icken
Ã© d
Ġed ited
let cher
Ġappl icable
Ġmass acre
ĠBur ke
Ġsched ule
l as
m ers
ac id
Ġcl asp
cy cl
Ġdisc ouraged
Ġconf ided
Ġste er
20 3
ĠPr ayer
ĠCl erk
Ġred emption
Ġ28 8
Ġsqu ares
Ġinj ure
Ġ190 1
ĠTre asury
Ġordin arily
Ġbount y
H ol
Ġ /
ĠS ex
ĠS omerset
ĠF ew
ĠCh am
Ġcons ervation
Ġrep r
Ġple ading
Ġfr ustr
na ud
Ġ28 1
Ġmusic ians
Ġphys ically
Ġelect ions
ĠHay ward
ograp hers
ĠGer ald
Ġfres co
consequ ence
olith ic
D i
E t
H AM
Ġt ug
he um
Ġo ra
ut tle
ĠC otton
ard o
be e
Ġjud icious
ev ident
Ġstat utes
Ġflour ish
Ġtermin ated
creat ures
imag ination
Europe an
Ġsam ple
ĠAff airs
b ush
j ah
re ys
et e
ĠT E
ĠT it
ĠM SS
Ġse ctor
ĠW OR
ĠW OMAN
ĠD ante
Ġdisc reet
ĠInd ex
Ġ28 9
Ġ29 4
Ar gentina
Ġ190 6
Ġflour ished
Ġframe work
Ġobsc urity
Ġcam els
Ġridic ule
H ill
a ise
re put
ĠH old
ĠP eary
be at
19 1
ĠLord ship
part ies
ĠSch m
ĠDan es
rim ony
azz o
Ġsequ ence
sugg ested
ĠCran e
ordin arily
Ġpow dered
a o
h oly
ar is
al ic
Ġg ud
ĠL inn
ĠN etherlands
Ġcan n
Ġsp urs
og ne
Ġind ist
Ġind ict
Ġmin erals
Ġple ases
Ġins ights
Ġ28 4
des ign
ĠPres byter
Ġhabit ual
inst ant
def ence
Ġunlike ly
health y
H ello
g athered
Ġwh arf
Ġwe e
Ġthere upon
Ġ18 20
ĊĊĠĠĠĠĠĠĠĠ ĠĠĠĠĠĠĠĠĠĠĠĠĠĠĠĠ
Ġdra per
Ġcr isp
Ġstand point
Ġsat in
Ġair s
ĠNo ah
ha el
hon est
Ġpill ar
udd le
Ġestim ation
H am
U TH
h aven
s ided
Ġn ick
Ġy arn
Ġwith stand
Ġor ch
Ġspe ars
Ġchar med
ĠMar ines
Ġ25 2
26 0
ĠHar per
Al so
Ġfrequ ency
Ġ187 9
Ġpack ing
Ġarr anging
ĠHel m
ĠHel ena
Ġstrateg ic
Ġpartners hip
Cong ress
A w
E p
Ġb og
Ġm ills
ch us
ĠS oult
Ġ1 Â½
Ġsc rat
Ġsm oot
Ġ18 24
ĠPl at
Un ion
ĠEm ma
ien ne
ĠEvery body
Ġdecor ative
Ġparticip ation
feel ings
ĠIr ving
Ġbesie ged
ĠGoo gle
F ull
v id
Ġd orm
Ġl ag
ill ie
ac ion
Ġher mit
ĠP ike
ĠO d
Ġappe aling
ense e
AL D
24 9
Ġ26 1
Ġintrodu cing
Ġwear iness
comp osed
cal cul
ĠConstant ine
Ġsanct uary
Ġflex ible
Ġanalog ous
P O
h r
p ounds
y rs
â ħ
Ġm ism
le v
al ine
Ġre cept
ul ity
Ġr ouse
Ġr ug
ĠO w
Ġli b
ĠIt alians
ĠIn s
ener gy
Ġins criptions
Ġcr ushing
Ġexpl icit
val uable
iar ies
24 7
Ġ189 1
Ġmaid ens
tri umph
ĠWeb ster
Ġsod ium
Ġthe rapy
Ġfor given
Ġsh an
ant ime
Ġri vals
arn ed
Ġune asiness
Ġball ad
sw ald
Ġov oid
Ġprecip itate
Ġtempor arily
C y
U k
X I
v iron
in vol
it ched
or g
es ota
ĠH usband
to e
ĠR ut
Ġsub marine
Ġmet res
CH AP
Ġ28 3
ĠBar ney
Ġ29 1
22 1
Ġdemand ing
sec ure
Ġsand stone
Ġbab e
ref used
Ġterrit ories
Ġaccord ed
Ġeman cipation
Ġphil anthrop
M O
Ġin mates
ay ette
and in
ren n
Ġcur ves
ĠCom edies
Ġconc ur
24 5
Ġclass ification
Ġbes ee
Ġcrim inals
Ġsurv iv
Bel gium
spirit ual
ATH ER
Ġlabou rer
Ê¼ s
Ġimagin ative
ĠMerc ury
ĠDevelop ment
F r
f us
f rey
l is
Ġp anting
st al
Ġst ocks
ex hib
Ġfur row
23 3
23 7
Ġprofession als
hon our
class es
Ġdecor ations
fif teen
Ġrat io
ĠCommission er
tole my
Ġalph abet
ĠViv ian
A Z
B a
j ack
m os
r h
Ġre pt
ĠS of
il ted
Ġex pelled
el er
ĠF IRST
ĠG ibraltar
Ġout set
be k
Ġfl atter
Ġra ll
Ġap othe
Ġem ail
Ġsur f
Ġsw am
Ġste ed
Ġ29 7
ĠTr ust
Ġhill side
Ġfit ness
ĠBro oke
build ings
Ġamuse ments
sold ier
danger ous
Ġbrisk ly
l obed
se ek
Ġwh ims
ul c
res ults
Ġcl ing
Ġsc are
Ġreg ulate
AN N
ĠLe o
23 5
Ġ25 9
ls ie
Ġnotice able
Ġreve rent
vis ions
ĠVal ent
Ġhosp itable
Ġbi ography
ĠMah omet
Ġadjust ed
Ġvoc al
ĠDirect ors
Ġpreval ent
l abor
ar re
Ġl ass
il ion
ĠP as
ĠP asha
Ġr h
ĠD est
Ġal ign
ag r
ip sy
Ġres urrection
Ġsl id
ret ches
Ġind is
Ġint u
cri bes
ĠMar l
ĠFor ce
Ġspir ited
Ġtreat s
cle an
Ġtrust ing
Ġdi ary
Ġ189 4
follow s
ĠPo ems
Ġcam el
Ġdil igence
ĠSqu ire
Ġdece it
Ġeth ical
Ġtack le
D AY
u ir
v iet
Ġb rom
Ġh ing
ad m
se ed
ĠC ord
ill ian
ĠN ep
Ġpass ive
cons in
hand some
Ġjour neys
Ġ189 2
among st
Ġstick ing
Ã´ le
expl an
Ġsus ceptible
Ġsulphur ic
Ġwhisk y
, {
6 00
S el
m ult
Ġm im
Ġp udding
Ġl inger
al ign
Ġam ateur
li o
Ġdel ir
ĠInd ependence
Ġstra it
Ġthick ened
Ġbroad ly
Ġgall op
Ġfirm ness
Ġempt ied
ĠConn ie
Ġchlor ine
Ġbapt ized
ĠAssy ria
Ġmater ially
Ġfut ile
Ġpersever ance
Ġconscient ious
. âĢ¦
M onday
R og
er d
Ġd inners
Ġl oneliness
ĠM Y
Ġch ina
ĠJ amaica
Ġun reasonable
Ġdis appearance
Ġpre text
Ġdown wards
con tained
Ġfr antic
Ġround s
Ġdev oid
Ġconv oy
Ġii ij
Ġdam ages
vis ited
find ing
Ġveter an
Ġoy sters
ĠLiter ature
ĠM ON
Ġde mean
ĠG ertrude
Ġthere after
Ġcl ue
act us
Ġunder gone
Ġconf idently
Ġche ers
Ġord ained
Ġpot ato
Ġseason ed
ĠGl en
Ġod or
Ġfer ment
offic ial
Ġdrift ing
ĠVers ailles
Ġmirac ulous
P AGE
d ism
l aughed
m are
v ine
Ġt out
is ers
Ġd ors
ĠM orning
all ows
Ġtr ay
ĠCh ick
ĠDe cl
Ġlower ing
Ġx v
Ġviol in
Ġ187 7
sur rounded
interest s
Ġwicked ness
Ġfasc ination
f an
as eless
ve get
ĠP in
Ġsa ith
ĠD ub
ick le
ild e
ph ony
Ġgl immer
ĠCom mod
bo ards
ĠAg atha
good s
Ġ190 3
ĠMin istry
UN T
Ġstead fast
ĠPol ice
Ġadvers ary
Ġstren uous
D em
p ipe
t ures
w is
Ä ĵ
Ġth o
ĠT ax
Ġst ing
ĠJ our
Ġpe ered
Ġgood ly
Ġ8 00
Ġdra wer
Ġche ering
Ġhero ine
Ġmut ton
Ġexped itions
Ġmas culine
Ġobst in
Ġsculpt or
Ġembro ider
ĠCelt ic
P oland
it utes
ic ke
Ġg ene
ĠI owa
ĠB ody
Ġha ue
ĠL ombard
ĠD ol
Ġch um
Ġag greg
Ġwhere of
Ġhome ly
Ġcor ro
Ġ28 2
ĠGl asgow
Ġstar ve
Ġ188 7
Ġimmense ly
direct ly
Ġvii j
N obody
P RO
d ia
g ained
l ied
ou g
ar o
Ġe ch
Ġre forms
ĠB enedict
ĠH at
ĠH erman
qu it
ĠD aughter
Ġpre l
let te
Ġmed itation
Ġpop ulace
Ġ30 6
Ġyield s
Se a
Ġtum bled
Ġbud get
Ġimmort ality
Ġcontrad iction
ĠConfed er
ĠChris topher
ĠAust in
A TER
Ġa ye
Ġl id
st ories
ate red
ĠF isher
ĠR eturn
Ġab ound
Ġbr ushed
ang ling
Ġint ently
Ġche ered
CH AR
ĠChar ley
Ġemploy ers
Ġoccup ants
des ired
Åĵ uv
Ġalarm ing
Ġmerc ury
ĠBuck ingham
crow d
ĠFif th
Ġrip ening
F riday
P en
Ġc rem
Ġd ive
ĠP ay
Ġne cks
Ġsupp lying
ins ic
Ġhard est
Ch ief
Ġ20 17
AL S
Ġcast les
Ġver b
Ġ190 2
ste ady
Ġge ological
Ġpenet rating
Ġharmon ious
ĠBeaut y
: //
Ġin aug
ĠC zar
ĠB ond
Ġman ure
Ġdis closed
sh ows
Ġhum ane
wor ship
Ġline ar
OM AS
occ ur
asc us
Ġmort ar
jud ge
Ġcontract s
organ ized
Ġremn ant
absolute ly
introdu ced
ĠBland y
A sh
D R
F ire
O p
at ri
Ġcomp aring
Ġ18 59
me at
Ġkind led
ĠAs iatic
Ġtru ck
Ġlo ath
Ġfresh ness
Ġ187 4
Ġ189 9
Ġadvantage ous
jud gment
Ġconsist ency
Ġsem ic
sight ed
Ġpir ate
Charl otte
Ġcircum ference
Ġindirect ly
! !
H ugh
N ight
S i
Â Ń
Ġg ib
are l
ĠTh ank
ĠV ernon
Ġev idences
Ġcontin uance
ĠSh ow
23 4
So cial
EL S
cont ent
Ġdeliver ing
ĠFair y
ĠPen insula
Ġcomprehens ion
ĠSpr ings
ĠT un
os y
pl anted
Ġ18 17
med ic
row ing
Ġem inently
Ġste alth
ĠFrench men
Ġeng ross
23 8
ĠHar vard
ĠBrown e
Ex ternal
ĠDen bigh
Ġblock ade
Ġbat hed
ĠGirl s
Ġthri lled
A cc
B ot
H ot
K itty
W AY
Ġt ints
Ġf iend
âĢ Ľ
se pt
il us
ĠB irds
Ġcon e
ĠP ir
ĠL ist
ĠD um
iv en
out ing
ne eded
Ġim b
Ġimp ose
Ġsl ide
Ġem inence
Ġboy ish
eb ly
cont rary
Ġ29 2
Ġ186 6
Ġthreat en
ĠLu ci
ĠTH AT
Ġcoach man
Ġembra cing
occasion ally
Ġmole cules
Ġafore said
ĠEug ene
ĠJeh ovah
Ġdistur bing
Ġth air
ĠI L
Ġfor wards
ĠS iber
ĠC and
Ġout door
Ġtw igs
end s
Ġem blem
Ġsupp ress
su gar
pr oud
Ġgra ces
23 6
Ġsal uted
ĠNot es
Ġge omet
Ġcalcul ations
Ġleis urely
Ġreprodu ced
pse ud
Portug al
Ġm eth
an za
Ġd otted
ĠH ul
Ġshe pherds
Ġun limited
iz zy
Ġapp alling
Ġatt ire
Ġatt entions
Ġcar avan
oc rat
Ġ27 2
Ġfast en
ha i
ĠEs sex
Ġga ily
num bers
Ġincons istent
Lew is
Ġjourn als
assad ors
in el
or ated
Ġl uggage
ĠS HE
ĠA u
il ib
ĠD uck
ap olis
ĠJ en
ack ing
Ġen abling
Ġcent res
sc apes
EN ERAL
Ġmark ing
ster dam
cent er
Ġ187 5
Ġcow boy
Ġens ures
ĠGo ethe
Ġprecaut ions
Var iant
ĠChron icle
C ity
c od
i y
Ġb achelor
Ġy on
Ġas cetic
Ġsh ivering
Ġsp an
ĠV ed
ey lon
Ġ20 22
25 8
Ġ28 6
Ġ29 5
umb ent
AS E
ĊĊĠĠĠĠĠĠĠĠĠĠĠĠ ĠĠĠ
Ġpeculiar ity
imp ression
Ġunf air
Ġenthus iast
Ġho ary
Ġmanufacture r
Ġbarbar ians
ĠWin chester
prison ers
Ġfri vol
ĠAld ous
Ġdiscont ent
extra ordinary
ĠLor raine
Ġpamph let
Ġstruct ural
L ake
k w
Ġh ush
Ġin adequate
Ġis olation
ĠS K
ra ft
ĠB and
ist ant
ĠL uck
ĠF ri
Ġcl os
Ġbl ushed
sh aw
Ġthr ice
Ġjust ification
ub rey
Ġext racted
25 9
Ġbound less
Ġfruit ful
ĠST R
Ġexceed ed
Ġabund antly
Ġalt itude
Child ren
D ur
F UL
R us
i pel
p oses
Ġh ides
et a
ĠD iam
ag reed
Th ird
Ġmod ifications
ĠPer ry
Ġpubl isher
Ġcat alogue
anim ity
Ġwheel ed
ĠStud y
fif th
talk ing
Ġammon ia
ĠGE ORGE
' ;
T ow
or i
ll is
Ġwor ms
Ġsp aring
Ġneed less
Ġorder ing
Ġdeal er
Ġdread fully
Ġaccident ally
writ ers
lest on
Ġautom atic
Ġreluct antly
anz ibar
C ro
Ġin ference
Ġl ang
ra im
ĠN ik
Ġ( âĢľ
Ġcomp artment
Ġrem inisc
Ġra iny
Ġ18 39
Ġrel inqu
Ġvar iable
25 6
ium s
Ġincre asingly
ĠCan al
Ġhabit ation
Ġsin ister
Ġ190 5
ĠLuc illa
ĠCare y
2 11
o be
Ġf ract
le gged
Ġwe ed
ĠG ates
Ġ18 47
Ġsur passed
con taining
uss ians
Ġreal ization
Ġtrans cend
Ġrespect fully
Ġve iled
:âĢĶ "
hold er
Ġcurrent ly
Ġmood s
Ġnois eless
E s
H ear
Ġa h
ut a
25 4
Ġbes et
Ġden ial
Ġdur able
Ġencl osure
Ġawaken ing
Ġais le
ĠHamp shire
K ent
S P
b ay
l t
Ġth rive
ly ph
ĠC ort
ĠH umph
Ġsh abby
Ġor phan
ons hire
ĠSt aff
Ġrel ish
ub a
Ġcap abilities
Ġenc ir
urb ation
Ġdem ol
circ le
Ġpretend ing
Ġt an
ir able
ĠB ureau
ise ly
Ġrel ied
app o
ĠFor bes
Ġlo ads
Ġunderstand s
24 3
Al most
Al geria
Ġmad emoiselle
ĠST ORY
ĠParliament ary
ĠMat ilda
Ġpul p
Ġib id
ĠAngel a
Ġapprent ices
d ram
s urely
Ġc ance
Ġp ans
Ġd ar
Ġn im
ig ently
Ġj et
Ġins ure
no v
ĠSe bast
RE AM
27 0
ĠSw an
ĠBab y
Ġengage ments
Ġperf ume
ĠEli ot
ĠCair o
Ġerrone ous
Â ¾
Ġo be
ad venture
ĠS id
ĠA rizona
ra ved
ĠH EN
Ġsh ady
Ġr uth
ud ic
be it
cl ay
bl ank
ian e
Ġunder go
Ġsub urb
Ġbo asted
Ġlove liness
Ġcent ers
ĠLe igh
cle arly
28 0
Ġ29 8
Ġcommit ment
mill an
Ġprofess ors
Ġinconven ience
sted t
Ġspont aneous
Ġment ally
F lor
h osp
as ide
ce ased
ĠT oul
Ġan on
ven ant
ĠK ING
end om
Ġend ow
vers es
Ġwar mer
Ġhel met
25 5
ĠBy z
pre par
Ġ29 3
Ġfamiliar ity
dr ink
Ġconquer or
ĠMarc us
destroy ed
H and
O ffic
Ġc aval
id ian
ĠC au
oo ke
Ġ3 60
Ġdist racted
ĠRe ward
ĠPro gress
ĠAll an
Ġdisp utes
Ġ30 1
Ġign ore
Ġ188 5
mond s
Ex it
Ġanticip ation
Ġsore ly
Ġirrit ation
Rev iew
ĠCraw ford
ĠPly mouth
G ordon
H ush
w atching
es se
Ġher ald
ĠJ ob
ĠAr c
Ġtrans mission
Ġprop osals
25 7
23 2
AM IL
22 2
char acters
Ġstar ved
Ġsmooth ly
Ġmal icious
Ġinval uable
Ġbenevol ence
Ġmoder ately
ĠBeng al
G eor
Ġw idespread
Ġp ins
Ġg iants
et ers
ĠS it
Ġst ump
ĠP iet
âĢĻ .
ĠD addy
au er
me g
Ġrel ic
Ġexp anse
br inging
bed s
stand s
24 6
Ġindividual ity
lar ger
Ġsubs id
ĠPur cell
Ġstam mered
Ġdisgu ised
Ġprosec ution
ĠFlem ish
Ġtex ts
g rey
Ġb ureau
ou cester
Ġl ining
ĠM oss
ĠL ay
ĠL ux
Ġra p
Ġrel ent
Ġret ro
Ġret ail
Ġcol ossal
Ġche aper
peri ence
ĠEx cellency
count y
Ġgrace fully
ĠPur itan
ĠBas il
Ġsob bing
Ġrestrict ions
appl ied
ĠPhill ips
access ible
B RE
o en
s li
Ġd ame
Ġan e
Ġch ased
ĠR oland
Ġwant on
ĠRe gin
ĠCor a
Ġclear ness
Ġbar red
Ġhost ilities
Ġpred ict
Ġunl ucky
ĠHou ston
p ainted
Ġb owing
Ġh inted
Ġd ice
Ġst ables
em m
ell i
Ġout let
Ġag gra
Ġ18 57
aw ing
row en
read er
Ġval our
Ġhair y
Mar ie
Mar garet
Ġcomfort ed
Ġpot tery
Ġnerv ously
ĠMag dal
Ġabsor ption
oubt less
ĠDur ham
IEL D
B ern
f led
am o
ĠM agg
ĠH app
Ġor chestra
ĠR ing
Ġun sc
Ġdis k
Ġcont ra
Ã© rie
Ġconf isc
24 8
Ġmis chievous
Ġpop ulations
ĠDr um
gl ance
Ġpolit ician
ĠCam eron
pat ri
intell igence
incre ase
Ġfib re
Ġwholes ale
Ġwhist ling
strugg le
I ran
J l
h il
m ac
ic ero
ut ant
Ġha ck
ist ical
ĠL os
Ġr ascal
Ġab normal
Ġout burst
ĠSt ars
ces e
Ġwater ing
Ġeffect ual
ĠPr ay
Ġdri pping
ĠAd ela
Ġpost ure
Ġ29 6
Ġble nded
ĠHy acinth
Ġpuzz le
suff ered
ĠKenn eth
tor ney
Ġillumin ated
Ġhumil iation
Virgin ia
H istor
P ublic
S erv
S outhern
S ylvia
t aught
en il
es cent
Ġto wering
Ġse als
ab l
ous seau
ĠL an
ĠD R
Ġal oof
bl ock
ign on
wor se
ES C
Ġ20 16
ĠPr ime
ĠSh akspe
Ġglad ness
Ġpure st
ĠSu perior
Ġsorrow ful
ĠRock y
Ġfran ch
Ġsurvey ed
ĠAsh ton
Ġpropriet ors
Ġexhaust ion
Ġresear chers
atern ity
Ã¦st hetic
S pir
it ching
ĠT utt
ĠThe ory
ĠP ath
un known
um ably
em p
ĠG arrick
Ġ19 11
Ġbl amed
sh are
Ġcomp ositions
Ġcar ing
con qu
Ġext ensively
ĠAl ready
Ġbed side
ĠDav en
Ġstro de
Ġbrill iancy
Ġgent leness
walk ing
splend id
lear ning
imps es
R ock
Ġs ire
ĠT IM
Ġde y
ĠP oll
ĠL ubin
Ġbut ler
Ġen ric
ves sels
fl owered
Ġgu er
Ġdec rees
Ġ20 25
ster ious
Ġhope lessly
ĠMad onna
occ urred
Ġestablish ments
Ġcarbon ic
Ġsway ed
Lin coln
. âĢķ
H ay
V iolet
b ark
t ower
w ixt
Ġw ipe
or ations
Ġg ait
Ġst ool
ĠC ertain
Ġout look
ang les
ret s
Ġgra pe
ĠGr oup
ĠPhil ippines
Ġconcl uding
Ġdefe nding
ID GE
Ġrespons ibilities
ĠTra il
ĠMo ors
neighb our
ĠRif les
ĠSund ays
H o
a que
g ather
Ġm old
om o
ĠS ep
ĠB rig
ĠP sych
Ġex it
ort ment
ĠJ enny
Ġcl ick
Ġbr ink
ex claimed
Ġbre asts
Ġgover ning
Ġtechn ique
Ġendeav ouring
ĠJul es
burn ing
Ġprecip ice
Ġperple xed
Wil son
fal se
Ġtheore tical
T W
V is
a ust
d ogs
m ence
p icious
Ġf ried
or an
ĠS ah
ĠM ong
Ġsh am
Ġv j
Ġman e
ĠO wn
Ġun rest
Ġen com
de a
Ġspe lling
Ġday break
AR S
ĠCol onial
Ġav owed
Ġconv ictions
supp orted
Ġfright en
OUN G
ĠHard y
ĠJon athan
Ġaccus ation
ogene ous
W at
e ys
h urt
w and
Ġt ense
ĠA M
ard e
ig rant
ĠD udley
ind ul
Ġser rate
Ġref lex
Ġdep uty
sc ale
Ġmet ropolis
Ġmag ical
ĠAfter wards
Com pany
Ġod ious
Ġinstruct ive
ĠSpe aker
ĠHart ley
ĠLiber al
ĠQue bec
E ver
] âĢĶ
s ought
s cientific
Ġ ÏĦ
ĠT ol
ĠS aw
ĠM ix
pe pper
Ġsu ite
ĠO ntario
au ce
Ġgr ouped
Ġdisc ourage
Ġconst ernation
bre ast
Ġpath os
Ġbal cony
Ġfond ly
box es
Ġrecollect ions
Ġpolite ly
ĠPom pe
Ġquer ied
C arl
s ad
s erve
ic on
Ġre wards
ĠB it
Ġbl ocked
Ġ18 44
oc al
Ġcap itals
Ġfin ance
Ġpar aly
Ġoffic ially
ĠEx changes
Is aac
sw ord
Ġgar b
Ġmanifest ations
Ġmart ial
Ġiniti ative
F el
L ater
p henomen
y ng
Ġ ĊĊĉĉ
it ates
Ġh ues
Ġh ousing
ir ms
Ġan hydride
ĠH aven
ine re
ep pe
Ġtime ly
Ġfl ing
ĠCh al
Ġcar b
cri bing
Ġdep ress
Ġfa Ã§ade
str anger
bur ied
lo aded
Ġfurn ishes
inc inn
Ġ188 9
ĠCourt in
Ġterm ination
effect s
Ġemph atically
Ġvolunte er
Ġcertific ate
Ġreconc iled
N EY
R u
f itting
Ġthe olog
ro es
Ġall otted
ĠG ren
ĠTh ousand
Ġfl attered
Ġbl asp
ĠSt ay
Ġact ress
une ate
Ġprof usion
Ġpal er
Ġliter al
Ġregular ity
Ġvan qu
Ġissu ing
ĠLaw s
ĠMil ford
Ġaware ness
Ġpil grims
Ġov ary
Ġhed ges
ĠIsaac son
ĠBrad ley
struct ure
M id
S ol
n ia
Ġb ait
en able
Ġm oust
Ġd uc
se ated
ro lling
Ġfor d
Ġnot ices
Ġcon nexion
wh ilst
Ġbl u
Ġspe ck
pro posed
Ġste ered
Ġcontin uously
ĠSe ym
Ġpublic ations
Ġ30 5
Ġforward ed
Ġsn iff
Ġtend ing
ĠSu ccess
OW ER
chief ly
pers u
Ġtur key
ĠPap a
Ġwagg on
Ġsecre cy
D ou
P oint
U CK
f ires
or ical
Ġn oses
Ġab used
te eth
Ġad verse
oy le
Ġsc re
Ġdon key
Ġ17 89
arn ished
ĠCl ose
Ġver itable
requ ire
Ġpoison ous
Ġenh anced
Ġincorpor ated
I O
R ane
S car
g ical
m itt
ar in
Ġin ve
ch osen
ĠW atch
ĠD AY
ove ls
Ġ18 23
Ġass umes
Ġinv aders
Ġdec ades
ĠX IX
Ġquick er
acher s
Ġoccur ring
Re ally
Ġtemper atures
jo in
sk irts
Ġimper ative
Ġgest ures
Ġabol ished
Ġpest il
d oc
e rect
s outhern
t ur
ad t
am ations
ĠA by
ĠH ubbard
Ġgr inding
Ġper ceiving
ull ing
Ġcond es
Ġmer rily
24 4
Ġlady ship
Ġcamp ed
Ġpolit eness
sy che
RO SS
SE C
bran ch
Ġcord ially
; '
W ILL
f o
l ounds
Ġc ape
the d
ĠM ine
ĠM ath
ĠC over
Ġan thers
res den
ĠP ione
Ġk it
ĠE sp
ness es
ĠU ntil
rest rial
Ġter gum
Ġcap ric
Ġconst ell
ĠAb d
Be hold
Ġaut o
Ġpubl ishing
Le on
John son
organ ization
Ġlap se
lab our
Tw enty
Ġfow ls
ĠVolta ire
i ress
j ug
r ush
t al
at ism
ed ges
Ġp oultry
Ġe pid
ĠB ac
ess ile
ĠJ ap
ĠN ations
ag re
ect ing
Ġar ched
bl ow
ick ory
Ġbl under
con vention
ĠMar ne
br ick
pro c
ric ane
Ġsign ify
Ġdiv inity
part ly
ĠOr monde
Ġshel ves
state ment
appro ach
exam ination
Ġast rol
Ġconcept s
Ġchamp ions
ĠAlb any
Ġinterpre ter
ĠChamber lain
elect ric
ĠCOV ID
G U
b old
p ox
ĠC ore
Ġso bre
Ġwill s
Ġpart icle
Ġsc ur
Ġtrans mit
Ġsuccess es
oura bly
23 1
ĠGr ad
ev ille
ĠAm bro
OL OG
rop olitan
Ġappre hended
ĠEven ing
Ġassured ly
ĠCre we
Em peror
Ġowners hip
Ġmanuscript s
Ġdecre ase
ĠMR S
A ut
B ased
m ut
m ant
Ġa ve
Ġs ar
ar ius
Ġp el
Ġd ating
ĠA w
Ġyou ths
us il
ant ile
Ġinc urred
then ed
Ġguard ians
Ġaccompl ishment
Ġhesit ating
expl ained
Ġtort ured
ĠSand y
Ġretain ing
Ġreluct ance
ĠApoll o
C a
e astern
m amma
Ġt res
Ġhe ns
Ġbe ats
ot us
Ġan ts
ĠP ittsburgh
ĠN ash
Ġpl atinum
og lyph
Ġdes iring
Ġra ises
erv ous
ex ington
Ġass ailed
Ġdec ade
Ġdeal ers
Ġcourt iers
Ġbill ion
ĊĊĠĠĠĠĠĠ ĊĊĠĠĠĠĠĠĠĠ
Ġcool ness
da ily
disc over
Ġappropri ated
fig ured
Ġlou ng
X II
b att
t ide
Ġb attered
Ġb ombard
Ġm att
ĠC HE
Ġde gradation
ĠF ry
art icles
Ġup roar
Ġnat ures
Ġstr ongh
Ġspec ified
Ġdr own
che st
Ġpract iced
bo iled
cell s
Ġsound ing
Ġnarrow ly
Ġsubst ituted
ĠFran z
Ġfro g
Ġid leness
ĠSim ilar
Ġstim ulus
fles h
Ġnit rogen
Ġextravag ance
Ġcrystall ine
Ġprow ess
Ġatom ic
c ary
f reedom
m ens
st ated
id ency
qu i
Ġex alt
ĠG un
ĠR aj
ag ar
Ġwhere fore
Ġ18 28
Ġ18 49
Ġinter rog
Ġgu iding
ĠAl enÃ§on
Ġopen ings
Ġ20 23
An thony
24 1
dis covery
Ġwatch ful
Ġscar city
Ġund es
ĠMc Glory
ste am
ĠEn ter
close ly
ĠMo z
Ġga unt
prot ected
quiet ly
Ġscr atch
Austr alia
Ġunmistak able
cun iary
B ull
G race
N OW
N etherlands
m ally
Ġf ade
es is
Ġre versed
ĠS ed
ĠG L
Ġj ars
Ġdis liked
Ġres orted
Ġrec ruit
br on
Ġbus ily
Ġcapt ives
ĠGrand ma
Ġstro lled
Ġsubs ided
Ġretreat ing
Ġinvent ions
ĠKe ith
Ġrecon ciliation
ĠLook ing
Ġdelic ately
ĠMun ich
Dan iel
ĠCHAR LES
Ġpilgrim age
oren zo
c am
i bles
t ired
Ġwe aken
ĠM ann
ĠB uchanan
ĠF E
ĠF est
ĠR an
op hy
cl ouds
Ġper ched
ĠSt ella
Ġsl oping
He ad
Ġind escri
ĠMar jorie
Ġill ust
Ġcoll abor
St range
Ġdisp uted
Ġintellig ible
Ġstar vation
Ġrad ii
Ġuseful ness
Ġpatri arch
intend ent
educ ated
ĠAnge lo
Ġpoo rer
ĠSeym our
J acob
Ġp ub
as ants
om ination
Ġn asty
res olution
ĠW ait
iv ation
pl icity
Ġcomp osure
Ġgl aring
Ġear then
Ġco ating
ĠMar ches
Ch inese
Ġir rig
ĠZ ukor
Ġtest ify
Ġgrat ify
Ġflour ishing
ĠJim my
ĠDes ign
Ġsport ing
ĠTim othy
Ġirregular ly
ĠOtt oman
ĠProp het
Ġbamb oo
Ġmism o
B ert
H IS
f und
ĠC ir
ĠB omb
Ġde cks
Ġso bs
ment ion
Ġcl enched
Ġdes criptive
Ġcomp ly
air n
com er
Ġspeak ers
IS C
Ġjud gments
Ġ30 4
Ġwit ches
amm ing
Ġge ese
Ġreign s
ser ies
abs or
Cr own
Ġech oes
R uth
d uties
Ġd ye
Ġhe irs
ch ap
est ry
ĠF ace
Ġri v
Ġ18 16
Ġpower less
Ġinf ernal
Ġplan es
Ġ30 9
ĠOr ders
iqu ette
Ġvirt ually
ĠCons ervation
Ġpersu asion
Ġpatri ot
Ġancest or
Ġaffl iction
Ġreluct ant
Ġhem isp
rapid ly
D un
N H
P S
b ri
f ailed
l u
l ap
Ġ ##
at tended
en et
ing en
Ġp uls
ĠT ales
th ood
Ġnot icing
ĠH OW
ac res
ĠG overn
ace a
ru ck
Ġimp ossibility
ins ide
Ġmod eration
ĠPh oto
Ġmain land
Ġgrad uated
Ġcollect or
Ġfever ish
ĠJean ne
Ġselect ing
recogn ized
Ġmater nal
Ġenterpr ises
B ring
a iah
o cious
p our
st oun
ve ller
ab ad
ĠF urn
ĠE qu
Ġab yss
Ġfl es
Ġhow ling
ĠY pres
Ġ18 13
fl ow
Ġmin ers
ĠJohn ston
Ġnecess aries
ĠBr as
par able
Ġru by
oved ay
ĠEl mer
Ġemb odied
Ġenc amp
Ġutter ing
Ġ188 6
Ġdem ons
Ġforb ade
Par liament
Ġwaist coat
ĠBa iley
Ġmulti plied
Ġcogn itive
c ool
is n
Ġst akes
Ġv ass
pp ings
em n
ther ly
Ġpl ump
ĠIn to
sh a
Ġreg ained
ĠAl ong
.) .âĢĶ
Ġfrequ ented
Ġsn akes
Ġune ven
Ġgall antry
Ġsovereign s
Ġconceal ment
Ã©n Ã©
: [
K n
W it
W ind
X L
c ounter
h ide
j i
Ġn uns
ĠC od
Ġnot hin
Ġsh ipped
ĠR osa
Ġtw in
Ġro oted
so il
ĠCh art
Ġ3 13
Ġwell s
Ġhead long
ĠAr naud
ĠCor k
Ġbar riers
Ġdevelop ments
Ġvast ly
Ġrub bish
sent iment
Ġreview s
Ġdiff ering
oper ations
smo oth
ilib rium
A rab
B as
Ġ 00
at ine
or o
Ġg ret
ĠT ig
if iable
Ġha ze
em otion
ĠN ord
per ors
up s
Ġadd itions
Ġprop ositions
Ġsign ifies
Ġsol icit
Ġleg acy
Ġhar b
Ġcost umes
Ġcapt iv
const ruction
ca uses
ĠRes erve
sil ent
Ġacknowled gment
Ġfest ivals
ĠInt ell
Ġdeleg ates
Ġnucle us
s pl
Ġm igr
ro ot
ĠT roy
Ġse ren
Ġr anging
ĠD oc
Ġman agers
ish able
ne ur
Ġfl uttering
sp eth
Ġfr owned
Ġinf amous
Ġ30 2
Ġ186 8
ĠAp pe
Ġdefend ers
Ġga iety
Ġminor ity
Ġbot an
openh agen
B orn
R est
T ay
e ared
z el
Ġ ..
in her
Ġw ither
al ow
Ġhe al
Ġwas ting
ĠS ide
ĠA f
ĠA ber
ĠF ac
ĠE mer
Ġra ck
over ty
ĠCon sequently
co ach
ĠParis ian
Ġcolour ing
Ġstates men
Ġrele vant
effect ive
Ġdimin ish
Ġard our
exc itement
Ġneut rality
Ġther m
Wal ter
ĠClif ton
ĠCad iz
Ġm ah
ĠC ry
ĠP ra
ĠP em
um bered
ought on
Ġrem onst
ĠRe ed
Ġpres umed
Ġann als
Ġmaster y
Ġund e
ĠBar rington
ĠPer u
ov able
cil ess
Ġcomb ining
gen ius
present ly
acc ident
Ġindepend ently
Ġspect ator
Ġcontro lling
Ġadvert isement
emb ark
ĠCart wright
C ard
H ab
c alling
l oyal
ing ale
Ġl ash
Ġl oop
Ġre ed
ĠT an
ĠL ope
ĠN ame
Ġgl ided
In stead
ĠCom te
Ġfal tered
Pr otest
ĠAp pendix
Ġoath s
Ġton ight
ĠAcc ount
Ġecst asy
Ġcongen ial
F ree
f ingers
Î º
Ġ ĊĠĠĠĠ
Ġh og
ĠS W
Ġsh owers
ĠP is
to s
ĠL L
itt ance
Ġdis mounted
ĠWe ek
Ġland lady
Ġhum ans
tern ally
Ġdecl ining
gl ob
ĠÂ ¾
sm oke
Ġenc ro
Ġcomb ust
Ġbank er
Ġreve aling
Ġsolemn ity
Ġnod ding
Ġconsult ing
ĠAng l
ĠBu ilding
ĠInt roduction
âĢĤâĢĤ âĢĤâĢĤ
Ġenl isted
Ġmars hes
B all
D utch
G overnor
s wer
re ply
Ġf ences
st ring
ĠT aking
Ġst ays
ĠB ah
ab a
ab lo
Ġr Ã´le
Ġthere on
Ġad ored
Ġpr inter
Ġfl anks
ĠK it
iss a
ph ot
app ointment
Ġdep rive
ĠDe b
Ġblack smith
Ġbir ch
Ġcru elly
ĠJes uits
Ġperpet ually
ĠPut nam
Ġcha os
establish ment
Scot land
Ġindict ment
D et
f y
Ġs ane
Ġs essions
le te
Ġl ashed
ĠT ob
ĠC u
to pped
ĠG ould
Ġli ly
be am
Ġover looking
sh owing
vel t
Ġgener ated
Ġco ax
ĠCor on
gu ards
ik h
ĠSte el
Ġtax ed
ĠIm mediately
ĠSal is
Ġbay onet
Ġinterfe red
Ġinsult ed
ĠThom son
ĠWhe never
appre ci
Ġpige ons
Ġextingu ished
Ġpeb bles
Ġaspir ations
Ġshri ek
Ġplaus ible
h ical
l ation
Ì Ħ
Ġor al
ag les
Ġsp ies
Ġ3 10
Ġcr ater
Ġfort ifications
Ġemploy ing
Ġprev ails
ĠWar wick
Ġcab bage
Ġz ero
ĠMont gomery
Ġpit cher
Gold en
suff er
Ġwitch craft
ĠFro ebel
Ġfug itives
uis ance
ĠRow land
Ġpercent age
symp athy
igen ous
rast ructure
Ġmason ry
incinn ati
E mp
O Y
Ġw recked
ou ter
ver age
ĠT ony
and ah
ĠS ent
ĠL av
Ġout put
ĠY outh
Ġcount s
Ġdet ection
Ġce aseless
UR CH
Ġrad iance
Ġsteam ers
pres erved
Ġinfer red
Ġben ches
Ġlit ter
Ġiv y
conn ection
Ġcorpor ation
philosop hy
Step hen
E nt
F in
t ouched
v ast
Ġ .âĢĿ
as i
id ated
ĠS PE
ke es
Ġout lined
Ġj ug
Ġover heard
fe e
ĠV end
und ers
ĠMar riage
ĠAr ms
24 2
Ġvill agers
Be au
Ġden omin
anc a
sell er
Ġsli ppers
Ġdeliber ation
ĠBi bl
Ġchalleng ing
ĠJos h
Ġtranqu illity
ĠGentle men
K S
b rain
Ġw ines
es ch
Ġp ad
ĠC OUNT
ant ial
un ny
Ġr het
ak y
ĠN AT
ass ured
Ġen chant
Ġro gue
Ġ3 15
Ġyear ning
Ġsw itch
Ġadm itting
Ġpres erves
Ġaff irmed
ĠCl aver
Ġequ ator
pre jud
const antly
ĠVill iers
Ġcraw l
Ġsque ez
loc al
Ġglac ier
ĠDup ont
ĠSchm ucke
E le
G all
U ntil
f ty
Ġf ading
Ġd ental
Ġhe aped
ĠW er
um my
Ġdis cl
Ġres iding
Th ursday
Ġ18 58
Ġneed les
Ġste ering
cell aneous
Ġfurn ishing
Ġwear ied
ĠLaw less
Ġshr oud
Look ing
Ġmanifest ation
Cont in
Ġtrim med
Ġanecd ote
ĠIL LU
n us
v iously
he rence
Ġa kin
Ġo rifice
te a
Ġsc outs
Ġ18 43
Ġrec ording
Ġdra ined
Ġsent enced
Ġdiffe red
Ġpast oral
Ġbit ing
ĠEx c
hel m
ĠAm azon
ĠHigh land
gener ation
Ġgrasp ing
object s
Ġaccommod ate
ĠMinn esota
Ġank le
Gentle men
W OOD
g rie
Ġm igration
Ġp ac
Ġor bit
Ġch asm
Ġpl ots
Ġad ore
ĠCh ub
sh oes
end ing
Ġreg ain
Ġph one
Ġair y
ĠHer cules
Ġlab orious
Ġarm or
view s
Ġforeign er
Ġsin ful
Ġpurch asing
Ġcorrespond s
Ġmort als
Ġreven ues
ref lect
Ser geant
Ġtick ets
l Ã©
Ġa ching
Ġa version
th al
Ġr ations
Ġsa pp
ĠD aisy
oll a
Ġfl uct
ĠCh all
Ġhand writing
Ġ18 51
Ġatt ic
att itude
Ġins piring
Ġval iant
Ġdri vers
ĠMy stery
yl er
Ġinflu ential
every where
Ġdoll s
Ġdistinct ions
sw ick
ĠJud y
awn y
oming o
proceed ed
YS TER
Ġpreacher s
Ġfisher man
Ġenvelop ed
brill iant
Ġomin ous
Uk raine
ĠSebast ian
B ir
B urn
E nd
S and
a fe
g ran
m ol
Ġp ang
Ġp ets
ve rest
ĠS ection
ĠS ongs
Ġr itual
Ġno bler
og ged
Ġ18 19
Ġsomet ime
Ġ20 15
pend ous
co in
Ġsleep s
tra ck
Go ing
ĠLis beth
Ġwhist led
ĠMission ary
spir its
Ġoppress ive
Ġbru ised
C A
C ra
I LE
S em
p ressed
Ġc oup
Ġc innamon
th rust
ĠM orton
Ġfe ebly
Ġgr ades
ip zig
Ġsc old
ĠAr mine
Ġmod ification
Ġden ounced
Ġoffe nd
every body
put ting
Ġemer ging
Ġlux uries
intell igible
Ġtoss ing
Ġcongrat ulate
compan ions
Ġster ling
ĠHan over
Ġcust ody
priv ile
f ix
h ang
n ice
o i
Ġp iv
ĠC eylon
ĠF ur
ĠN ative
ass ie
Ġpe ering
ĠSt ories
Ġsw elled
Ġdef er
set ting
ĠChe valier
fall ing
Ġabsor b
Ġalb um
Ġscut um
ĠWhitt ier
! [
8 00
L it
P AR
R alph
p ond
or as
im en
ĠT yr
ĠH ouses
ap art
Ġqu iver
Ġgr id
Ġcont ag
Ġ18 11
ial ogue
rit es
Ġtri fles
ĠAl ways
Ġsil ken
Ġhist ories
dis appeared
Ġ29 9
Ġwa ver
ault s
ĠGrand e
love ly
Ġchall enged
Ġcher ry
dev il
qual ities
Ġdur st
Ġadmire rs
accept ed
gor ith
Ġ-- -
Ġprostr ate
Ġrecre ation
adop ted
intellect ual
tong ue
G ER
he aring
at ics
Ġf ountains
Ġd azed
Ġwe aving
Ġde lla
ĠF ear
ĠD ionys
ĠE udora
Ġal umin
ph ant
fl at
Ġed itors
Ġtri angular
Ġbuild ers
nor thern
Ġmort ality
Ġinstit uted
former ly
ĠAgain st
dest ruction
incre asing
sole mn
Ġcens ure
ĠWis consin
Ġaward ed
Ġt angled
Ġa z
ur ities
ĠF ol
Ġle ase
Ġqu otes
Ġtw inkling
Ġper chance
ĠSt orm
Ġsc ored
Ġtra ps
Ġinter l
Ġcr us
ĠCon cord
Ġstri pes
ĠMad elon
Ġmembers hip
ĠWil fred
ĠPat ches
Ġinvent or
Ġabsor bing
Ġsigh s
Ġseam an
A lf
M arm
M olly
S it
t ol
Ġh ull
an ter
Ġher b
ĠP atsy
Ġv oting
ĠL ect
ĠG ur
urn al
ink er
ject s
Ġchar ging
IN N
Ġ7 00
Ġmet amorph
ING TON
Ġgreen ish
Ġsal on
Ġx i
ĠQu arter
Ġchair man
Ġge ography
Ġded uct
bra ve
Ġflood ed
Ġcontempl ate
Ġabsurd ity
ĠWH O
remark ed
Tur k
Ġmarvel ous
swe pt
ĠDyn asty
Ġsubter ranean
ĠSalis bury
c ir
e a
Ġo ats
im ming
ĠC umberland
Ġsh ivered
un ited
ĠR ule
ree ks
Ġdis rupt
Ġam ber
fe atures
Ġmen ace
Ġrec ess
ec onom
const ant
incl ined
Ġvivid ly
stri king
ĠField s
Ġwithdraw al
Ġarray ed
furn ished
........ ........
Ġfring e
Ġpett ico
B RO
z i
Ã ¹
â Ĥ
Ġm used
Ġto ilet
ill ary
her ic
Ġcon ical
Ġr ides
ĠE g
ĠE ns
Ġen umer
Ġ18 52
Ġ18 54
Ġtra cts
ash ions
Ġcoll aboration
Ġfear less
Ġdeal ings
Ġpen alties
Ġdig estion
Ġstuff ed
glass es
Ġquart z
Ġapost le
Ġbund les
Ġmusk et
angel ical
Ġdecomp osition
P ittsburgh
c uts
u pp
Ġt art
at ist
ĠT all
ĠM ent
ĠC ly
Ġtw entieth
hen ce
ret reat
ĠShe pherd
Ġdisc red
Ġsuccess ively
ĠZ anzibar
spect or
Ġdiss olution
Ġdisplay ing
Ġcondem nation
Ġrecon cile
ĠGen oa
ĠAR T
Ġreckon ing
Ġirrit ated
Ġhymn s
ĠBalt ic
ĠStru ensee
F ra
ll ation
et ches
Ġsa u
Ġdo e
Ġam ply
ip her
men ced
Ġdra goons
Ġplac id
25 3
Ġexc used
Ġ30 8
work ers
Ġrich ness
Le ave
Ġadop ting
Ġsusp ension
Ġendeav ours
Ġflower ing
ĠAdd itionally
Ġbride groom
Ġshud dered
method s
Î ¯
ch ron
ch apter
ĠS alem
ĠW onder
un ty
ist ler
ĠSt ri
Ġ3 40
Ġgra v
use ful
Ġfur s
Ġbar racks
25 2
night s
Ġsweet heart
por al
Ġprevent ion
Ġdistingu ishing
leg al
Ġneck lace
Ġtravel er
mist ress
Ġloose ly
Ġconsum ers
div ine
Ġadvert ising
Ġbust le
ĠBrah man
ĠBeau champ
ĠLear ning
ĠPubl ix
Ġfacil itate
Ġdegr aded
gi ene
acknow led
H art
O b
h arm
t all
ĠE lder
Ġmy ri
ord id
Ġim minent
Ġ3 26
Ġref uses
Ġcr icket
26 5
ĠEx pedition
Ġenjoy s
Ġune qu
Ġspo ils
ĠCH ILD
hon or
ĠHy de
Ġren own
Ġpregn ant
ĠPam ela
" ?
E ug
L IN
S her
T able
e lement
Î ·
ll um
Ġl ard
Ġpl edged
Ġout stretched
Ġj am
Ġim pending
Ġper ils
Ġdes erving
Ġoff ences
Ġexp ired
Ġca f
ĠChar ity
29 0
Ġbear ings
Ġcru ise
Ġyellow ish
Pro bably
Ġlat ent
Ġrecommend ation
ulph ur
hor iz
Ġmonot ony
Ġtiss ues
ĠOt to
Ġfaire st
ĠCib ot
Ġpostp oned
ĠCommod ore
Ġ## #
ĠILLU STR
D ER
b ags
d il
Ġs inners
is ements
Ġe book
se ized
im med
ĠS AL
ain es
Ġse w
ac it
ĠP itt
ĠL ap
ĠL ey
ĠR ab
ind eer
Ġcl ar
Ġ3 29
Ġhere tics
Ġexp osition
Ġint ens
Ġtri ps
Ġtro d
ĠSee ing
Christ ians
Ġscient ist
Ġdisci ple
Ġlibr aries
Ġenlight en
Ġinterven ing
cru el
Ġgraph ic
Ġinnov ative
Ġscaff old
Ġvul ner
D a
i ots
Ġl ashes
ĠW ool
ĠW alt
ate mal
Ġun covered
Ġpr isons
Ġins anity
Ġsuff ers
Ġprov oked
ĠPr ison
26 3
Ġcra b
Ġ190 4
ĠJul ie
cap able
ĠLis zt
ĠBabylon ia
gold en
Ġanten n
Ġvoy ages
ĠMose ley
b ought
f ont
i ud
s ake
Ġt ant
Ġo ar
Ġl ingu
ĠS aid
ĠF inn
Ġab bot
og ues
Ġcons ume
Ġcar p
.âĢĶ "
ĠCor inth
Ġpar ap
Ġlow ly
af ed
Ġpret ensions
Ar men
produ ction
Ġadminist rative
Ġcommission ed
high ly
ĠApp le
Ġrede emed
R ad
d ict
g ated
r als
â ģ
Ġ Å¿
Ġthe ft
at ia
Ġh tt
Ġc ette
il is
Ġv as
ĠL ep
ĠTh irlwell
Ġ18 29
Ġgl ove
Ġey ed
ĠShe riff
ĠRe in
Ġdef y
Ġvirt ual
Ad miral
Ġaud ible
raz y
far ther
Ġcrew s
ĠAustri ans
town s
Ġconspic uously
Ġdun geon
ĠRoberts on
X III
h ist
v Ã¦
Ġc ess
Ġin human
ĠM ead
Ġsh ack
um bs
are th
Ġ18 42
ob al
ĠRe ading
Ġpoor ly
she et
ĠCar ter
Ġfail ures
ĠAm sterdam
ĠGu ide
Ġtriumph antly
ige rent
pur poses
Ã¶ n
Ġmurm uring
ĠPhilip pe
prom pt
Ġtoler able
liter ary
Ġintrig ues
extreme ly
Ġscound rel
G ar
G rant
T C
w ald
in it
re ality
ent rance
art ure
ong ru
Ġgr ind
Ġsl ate
port ions
Ġacqu iring
Ġlim p
RI END
Ġrev ised
var iety
Ġvolunte ered
Ġremn ants
exerc ise
ĠCOR POR
ĠReyn olds
G il
P ol
s olid
w ings
in flu
ar ise
an as
Ġan throp
ĠH un
Ġ3 25
ens ils
Ġ18 41
Ġinc arn
Ġhard ship
Ġfr owning
alley rand
Ġrail ways
ĠSat urn
ĠSim pson
Gl ad
Ġrude ly
Ġfoc used
Ġrib bons
ĠNi agara
observ ation
arrange ment
Ġlil ies
W ITH
a vers
t ube
à ¤
ad ay
Ġg el
Ġe ats
gh am
ĠH ale
Ġv ous
ci ble
Ġen rich
ĠK arl
ĠK atherine
Ġwhere with
Ġreg ener
ys ore
br others
Ġprop hes
inci ble
Ġthick ets
erson al
leg isl
Ġadvent urous
Phil adelphia
press ure
ĠFlore nt
sign ific
Cast le
N ed
R oss
S ER
e ggs
m op
Ġo aks
re li
om ents
Ġwh irled
th o
ĠC AN
ĠB ang
ĠH ISTORY
Ġse l
Ġar ouse
ĠV evi
ran e
io lets
ĠLe ft
Ġsle igh
ĠWill ie
26 4
Ġthick er
Ġgall oped
imp ress
Ġcomplex ity
Ġprivile ged
proper ly
Ġinfect ed
crow ded
Ġconver ts
Law rence
Ġcush ions
Ġclut ched
C opyright
H aw
J udge
L iber
M ade
M oses
R h
c ake
v ices
ou ver
Ġf als
ĠS L
ĠB ott
ess ential
ac ular
Ġsh ocking
Ġall ey
Ġ18 34
Ġsw amps
Ġir ony
add ressed
ĠJew el
ais er
Ġtravel ers
Ġblind ed
Ġdivers ion
Ġprohib ition
Ġaccum ulation
Ġmant el
Ġcul p
Ġabdom en
f amilies
p ense
re vol
Ġb ids
Ġth orns
ĠI b
ĠM Ã©
ĠP UBL
Ġfl ashes
ĠK ant
ex pedition
eng es
Ġpar iet
Ġcoll ision
Ġvol untarily
ĠAg ent
Ġod our
Ġbold ness
ĠPo et
Ġpark s
occup ation
Ġquarrel s
Ġalter ations
ĠCub an
J acqu
k ine
w id
Ġc od
ĠL isten
ĠHe ath
be ams
Ġinter net
Ġpres ided
25 1
Ġfair ies
IT ED
26 9
Ġenc oun
Ġmess engers
Ġones elf
Ġgrat ifying
ari at
Ġtempt ing
Ġfulf ill
ele ments
Bet ty
Ġjewel ry
Ġcler ical
wel come
ĠMedic ine
Ġpenit ent
surpr ised
R od
a ill
m ot
Ġa per
Ġw itty
Ġb ord
Ġre actions
Ġst alk
ra ising
Ġnot ing
ĠP tolemy
av o
con cl
Ġmon sters
sp ite
Ġinf rastructure
Ġbar onet
Ġce ases
Ġindign antly
Japan ese
Ġbond age
rowen feld
j ew
l ob
r ul
Ġs inks
nd e
Ġf ans
Ġd ess
ir ons
ĠC ors
Ġha unt
res ford
ĠW esley
pl at
int ing
Ġsm ote
Ġrec esses
Ġlast s
su itable
vent ions
Ġsy rup
ĠRe ason
Ġsat ir
Ġsat ire
Ġperson ages
ĠSo viet
ĠCo qu
Ġsuggest ing
ĠPri vate
Ġvoc abulary
ĠBO Y
ĠDam ascus
Ġcoo led
Ġench anted
Educ ational
Ġbaff led
ĠMarl borough
E lect
f re
he av
ar ck
Ġto ll
as ive
ut ors
um bed
Ġch is
ĠE va
ĠR ivers
Ġpe cuniary
ens ibly
ex ception
ĠShe lley
ew orthy
ale igh
she ep
co ats
ĠIs n
Ġstra ining
ĠChar acter
Ġfellow ship
ĠSpan iard
Ġwhis pers
Ġ179 8
Ġlabour ing
OV ER
Ġtour ist
Ġbloom ing
Ġpall et
ĠHind u
Ġwander ings
ĠMohammed an
Ġperplex ity
Ġgird le
Ġeyel ids
C ow
C OL
d ying
f ax
f ancy
h n
is ia
Ġin forms
ĠH OL
ĠW inn
ĠL ADY
au c
Ġen list
Ġpr ick
li br
Ġtra it
new sp
Ġdel usion
ash ore
uc ous
Ġconst able
Ġdev oured
Ġroad side
26 7
Ġdisp atch
cont empt
Ġund o
Ġsli ppery
qual ified
Ġpunct uation
ĠRoche ster
ĠDry den
ĠYan kee
Wed nesday
ĠWOR LD
atemal a
H ope
b rief
Ġb athe
Ġp ens
ent ive
ĠC er
ĠH ipp
ich o
ĠL od
ig uous
Ġch ant
Ġ3 17
Ġdep icted
Ġsing ers
26 2
Ġann iversary
ĠMan uel
Ġx iii
Ġemer ald
abs ence
Ġmerc en
Ġow l
prison er
Ġattent ively
ĠFurther more
Ġrefresh ment
Ġindist inct
D ev
H amilton
H appy
N ell
O liver
R EN
b ree
t ale
u cc
on n
Ġm ocking
al ter
ad ox
Ġan nex
ĠB lessed
Ġno ises
pl er
pl ined
Ġbl ushing
Ġter rors
ys ics
pro sper
rel ative
ĠCorp oration
27 5
26 6
Ġrock ing
Ġhy d
ĠSl av
gra ined
Ġpatri ots
Ġbree ches
Ġconflict s
ĠMem oirs
Ġparticip ate
OG R
ĠCommission ers
Ġsway ing
CHE S
Ġincess antly
Ġreci pe
Ox ford
Ġenric hed
T uesday
d rive
l ux
Ġh ushed
al ive
Ġbe ak
ĠS yl
Ġst alks
ĠB ey
Ġor deal
ĠP ack
Ġch ol
ĠE ly
itt ens
ru ff
Ġli ability
ĠIn ce
man aged
Ġ18 56
Ġmar riages
ĊĊĠĠĠĠĠĠĠĠ ĠĠ
ug ar
Ġins ensible
Ġhor ribly
ĠBar th
spe cul
Ġconv ict
Ġfruit less
ĠHel p
ĠHam pton
obl ong
Ġmock ery
ĠGentle man
effic ient
C ook
I ng
T ar
V OL
en emies
Ġin ability
ro de
am our
ĠH Ã´tel
ĠH oldsworth
ĠO st
Ġpart ake
Ġstr at
Ġsuff rage
Ġele venth
27 2
Ġpubl ishers
care ous
ĠSal am
Ġdespair ing
Ġbath s
Ġbuck et
Ġferv ent
Ġidol at
Ġscrut iny
Ġembry o
B ene
B uck
c ream
f ought
re v
Ġd ual
se cts
im mediate
ĠT rib
ĠS ure
th ir
ĠC hel
ab leness
Ġv s
un ce
Ġpro ven
Ġman or
Ġcan als
Ġcar ving
Ġwr inkled
Ġbro om
27 3
Ġ30 7
Ġsn ows
Ġtor ches
Ġmechan ically
ĠVer a
ĠDay ton
ĠDel aware
ĠStud ies
Ġgent ry
Ġrein forced
Ġcoinc idence
ĠDie go
Ġsate ll
ĠMey er
Ġfles hy
N ic
S even
V EL
f ited
ar rival
Ġd ou
Ġd row
ra int
Ġse pt
ĠL AW
ĠE ur
Ġli z
Ġ3 32
Ġcomm itting
Ġ18 33
Ġ18 55
Ġdist ract
Ġmind ed
Ġass erts
ott age
che mical
rem pt
Ġdepart ing
Ġburn s
Ġspr inkle
John ny
Pl ace
Ġmaintain s
Ġfer ry
Ġuniform ly
hur ried
Ġcasual ties
ĠGab riel
á¸į ir
hai á¸įir
C R
D ark
re ward
ĠS ter
Ġha gg
ate ch
Ġal gorith
ĠChrist endom
Ġdiv ides
cent uries
Ġund ers
Ġfra g
ĠIrish man
Ġcheer fulness
Ġgle amed
Ġselfish ness
ĊĊĉ Ċ
Ġexplo its
Ġrepuls ed
Ġtuck ed
Ġadherent s
ĠCORPOR ATION
c ule
n av
r ion
Ġt ipped
ĠP end
est a
ĠR iv
ud a
Ġro asted
og ether
Ġsl ower
Ġcomple ting
ĠCo x
ald ane
27 1
Ġfight s
acc ur
Ġcollect ive
small er
Ġdescend ant
vell ers
Ġastr onomy
ĠCrus oe
acquaint ance
A z
A ye
g led
k ers
s orrow
ith metic
ĠM ons
ĠP olitical
ĠP arsons
ĠF ly
ĠF letcher
Ġshe ath
Ġab uses
Ġcl apped
de cor
vel ation
rew s
ĠSe ville
ĠSc reen
Ġye ast
ĠCar ly
Ġsweet er
Ġcit adel
Ġrain bow
Ġassem ble
Ġ180 3
Ġrout es
ĠPat ri
Ġprepar atory
Ne il
dep os
ĠSi oux
Gree ce
REF ACE
X IV
y on
Ġa float
re pro
et ics
ĠM lle
il iate
ĠH ers
ĠH unting
ĠW idow
Ġso journ
ĠF ind
iv ou
ci um
Ġel bows
Ġpurch ases
Ġprotect or
ĠPol ish
thousand s
Rep ublic
Ġrou g
ĠRepresent ative
Ġciv ic
ĠSER IES
L ear
P an
W m
h idden
am ble
ĠM uk
ĠH OME
Ġr asc
ob iography
oot ing
ash i
ĠOF F
27 7
athe matic
Ġcoun sell
Qu ick
equ ality
ĠTe ut
del icate
character istic
Ġcoarse ly
Ġcyl ind
E arth
S ing
h art
p as
Ġw er
Ġb ast
al ous
ch rist
ĠL ister
ĠE ye
Ġsp onge
Ġim pelled
ile m
Ġdes erts
Ġtre nd
ĠCol ony
27 6
Ġ30 3
ov na
friend ship
Ġsatisfact orily
Ab ove
Ġ179 0
Ġharm ful
Ġreflect s
Ġgrie vous
ĠTre asure
sole te
Ġsty led
Ġcoc oa
accompl ished
comprehens ible
Ġtires ome
f ond
k itchen
p olicy
Ġb unk
Ġf u
th irst
ĠM EN
ag ogue
Ġun speak
Ġgr anting
Ġ3 37
Th om
Ġob t
pro pri
Ġprom inence
IT S
ĠFran co
Ġappre hend
Ġpreced ent
ĠJo anne
ez vous
eff orts
bal ance
pain ting
laugh ing
ĠVir gil
Ġnegl igence
ĠKore a
Ġplung ing
iud ad
C AR
C ES
C ape
M me
M oore
X V
i ott
p ardon
Ġbe que
ch ants
ĠS U
ĠR on
ĠR ED
Ġj ur
Ġun grateful
Ġdis plays
wh oles
ip otent
Ġ3 23
Ġimp arted
Ġwork manship
Ġcomm iss
pr ide
con tains
Ġcare lessness
Ġorgan ised
Ġer r
ĠEm erson
ik i
Ġobserv ance
Ġclaim ing
Ġfol io
Ġamb itions
agon al
ĠEv idently
OS S
ras er
ĠGard ens
Ġais les
Ġreinforce ments
Ġconserv ative
enet rable
e ating
re commend
ĠM OR
Ġr iddle
ĠR ig
Ġpro l
ĠV es
ex tended
vers ing
Ġunt ouched
enn es
Ġmer riment
Ġbar ric
Ġsqu at
ĠAb bot
Ġimpro v
ĠON E
Ġgrie ve
creat ed
ĠMarches a
L atin
P LE
m ah
Ġm asts
am ine
ĠS ciences
ĠS umer
ĠM appo
ĠThe bes
Ġad ul
Ġper ceptible
Ġpe ers
Ġres ented
Ġra ged
ob tain
ĠDe acon
Ġmer ciless
ĠAd v
add ers
Ġhy per
Ġden ying
Ġbank rupt
sing ing
ĠCont ents
mosp heric
Ġhate ful
tem pered
def ined
Ġcommend ed
Ġskull s
Ġrect angular
Ġdynam ic
Ġcateg ory
Ġmuff led
ĠCau cas
. ,"
G erm
I d
re th
is le
âĢ ¢
Ġre formation
ĠB aird
ĠW yn
Ġimp regn
Ġsupp orters
Ġche m
olog ically
ped o
ĠPhil ipp
Ġjo kes
Ġmention ing
Ġrecogn izing
Ġ186 7
Ġhero ism
Con f
Ġmeasure ments
Ġstation ary
Ġexcess ively
Ġsigh ing
Ġuns us
ĠSus sex
Ġrud dy
Ġmonaster ies
Ġquot ations
Rel ig
ĠFab ian
Ġpregn ancy
Ġjer ked
Ġfern s
Ġaggress ive
Ġprox imity
Ġturt le
ĠDecl aration
Ġin complete
Ġd airy
ad mitted
im an
ĠA men
ĠB ase
âĢĶ âĢĺ
res c
Ġr owed
The od
ĠJ ose
Ġno bly
Ġj oc
Ġj erk
ach i
ĠTh irty
man ia
og any
Ġpe w
Ġres id
ĠV ale
ĠK a
ĠK id
Ġhum ming
Ch ap
Ġreal izing
ĠDe er
Ġpat rol
Ġcommand ers
27 9
Ġexcl ude
gu arded
Ġsens ibility
pal ace
Ġrevol utions
ĠCong reg
Ad am
mind s
sal ms
ĠWat ers
Ġcoward ly
Ġwhit ish
Ġleng ths
Ġdors al
ĠHul ot
A UL
F ront
L td
g over
p il
Ġw ot
Ġp aternal
ĠI sh
ro id
ĠS IR
th am
ĠH aut
Ġr heum
ĠD resden
ĠN ORTH
Ġper mits
Ġ3 36
Ġ3 33
ph is
Ġacc ents
ib ald
Ġret ic
ene z
Ġche ery
Ġdep uties
Ġten ement
Ġorigin ality
sm iling
Ġconcl udes
Ġ180 7
Ġfan atic
Ġfunction al
Ġinstrument al
ĠCre vel
ĠDun can
ĠJos iah
Ġnom inal
ĠTW O
S et
Ġ ĊĊĠĠĠĠĠ
the sis
ol ome
ĠL och
Ġcl ump
ĠV el
Ġ3 27
Ġear ning
Ġmar ches
con sequently
str ict
Ġbright est
ĠSte in
Ġwis est
Ġ180 1
Ġ179 2
strong ly
Ġcher ish
dev oted
sac rific
Ġthirst y
Ġratt led
Ġmamm als
ĠVic ar
Ġfren zy
ĠGriff ith
ĠAnim als
R ange
i em
p ents
Ġo mit
Ġf iled
ĠM ills
ĠC ONT
ĠH appy
ĠR ot
ĠN on
Ġcomp iled
Ġrep ud
Ġinc ense
AN GE
Ġincl osed
26 1
Ġphys ic
Ġdesp ond
Ġelect ron
back ed
Ġbow els
ĠSan chez
Ġfond ness
burn ed
Ġmusk ets
Ġdefic iency
Ġratt ling
Ġintrig ue
ĠEuph rates
L en
m oor
w ight
Ġc edar
Ġm uzzle
ic eless
ri et
all owing
ĠB arr
ĠG ust
ĠD ale
Ġout comes
Ġun account
be cca
Ġ3 16
Ġ3 34
Ġimp ract
Ġsl iding
Ġsl ips
In ter
Ġland scapes
app le
uc het
she lls
IC S
Ġcra cks
ĠPe ck
ĠCal ver
Ġnation ality
ester ly
oty pe
Ġaccomplish ments
Ġvir us
Charl ie
ĠMig uel
n ical
p up
Ġo l
Ġs essile
Ġn ull
Ġbe arer
ad vert
st uff
th orn
ĠB od
Ġsh opping
ol in
Ġso fter
ĠF og
ĠG iles
ig ated
ie re
per pet
Ġqu oth
Ġgl owed
com pelled
wor m
ĠBr ide
Ġaff ording
Ġwild est
ox ide
Let ter
Ġinvol untarily
Ġroyal ty
Ġident ification
Ġmechan ics
Ġrev ive
exc ited
Ġsauce pan
Ġparliament ary
ĠAz alea
ĠOper a
Ġchival ry
Ġabomin able
A ra
f aint
ĠS aul
ĠM ans
ac a
ĠW a
mer c
Ġgl impses
ex cl
com mod
ax ter
26 8
Ġbrown ish
ĠJes uit
Ġchap lain
sk ill
ĠWil kinson
agg ering
ĠSl ow
ĠLu is
Ġinform ing
opl asm
employ ment
lad en
Ġdict ated
prev ious
Ġrede em
ĠPresbyter ian
Ġscrat ched
Ġs ieve
Ġto kens
Ġwe arily
ĠB rent
ĠB rian
ĠB attery
ĠD ow
Ġch op
ĠR y
Ġres erves
Ġtra cing
Ġgener ate
fl ight
Ġstre ak
pro bable
Ġfore fathers
ĠAt torney
olog ne
28 6
esty le
Ġstraight forward
Con nell
Ġcred ited
dem and
yes terday
diffic ulties
sac red
Ġanecd otes
ĠEph raim
ĠChair man
ĠDix on
J ournal
g art
s ons
Ġs ordid
ve h
ill ate
Ġnot ably
ĠB rom
ĠB ulgar
Ġso aked
Ġdis interested
Ġ3 31
Ġ18 18
Ġrep orter
[...]
