{
  "version": "1.0",
  "truncation": null,
  "padding": null,
  "added_tokens": [
    {
      "id": 0,
      "content": "<pad>",
      "single_word": false,
      "lstrip": false,
      "rstrip": false,
      "normalized": false,
      "special": true
    },
    {
      "id": 1,
      "content": "<bos>",
      "single_word": false,
      "lstrip": false,
      "rstrip": false,
      "normalized": false,
      "special": true
    },
    {
      "id": 2,
      "content": "<eos>",
      "single_word": false,
      "lstrip": false,
      "rstrip": false,
      "normalized": false,
      "special": true
    },
    {
      "id": 3,
      "content": "<unk>",
      "single_word": false,
      "lstrip": false,
      "rstrip": false,
      "normalized": false,
      "special": true
    },
    {
      "id": 4,
      "content": "<tool_call>",
      "single_word": false,
      "lstrip": false,
      "rstrip": false,
      "normalized": false,
      "special": true
    },
    {
      "id": 5,
      "content": "</tool_call>",
      "single_word": false,
      "lstrip": false,
      "rstrip": false,
      "normalized": false,
      "special": true
    },
    {
      "id": 6,
      "content": "<tool_result>",
      "single_word": false,
      "lstrip": false,
      "rstrip": false,
      "normalized": false,
      "special": true
    },
    {
      "id": 7,
      "content": "</tool_result>",
      "single_word": false,
      "lstrip": false,
      "rstrip": false,
      "normalized": false,
      "special": true
    },
    {
      "id": 8,
      "content": "<search>",
      "single_word": false,
      "lstrip": false,
      "rstrip": false,
      "normalized": false,
      "special": true
    },
    {
      "id": 9,
      "content": "</search>",
      "single_word": false,
      "lstrip": false,
      "rstrip": false,
      "normalized": false,
      "special": true
    },
    {
      "id": 10,
      "content": "<think>",
      "single_word": false,
      "lstrip": false,
      "rstrip": false,
      "normalized": false,
      "special": true
    },
    {
      "id": 11,
      "content": "</think>",
      "single_word": false,
      "lstrip": false,
      "rstrip": false,
      "normalized": false,
      "special": true
    },
    {
      "id": 12,
      "content": "<|user|>",
      "single_word": false,
      "lstrip": false,
      "rstrip": false,
      "normalized": false,
      "special": true
    },
    {
      "id": 13,
      "content": "<|assistant|>",
      "single_word": false,
      "lstrip": false,
      "rstrip": false,
      "normalized": false,
      "special": true
    },
    {
      "id": 14,
      "content": "<|system|>",
      "single_word": false,
      "lstrip": false,
      "rstrip": false,
      "normalized": false,
      "special": true
    },
    {
      "id": 15,
      "content": "<|end|>",
      "single_word": false,
      "lstrip": false,
      "rstrip": false,
      "normalized": false,
      "special": true
    },
    {
      "id": 6501,
      "content": "**",
      "single_word": false,
      "lstrip": false,
      "rstrip": false,
      "normalized": true,
      "special": false
    },
    {
      "id": 16057,
      "content": "None",
      "single_word": false,
      "lstrip": false,
      "rstrip": false,
      "normalized": true,
      "special": false
    },
    {
      "id": 17225,
      "content": "True",
      "single_word": false,
      "lstrip": false,
      "rstrip": false,
      "normalized": true,
      "special": false
    },
    {
      "id": 19959,
      "content": "//",
      "single_word": false,
      "lstrip": false,
      "rstrip": false,
      "normalized": true,
      "special": false
    },
    {
      "id": 23164,
      "content": "mol",
      "single_word": false,
      "lstrip": false,
      "rstrip": false,
      "normalized": true,
      "special": false
    },
    {
      "id": 32768,
      "content": "kg",
      "single_word": false,
      "lstrip": false,
      "rstrip": false,
      "normalized": true,
      "special": false
    },
    {
      "id": 32769,
      "content": "km/h",
      "single_word": false,
      "lstrip": false,
      "rstrip": false,
      "normalized": true,
      "special": false
    },
    {
      "id": 32770,
      "content": "m/s",
      "single_word": false,
      "lstrip": false,
      "rstrip": false,
      "normalized": true,
      "special": false
    },
    {
      "id": 32771,
      "content": "m/s²",
      "single_word": false,
      "lstrip": false,
      "rstrip": false,
      "normalized": true,
      "special": false
    },
    {
      "id": 32772,
      "content": "kJ/mol",
      "single_word": false,
      "lstrip": false,
      "rstrip": false,
      "normalized": true,
      "special": false
    },
    {
      "id": 32773,
      "content": "°C",
      "single_word": false,
      "lstrip": false,
      "rstrip": false,
      "normalized": true,
      "special": false
    },
    {
      "id": 32774,
      "content": "°F",
      "single_word": false,
      "lstrip": false,
      "rstrip": false,
      "normalized": true,
      "special": false
    },
    {
      "id": 32775,
      "content": "°K",
      "single_word": false,
      "lstrip": false,
      "rstrip": false,
      "normalized": true,
      "special": false
    },
    {
      "id": 32776,
      "content": "µm",
      "single_word": false,
      "lstrip": false,
      "rstrip": false,
      "normalized": true,
      "special": false
    },
    {
      "id": 32777,
      "content": "nm",
      "single_word": false,
      "lstrip": false,
      "rstrip": false,
      "normalized": true,
      "special": false
    },
    {
      "id": 32778,
      "content": "pm",
      "single_word": false,
      "lstrip": false,
      "rstrip": false,
      "normalized": true,
      "special": false
    },
    {
      "id": 32779,
      "content": "MHz",
      "single_word": false,
      "lstrip": false,
      "rstrip": false,
      "normalized": true,
      "special": false
    },
    {
      "id": 32780,
      "content": "GHz",
      "single_word": false,
      "lstrip": false,
      "rstrip": false,
      "normalized": true,
      "special": false
    },
    {
      "id": 32781,
      "content": "THz",
      "single_word": false,
      "lstrip": false,
      "rstrip": false,
      "normalized": true,
      "special": false
    },
    {
      "id": 32782,
      "content": "kPa",
      "single_word": false,
      "lstrip": false,
      "rstrip": false,
      "normalized": true,
      "special": false
    },
    {
      "id": 32783,
      "content": "MPa",
      "single_word": false,
      "lstrip": false,
      "rstrip": false,
      "normalized": true,
      "special": false
    },
    {
      "id": 32784,
      "content": "GPa",
      "single_word": false,
      "lstrip": false,
      "rstrip": false,
      "normalized": true,
      "special": false
    },
    {
      "id": 32785,
      "content": "def ",
      "single_word": false,
      "lstrip": false,
      "rstrip": false,
      "normalized": true,
      "special": false
    },
    {
      "id": 32786,
      "content": "class ",
      "single_word": false,
      "lstrip": false,
      "rstrip": false,
      "normalized": true,
      "special": false
    },
    {
      "id": 32787,
      "content": "import ",
      "single_word": false,
      "lstrip": false,
      "rstrip": false,
      "normalized": true,
      "special": false
    },
    {
      "id": 32788,
      "content": "from ",
      "single_word": false,
      "lstrip": false,
      "rstrip": false,
      "normalized": true,
      "special": false
    },
    {
      "id": 32789,
      "content": "return ",
      "single_word": false,
      "lstrip": false,
      "rstrip": false,
      "normalized": true,
      "special": false
    },
    {
      "id": 32790,
      "content": "yield ",
      "single_word": false,
      "lstrip": false,
      "rstrip": false,
      "normalized": true,
      "special": false
    },
    {
      "id": 32791,
      "content": "lambda ",
      "single_word": false,
      "lstrip": false,
      "rstrip": false,
      "normalized": true,
      "special": false
    },
    {
      "id": 32792,
      "content": "async ",
      "single_word": false,
      "lstrip": false,
      "rstrip": false,
      "normalized": true,
      "special": false
    },
    {
      "id": 32793,
      "content": "await ",
      "single_word": false,
      "lstrip": false,
      "rstrip": false,
      "normalized": true,
      "special": false
    },
    {
      "id": 32794,
      "content": "with ",
      "single_word": false,
      "lstrip": false,
      "rstrip": false,
      "normalized": true,
      "special": false
    },
    {
      "id": 32795,
      "content": "while ",
      "single_word": false,
      "lstrip": false,
      "rstrip": false,
      "normalized": true,
      "special": false
    },
    {
      "id": 32796,
      "content": "for ",
      "single_word": false,
      "lstrip": false,
      "rstrip": false,
      "normalized": true,
      "special": false
    },
    {
      "id": 32797,
      "content": "if ",
      "single_word": false,
      "lstrip": false,
      "rstrip": false,
      "normalized": true,
      "special": false
    },
    {
      "id": 32798,
      "content": "elif ",
      "single_word": false,
      "lstrip": false,
      "rstrip": false,
      "normalized": true,
      "special": false
    },
    {
      "id": 32799,
      "content": "else:",
      "single_word": false,
      "lstrip": false,
      "rstrip": false,
      "normalized": true,
      "special": false
    },
    {
      "id": 32800,
      "content": "try:",
      "single_word": false,
      "lstrip": false,
      "rstrip": false,
      "normalized": true,
      "special": false
    },
    {
      "id": 32801,
      "content": "except ",
      "single_word": false,
      "lstrip": false,
      "rstrip": false,
      "normalized": true,
      "special": false
    },
    {
      "id": 32802,
      "content": "finally:",
      "single_word": false,
      "lstrip": false,
      "rstrip": false,
      "normalized": true,
      "special": false
    },
    {
      "id": 32803,
      "content": "False",
      "single_word": false,
      "lstrip": false,
      "rstrip": false,
      "normalized": true,
      "special": false
    },
    {
      "id": 32804,
      "content": "self.",
      "single_word": false,
      "lstrip": false,
      "rstrip": false,
      "normalized": true,
      "special": false
    },
    {
      "id": 32805,
      "content": "cls.",
      "single_word": false,
      "lstrip": false,
      "rstrip": false,
      "normalized": true,
      "special": false
    },
    {
      "id": 32806,
      "content": "->",
      "single_word": false,
      "lstrip": false,
      "rstrip": false,
      "normalized": true,
      "special": false
    },
    {
      "id": 32807,
      "content": "::",
      "single_word": false,
      "lstrip": false,
      "rstrip": false,
      "normalized": true,
      "special": false
    },
    {
      "id": 32808,
      "content": "!=",
      "single_word": false,
      "lstrip": false,
      "rstrip": false,
      "normalized": true,
      "special": false
    },
    {
      "id": 32809,
      "content": "==",
      "single_word": false,
      "lstrip": false,
      "rstrip": false,
      "normalized": true,
      "special": false
    },
    {
      "id": 32810,
      "content": "<=",
      "single_word": false,
      "lstrip": false,
      "rstrip": false,
      "normalized": true,
      "special": false
    },
    {
      "id": 32811,
      "content": ">=",
      "single_word": false,
      "lstrip": false,
      "rstrip": false,
      "normalized": true,
      "special": false
    },
    {
      "id": 32812,
      "content": "+=",
      "single_word": false,
      "lstrip": false,
      "rstrip": false,
      "normalized": true,
      "special": false
    },
    {
      "id": 32813,
      "content": "-=",
      "single_word": false,
      "lstrip": false,
      "rstrip": false,
      "normalized": true,
      "special": false
    },
    {
      "id": 32814,
      "content": "*=",
      "single_word": false,
      "lstrip": false,
      "rstrip": false,
      "normalized": true,
      "special": false
    },
    {
      "id": 32815,
      "content": "/=",
      "single_word": false,
      "lstrip": false,
      "rstrip": false,
      "normalized": true,
      "special": false
    },
    {
      "id": 32816,
      "content": "%=",
      "single_word": false,
      "lstrip": false,
      "rstrip": false,
      "normalized": true,
      "special": false
    },
    {
      "id": 32817,
      "content": "&=",
      "single_word": false,
      "lstrip": false,
      "rstrip": false,
      "normalized": true,
      "special": false
    },
    {
      "id": 32818,
      "content": "|=",
      "single_word": false,
      "lstrip": false,
      "rstrip": false,
      "normalized": true,
      "special": false
    },
    {
      "id": 32819,
      "content": "^=",
      "single_word": false,
      "lstrip": false,
      "rstrip": false,
      "normalized": true,
      "special": false
    },
    {
      "id": 32820,
      "content": "<<",
      "single_word": false,
      "lstrip": false,
      "rstrip": false,
      "normalized": true,
      "special": false
    },
    {
      "id": 32821,
      "content": ">>",
      "single_word": false,
      "lstrip": false,
      "rstrip": false,
      "normalized": true,
      "special": false
    },
    {
      "id": 32822,
      "content": "&&",
      "single_word": false,
      "lstrip": false,
      "rstrip": false,
      "normalized": true,
      "special": false
    },
    {
      "id": 32823,
      "content": "||",
      "single_word": false,
      "lstrip": false,
      "rstrip": false,
      "normalized": true,
      "special": false
    },
    {
      "id": 32824,
      "content": "print(",
      "single_word": false,
      "lstrip": false,
      "rstrip": false,
      "normalized": true,
      "special": false
    },
    {
      "id": 32825,
      "content": "len(",
      "single_word": false,
      "lstrip": false,
      "rstrip": false,
      "normalized": true,
      "special": false
    },
    {
      "id": 32826,
      "content": "range(",
      "single_word": false,
      "lstrip": false,
      "rstrip": false,
      "normalized": true,
      "special": false
    },
    {
      "id": 32827,
      "content": "enumerate(",
      "single_word": false,
      "lstrip": false,
      "rstrip": false,
      "normalized": true,
      "special": false
    },
    {
      "id": 32828,
      "content": "np.",
      "single_word": false,
      "lstrip": false,
      "rstrip": false,
      "normalized": true,
      "special": false
    },
    {
      "id": 32829,
      "content": "pd.",
      "single_word": false,
      "lstrip": false,
      "rstrip": false,
      "normalized": true,
      "special": false
    },
    {
      "id": 32830,
      "content": "torch.",
      "single_word": false,
      "lstrip": false,
      "rstrip": false,
      "normalized": true,
      "special": false
    },
    {
      "id": 32831,
      "content": "tf.",
      "single_word": false,
      "lstrip": false,
      "rstrip": false,
      "normalized": true,
      "special": false
    },
    {
      "id": 32832,
      "content": "plt.",
      "single_word": false,
      "lstrip": false,
      "rstrip": false,
      "normalized": true,
      "special": false
    },
    {
      "id": 32833,
      "content": "```python",
      "single_word": false,
      "lstrip": false,
      "rstrip": false,
      "normalized": true,
      "special": false
    },
    {
      "id": 32834,
      "content": "```cpp",
      "single_word": false,
      "lstrip": false,
      "rstrip": false,
      "normalized": true,
      "special": false
    },
    {
      "id": 32835,
      "content": "```js",
      "single_word": false,
      "lstrip": false,
      "rstrip": false,
      "normalized": true,
      "special": false
    },
    {
      "id": 32836,
      "content": "```bash",
      "single_word": false,
      "lstrip": false,
      "rstrip": false,
      "normalized": true,
      "special": false
    },
    {
      "id": 32837,
      "content": "```",
      "single_word": false,
      "lstrip": false,
      "rstrip": false,
      "normalized": true,
      "special": false
    }
  ],
  "normalizer": {
    "type": "NFC"
  },
  "pre_tokenizer": {
    "type": "ByteLevel",
    "add_prefix_space": false,
    "trim_offsets": true,
    "use_regex": true
  },
  "post_processor": {
    "type": "ByteLevel",
    "add_prefix_space": true,
    "trim_offsets": false,
    "use_regex": true
  },
  "decoder": {
    "type": "ByteLevel",
    "add_prefix_space": true,
    "trim_offsets": true,
    "use_regex": true
  },
  "model": {
    "type": "BPE",
    "dropout": null,
    "unk_token": null,
    "continuing_subword_prefix": null,
    "end_of_word_suffix": null,
    "fuse_unk": false,
    "byte_fallback": false,
    "ignore_merges": false,
    "vocab": {
      "<pad>": 0,
      "<bos>": 1,
      "<eos>": 2,
      "<unk>": 3,
      "<tool_call>": 4,
      "</tool_call>": 5,
      "<tool_result>": 6,
      "</tool_result>": 7,
      "<search>": 8,
      "</search>": 9,
      "<think>": 10,
      "</think>": 11,
      "<|user|>": 12,
      "<|assistant|>": 13,
      "<|system|>": 14,
      "<|end|>": 15,
      "!": 16,
      "\"": 17,
      "#": 18,
      "$": 19,
      "%": 20,
      "&": 21,
      "'": 22,
      "(": 23,
      ")": 24,
      "*": 25,
      "+": 26,
      ",": 27,
      "-": 28,
      ".": 29,
      "/": 30,
      "0": 31,
      "1": 32,
      "2": 33,
      "3": 34,
      "4": 35,
      "5": 36,
      "6": 37,
      "7": 38,
      "8": 39,
      "9": 40,
      ":": 41,
      ";": 42,
      "<": 43,
      "=": 44,
      ">": 45,
      "?": 46,
      "@": 47,
      "A": 48,
      "B": 49,
      "C": 50,
      "D": 51,
      "E": 52,
      "F": 53,
      "G": 54,
      "H": 55,
      "I": 56,
      "J": 57,
      "K": 58,
      "L": 59,
      "M": 60,
      "N": 61,
      "O": 62,
      "P": 63,
      "Q": 64,
      "R": 65,
      "S": 66,
      "T": 67,
      "U": 68,
      "V": 69,
      "W": 70,
      "X": 71,
      "Y": 72,
      "Z": 73,
      "[": 74,
      "\\": 75,
      "]": 76,
      "^": 77,
      "_": 78,
      "`": 79,
      "a": 80,
      "b": 81,
      "c": 82,
      "d": 83,
      "e": 84,
      "f": 85,
      "g": 86,
      "h": 87,
      "i": 88,
      "j": 89,
      "k": 90,
      "l": 91,
      "m": 92,
      "n": 93,
      "o": 94,
      "p": 95,
      "q": 96,
      "r": 97,
      "s": 98,
      "t": 99,
      "u": 100,
      "v": 101,
      "w": 102,
      "x": 103,
      "y": 104,
      "z": 105,
      "{": 106,
      "|": 107,
      "}": 108,
      "~": 109,
      "¡": 110,
      "¢": 111,
      "£": 112,
      "¤": 113,
      "¥": 114,
      "¦": 115,
      "§": 116,
      "¨": 117,
      "©": 118,
      "ª": 119,
      "«": 120,
      "¬": 121,
      "®": 122,
      "¯": 123,
      "°": 124,
      "±": 125,
      "²": 126,
      "³": 127,
      "´": 128,
      "µ": 129,
      "¶": 130,
      "·": 131,
      "¸": 132,
      "¹": 133,
      "º": 134,
      "»": 135,
      "¼": 136,
      "½": 137,
      "¾": 138,
      "¿": 139,
      "À": 140,
      "Á": 141,
      "Â": 142,
      "Ã": 143,
      "Ä": 144,
      "Å": 145,
      "Æ": 146,
      "Ç": 147,
      "È": 148,
      "É": 149,
      "Ê": 150,
      "Ë": 151,
      "Ì": 152,
      "Í": 153,
      "Î": 154,
      "Ï": 155,
      "Ð": 156,
      "Ñ": 157,
      "Ò": 158,
      "Ó": 159,
      "Ô": 160,
      "Õ": 161,
      "Ö": 162,
      "×": 163,
      "Ø": 164,
      "Ù": 165,
      "Ú": 166,
      "Û": 167,
      "Ü": 168,
      "Ý": 169,
      "Þ": 170,
      "ß": 171,
      "à": 172,
      "á": 173,
      "â": 174,
      "ã": 175,
      "ä": 176,
      "å": 177,
      "æ": 178,
      "ç": 179,
      "è": 180,
      "é": 181,
      "ê": 182,
      "ë": 183,
      "ì": 184,
      "í": 185,
      "î": 186,
      "ï": 187,
      "ð": 188,
      "ñ": 189,
      "ò": 190,
      "ó": 191,
      "ô": 192,
      "õ": 193,
      "ö": 194,
      "÷": 195,
      "ø": 196,
      "ù": 197,
      "ú": 198,
      "û": 199,
      "ü": 200,
      "ý": 201,
      "þ": 202,
      "ÿ": 203,
      "Ā": 204,
      "ā": 205,
      "Ă": 206,
      "ă": 207,
      "Ą": 208,
      "ą": 209,
      "Ć": 210,
      "ć": 211,
      "Ĉ": 212,
      "ĉ": 213,
      "Ċ": 214,
      "ċ": 215,
      "Č": 216,
      "č": 217,
      "Ď": 218,
      "ď": 219,
      "Đ": 220,
      "đ": 221,
      "Ē": 222,
      "ē": 223,
      "Ĕ": 224,
      "ĕ": 225,
      "Ė": 226,
      "ė": 227,
      "Ę": 228,
      "ę": 229,
      "Ě": 230,
      "ě": 231,
      "Ĝ": 232,
      "ĝ": 233,
      "Ğ": 234,
      "ğ": 235,
      "Ġ": 236,
      "ġ": 237,
      "Ģ": 238,
      "ģ": 239,
      "Ĥ": 240,
      "ĥ": 241,
      "Ħ": 242,
      "ħ": 243,
      "Ĩ": 244,
      "ĩ": 245,
      "Ī": 246,
      "ī": 247,
      "Ĭ": 248,
      "ĭ": 249,
      "Į": 250,
      "į": 251,
      "İ": 252,
      "ı": 253,
      "Ĳ": 254,
      "ĳ": 255,
      "Ĵ": 256,
      "ĵ": 257,
      "Ķ": 258,
      "ķ": 259,
      "ĸ": 260,
      "Ĺ": 261,
      "ĺ": 262,
      "Ļ": 263,
      "ļ": 264,
      "Ľ": 265,
      "ľ": 266,
      "Ŀ": 267,
      "ŀ": 268,
      "Ł": 269,
      "ł": 270,
      "Ń": 271,
      "Ġt": 272,
      "he": 273,
      "Ġa": 274,
      "in": 275,
      "Ġthe": 276,
      "Ġo": 277,
      "re": 278,
      "Ġw": 279,
      "Ġs": 280,
      "nd": 281,
      "er": 282,
      "at": 283,
      "on": 284,
      "is": 285,
      "it": 286,
      "Ġb": 287,
      "en": 288,
      "ed": 289,
      "Ġof": 290,
      "ou": 291,
      "Ġh": 292,
      "Ġc": 293,
      "Ġf": 294,
      "or": 295,
      "es": 296,
      "ĠĠ": 297,
      "Ġm": 298,
      "ar": 299,
      "Ġand": 300,
      "an": 301,
      "ing": 302,
      "Ġto": 303,
      "Ġp": 304,
      "ll": 305,
      "Ġin": 306,
      "as": 307,
      "Ġd": 308,
      "Ġth": 309,
      "le": 310,
      "om": 311,
      "ic": 312,
      "âĢ": 313,
      "Ġn": 314,
      "Ġl": 315,
      "al": 316,
      "Ġhe": 317,
      "ion": 318,
      "Ġbe": 319,
      "ad": 320,
      "st": 321,
      "ot": 322,
      "Ġg": 323,
      "ent": 324,
      "Ġe": 325,
      "ve": 326,
      "ow": 327,
      "ut": 328,
      "ĠI": 329,
      "se": 330,
      "ly": 331,
      "im": 332,
      "Ġre": 333,
      "ce": 334,
      "id": 335,
      "ld": 336,
      "Ġwh": 337,
      "gh": 338,
      "ir": 339,
      "ur": 340,
      "Ġon": 341,
      "Ġthat": 342,
      "ay": 343,
      "ver": 344,
      "Ġwas": 345,
      "ith": 346,
      "ct": 347,
      "et": 348,
      "ro": 349,
      "ĠT": 350,
      "Ġit": 351,
      "Ġu": 352,
      "Ġfor": 353,
      "Ġy": 354,
      "ch": 355,
      "Ġis": 356,
      "and": 357,
      "am": 358,
      "ĠĠĠĠ": 359,
      "Ġas": 360,
      "ĊĊ": 361,
      "Ġwith": 362,
      "the": 363,
      "Ġwe": 364,
      "ri": 365,
      "ĠS": 366,
      "Ġst": 367,
      "Ġhis": 368,
      "ĠA": 369,
      "th": 370,
      "ter": 371,
      "ĠM": 372,
      "ĠC": 373,
      "Ġyou": 374,
      "Ġan": 375,
      "ght": 376,
      "ra": 377,
      "il": 378,
      "all": 379,
      "ill": 380,
      "Ġat": 381,
      "oo": 382,
      "if": 383,
      "Ġnot": 384,
      "ain": 385,
      "ĠB": 386,
      "ĠH": 387,
      "Ġ1": 388,
      "red": 389,
      "ke": 390,
      "ich": 391,
      "Ġha": 392,
      "ul": 393,
      "ation": 394,
      "ess": 395,
      "ould": 396,
      "Ġhad": 397,
      "Ġse": 398,
      "ĠThe": 399,
      "pe": 400,
      "Ġby": 401,
      "rom": 402,
      "ge": 403,
      "Ġsu": 404,
      "âĢĶ": 405,
      "Ġde": 406,
      "ore": 407,
      "ac": 408,
      "us": 409,
      "her": 410,
      "Ġsh": 411,
      "qu": 412,
      "res": 413,
      "ĊĊĠĠĠĠ": 414,
      "Ġher": 415,
      "ol": 416,
      "Ġcon": 417,
      "Ġor": 418,
      "ĠP": 419,
      "ab": 420,
      "Ġwhich": 421,
      "est": 422,
      "Ġme": 423,
      "ers": 424,
      "to": 425,
      "âĢĻ": 426,
      "ĠW": 427,
      "ome": 428,
      "ard": 429,
      "ant": 430,
      "Ġfrom": 431,
      "Ġhave": 432,
      "âĢľ": 433,
      "Ġv": 434,
      "Ġso": 435,
      "pp": 436,
      "Ġex": 437,
      "un": 438,
      "ist": 439,
      "ous": 440,
      "âĢĿ": 441,
      "ight": 442,
      "ate": 443,
      "el": 444,
      "ĠL": 445,
      "os": 446,
      "um": 447,
      "Ġne": 448,
      "Ġall": 449,
      "em": 450,
      "Ġhim": 451,
      "Ġthis": 452,
      "our": 453,
      "Ġare": 454,
      "Ġbut": 455,
      "ĠF": 456,
      "ust": 457,
      "ĠG": 458,
      "Ġr": 459,
      "Ġk": 460,
      "ig": 461,
      "art": 462,
      "nt": 463,
      "ie": 464,
      "Ġsa": 465,
      "The": 466,
      "Ġwere": 467,
      "ĠD": 468,
      "Ġch": 469,
      "Ġle": 470,
      "ast": 471,
      "ĊĊĠĠĠĠĠ": 472,
      "'s": 473,
      "Ġwhe": 474,
      "Ġthey": 475,
      "ĠE": 476,
      "Ġup": 477,
      "ong": 478,
      "Ġshe": 479,
      "Ġ\"": 480,
      "iv": 481,
      "ive": 482,
      "Ġcom": 483,
      "ĠR": 484,
      "Ġal": 485,
      "ort": 486,
      "ap": 487,
      "Ġmy": 488,
      "Ġwho": 489,
      "ity": 490,
      "Ġpro": 491,
      "out": 492,
      "very": 493,
      "Ġtheir": 494,
      "ame": 495,
      "Ġone": 496,
      "ies": 497,
      "ound": 498,
      "ind": 499,
      "of": 500,
      "Ġman": 501,
      "Ġdo": 502,
      "ak": 503,
      "od": 504,
      "op": 505,
      "ood": 506,
      "ure": 507,
      "ost": 508,
      "ell": 509,
      "Ġab": 510,
      "Ġthem": 511,
      "ther": 512,
      "ry": 513,
      "ĠJ": 514,
      "ment": 515,
      "ough": 516,
      "ĠĠĠ": 517,
      "ĠN": 518,
      "Ġwor": 519,
      "ag": 520,
      "reat": 521,
      "own": 522,
      "ect": 523,
      "one": 524,
      "Ġpl": 525,
      "Ġno": 526,
      "ĠO": 527,
      "te": 528,
      "sel": 529,
      "Ġbeen": 530,
      "ci": 531,
      "ck": 532,
      "pt": 533,
      "ine": 534,
      "ish": 535,
      ".\"": 536,
      "ide": 537,
      "itt": 538,
      "Ġout": 539,
      "ance": 540,
      "Ġthere": 541,
      "ne": 542,
      "ud": 543,
      "Ġwould": 544,
      "pl": 545,
      "Ġ2": 546,
      "ose": 547,
      "Ġar": 548,
      "ff": 549,
      "ĊĊĠĠĠ": 550,
      "ond": 551,
      "av": 552,
      "Ġwill": 553,
      "ace": 554,
      "Ġsaid": 555,
      "ass": 556,
      "hed": 557,
      "ook": 558,
      "are": 559,
      "ack": 560,
      "able": 561,
      "cc": 562,
      "Ġj": 563,
      "per": 564,
      "ake": 565,
      "ence": 566,
      "ĠâĢľ": 567,
      "Ġ(": 568,
      "ire": 569,
      "ally": 570,
      "Ġcan": 571,
      "ĠHe": 572,
      "ear": 573,
      "ice": 574,
      "ime": 575,
      "au": 576,
      "Ġwhen": 577,
      "Ġun": 578,
      "Ġmore": 579,
      "ru": 580,
      "Ġqu": 581,
      "ount": 582,
      "ord": 583,
      ",\"": 584,
      "Ġhas": 585,
      "we": 586,
      "Ġsp": 587,
      "Ġli": 588,
      "ions": 589,
      "Ġen": 590,
      "Ġad": 591,
      "Ġother": 592,
      "Ġus": 593,
      "ary": 594,
      "ans": 595,
      "Ġim": 596,
      "ber": 597,
      "Ġgo": 598,
      "ade": 599,
      "ep": 600,
      "Ġag": 601,
      "Ġ19": 602,
      "Ġinto": 603,
      "ven": 604,
      "age": 605,
      "Ġsome": 606,
      "Ġkn": 607,
      "ove": 608,
      "ite": 609,
      "Ġcl": 610,
      "ays": 611,
      "Ġtw": 612,
      "Ġany": 613,
      "self": 614,
      "ated": 615,
      "Ġfe": 616,
      "nder": 617,
      "ng": 618,
      "ree": 619,
      "Ġif": 620,
      "Ġro": 621,
      "ble": 622,
      "fter": 623,
      "ĠIt": 624,
      "other": 625,
      "ress": 626,
      "fore": 627,
      "act": 628,
      "Ġdis": 629,
      "be": 630,
      "tain": 631,
      "Ġits": 632,
      "urn": 633,
      "Ġthan": 634,
      "Ġgr": 635,
      "Ġour": 636,
      "ings": 637,
      "oll": 638,
      "Ġyour": 639,
      "Ġam": 640,
      "Ġpr": 641,
      "cl": 642,
      "bl": 643,
      "ach": 644,
      "Ġtime": 645,
      "for": 646,
      "ile": 647,
      "ĠTh": 648,
      "Ġvery": 649,
      "Ġcould": 650,
      "wn": 651,
      "oy": 652,
      "Ġbr": 653,
      "wh": 654,
      "Ġgreat": 655,
      "Ġper": 656,
      ".âĢĿ": 657,
      "ia": 658,
      "ick": 659,
      "ious": 660,
      "ittle": 661,
      "ought": 662,
      "Ġover": 663,
      "Ġpart": 664,
      "fe": 665,
      "Ġwhat": 666,
      "ved": 667,
      "ang": 668,
      "Ġabout": 669,
      "uch": 670,
      "ife": 671,
      "ild": 672,
      "ied": 673,
      "ip": 674,
      "ue": 675,
      "Ġonly": 676,
      "ĠIn": 677,
      "ark": 678,
      "ren": 679,
      "int": 680,
      "Ġlike": 681,
      "ave": 682,
      "so": 683,
      "ory": 684,
      "Ġfl": 685,
      "Ġbl": 686,
      "Ġtr": 687,
      "Ġpre": 688,
      "Ġupon": 689,
      "ull": 690,
      "irst": 691,
      "iz": 692,
      "hing": 693,
      "ty": 694,
      "ons": 695,
      "ful": 696,
      "man": 697,
      "ink": 698,
      "ĠCh": 699,
      "Ġnow": 700,
      "Ġmay": 701,
      "Ġtwo": 702,
      "ign": 703,
      "og": 704,
      "ward": 705,
      "Ġthen": 706,
      "Ġdes": 707,
      "ater": 708,
      "Ġlittle": 709,
      "Ġpe": 710,
      "Ġknow": 711,
      "ather": 712,
      "ĠSt": 713,
      "ĠMr": 714,
      "Ġafter": 715,
      "Ġoff": 716,
      "Ġres": 717,
      "ian": 718,
      "sh": 719,
      "ĠV": 720,
      "ath": 721,
      "ĊĠĠĠĠ": 722,
      "Ġdid": 723,
      "Ġpo": 724,
      "Ġtoo": 725,
      "old": 726,
      "Ġcomp": 727,
      "'t": 728,
      "ĠK": 729,
      "Ġshould": 730,
      "Ġmade": 731,
      "ces": 732,
      "Ġagain": 733,
      "ical": 734,
      "ition": 735,
      "mer": 736,
      "Ġsee": 737,
      "Ġthr": 738,
      "Ġthese": 739,
      "ise": 740,
      "Ġsc": 741,
      ",âĢĿ": 742,
      "ict": 743,
      "Ġrem": 744,
      "Ġhand": 745,
      "Ġri": 746,
      "ness": 747,
      "Ġunder": 748,
      "Ġ3": 749,
      "ĊĊĠ": 750,
      "orn": 751,
      "hen": 752,
      "ations": 753,
      "ult": 754,
      "Ġlong": 755,
      "Ġcont": 756,
      "oss": 757,
      "Ġsuch": 758,
      "Ġhow": 759,
      "de": 760,
      "Ġfirst": 761,
      "end": 762,
      "land": 763,
      "Ġspe": 764,
      "iss": 765,
      "ens": 766,
      "ft": 767,
      "Ġimp": 768,
      "Ġbefore": 769,
      "Ġgood": 770,
      "air": 771,
      "Ġlook": 772,
      "Ġwork": 773,
      "Ġyear": 774,
      "Ġra": 775,
      "its": 776,
      "ily": 777,
      "Ġwhere": 778,
      "way": 779,
      "Ġbec": 780,
      "that": 781,
      "Ġmust": 782,
      "ph": 783,
      "ĠY": 784,
      "hes": 785,
      "Ġmuch": 786,
      "Ġsm": 787,
      "Ġmost": 788,
      "Ġbet": 789,
      "ced": 790,
      "Ġdown": 791,
      "Th": 792,
      "ors": 793,
      "ase": 794,
      "ction": 795,
      "du": 796,
      "Ġcons": 797,
      "Ġevery": 798,
      "Ġcomm": 799,
      "ĠBut": 800,
      "Ġwell": 801,
      "ener": 802,
      "ĊĠĠĠĠĠ": 803,
      "Ġold": 804,
      "Ġ18": 805,
      "Ġacc": 806,
      "les": 807,
      "Ġmen": 808,
      "ran": 809,
      "ial": 810,
      "Ġday": 811,
      "igh": 812,
      "resent": 813,
      "ouse": 814,
      "led": 815,
      "oth": 816,
      "Ġown": 817,
      "ady": 818,
      "Ġeven": 819,
      "00": 820,
      "aw": 821,
      "?\"": 822,
      "Ġob": 823,
      "rit": 824,
      "Â©": 825,
      "erv": 826,
      "not": 827,
      "Ġapp": 828,
      "Ġthose": 829,
      "Ġthrough": 830,
      "with": 831,
      "Ġway": 832,
      "Ġbeing": 833,
      "li": 834,
      "ail": 835,
      "Ġlife": 836,
      "Ġmany": 837,
      "ock": 838,
      "Ġgl": 839,
      "ates": 840,
      "Ġback": 841,
      "Ġear": 842,
      "up": 843,
      "ont": 844,
      "ower": 845,
      "ĠAnd": 846,
      "ER": 847,
      "ĠU": 848,
      "Ġnever": 849,
      "ause": 850,
      "ents": 851,
      "Pg": 852,
      "ople": 853,
      "Ġap": 854,
      "Ġpass": 855,
      "Ġent": 856,
      "ried": 857,
      "Ġcame": 858,
      ".,": 859,
      "Ġsay": 860,
      "ject": 861,
      "ted": 862,
      "Ġsl": 863,
      "Ġfound": 864,
      "It": 865,
      "over": 866,
      "pect": 867,
      "Ġatt": 868,
      "uth": 869,
      "ix": 870,
      "ving": 871,
      "And": 872,
      "med": 873,
      "Ġcall": 874,
      "ex": 875,
      "..": 876,
      "ited": 877,
      "Ġbel": 878,
      "ible": 879,
      "ked": 880,
      "ves": 881,
      "atter": 882,
      "Ġmake": 883,
      "Ġhere": 884,
      "Ġseem": 885,
      "Ġsame": 886,
      "Ġjust": 887,
      "less": 888,
      "ual": 889,
      "Ġmight": 890,
      "Ġrep": 891,
      "ared": 892,
      "Ġthink": 893,
      "HE": 894,
      "Ġcome": 895,
      "ple": 896,
      "Ġrec": 897,
      "ever": 898,
      "und": 899,
      "Wh": 900,
      "Ġcount": 901,
      "row": 902,
      "ished": 903,
      "Ġlet": 904,
      "Ġsub": 905,
      "Ġalso": 906,
      "ures": 907,
      "Ġke": 908,
      "Ġcar": 909,
      "cess": 910,
      "but": 911,
      "ollow": 912,
      "Ġdist": 913,
      "was": 914,
      "aking": 915,
      "He": 916,
      "ms": 917,
      "omet": 918,
      "Ġac": 919,
      "get": 920,
      "Ġtra": 921,
      "Ġey": 922,
      "gg": 923,
      "ular": 924,
      "ret": 925,
      "Ġget": 926,
      "Ġfar": 927,
      "ib": 928,
      "Ġ4": 929,
      "Ġem": 930,
      "Ġnew": 931,
      "me": 932,
      "rest": 933,
      "Ġend": 934,
      "by": 935,
      "vers": 936,
      "Ġop": 937,
      "ss": 938,
      "Ġthought": 939,
      "ĠShe": 940,
      "ks": 941,
      "ertain": 942,
      "oc": 943,
      "Ġsupp": 944,
      "gin": 945,
      "Ġlast": 946,
      "ars": 947,
      "Ġwithout": 948,
      "riend": 949,
      "Ġhimself": 950,
      "ined": 951,
      "vel": 952,
      "ened": 953,
      "ew": 954,
      "Ġpeople": 955,
      "âĢĺ": 956,
      "In": 957,
      "ool": 958,
      "Ġreg": 959,
      "Ġdif": 960,
      "Ġrel": 961,
      "ĠThis": 962,
      "Ġnat": 963,
      "Ġchar": 964,
      "Ġwhile": 965,
      "ope": 966,
      "Ġplace": 967,
      "Ġyears": 968,
      "Ġinst": 969,
      "Ġret": 970,
      "Ġwom": 971,
      "ob": 972,
      "Ġshall": 973,
      "imes": 974,
      "ting": 975,
      "su": 976,
      "com": 977,
      "Ġsec": 978,
      "here": 979,
      "Ġstill": 980,
      "Ġright": 981,
      "ĠWh": 982,
      "ning": 983,
      "Ġte": 984,
      "!\"": 985,
      "vent": 986,
      "Ġcour": 987,
      "Ġhead": 988,
      "ale": 989,
      "als": 990,
      "ince": 991,
      "Ġappe": 992,
      "Ġwent": 993,
      "ered": 994,
      "ds": 995,
      "Ġsur": 996,
      "cept": 997,
      "ween": 998,
      "Ġpers": 999,
      "Ġtake": 1000,
      "Ġact": 1001,
      "ner": 1002,
      "ĠThey": 1003,
      "Ġturn": 1004,
      "Ġaway": 1005,
      "ton": 1006,
      "ĠEng": 1007,
      "ten": 1008,
      "Ġset": 1009,
      "Ġfollow": 1010,
      "Ġthree": 1011,
      "ts": 1012,
      "Ġstr": 1013,
      "Ġchild": 1014,
      "der": 1015,
      "ubl": 1016,
      "oh": 1017,
      "most": 1018,
      "aid": 1019,
      "Ġ5": 1020,
      "17": 1021,
      "ently": 1022,
      "pr": 1023,
      "Ġwar": 1024,
      "gan": 1025,
      "Ġbo": 1026,
      "irect": 1027,
      "Ġind": 1028,
      "ĠWe": 1029,
      "Ġexp": 1030,
      "Ġyoung": 1031,
      "cy": 1032,
      "ins": 1033,
      "Ġ'": 1034,
      "ract": 1035,
      "Ġgiv": 1036,
      "ating": 1037,
      "Ġmar": 1038,
      "alf": 1039,
      "ps": 1040,
      "Ġwr": 1041,
      "ways": 1042,
      "Ġgener": 1043,
      "But": 1044,
      "att": 1045,
      "Ġfriend": 1046,
      "ters": 1047,
      "ier": 1048,
      "ments": 1049,
      "ody": 1050,
      "ities": 1051,
      "aut": 1052,
      "Ã©": 1053,
      "ffect": 1054,
      "Ġput": 1055,
      "uring": 1056,
      "Ġposs": 1057,
      "ither": 1058,
      "Ġlar": 1059,
      "Ġfew": 1060,
      "Ġwater": 1061,
      "which": 1062,
      "Ġpresent": 1063,
      "any": 1064,
      "Ġhouse": 1065,
      "Ġnear": 1066,
      "Ġfind": 1067,
      "Ġinte": 1068,
      "ĊĊĠĠĠĠĠĠĠĠ": 1069,
      "Ġint": 1070,
      "fl": 1071,
      "Ġnor": 1072,
      "Ġocc": 1073,
      "ired": 1074,
      "my": 1075,
      "Ġsomet": 1076,
      "ows": 1077,
      "Ġwant": 1078,
      "ec": 1079,
      "Ġever": 1080,
      "Ġnight": 1081,
      "rent": 1082,
      "Ġinc": 1083,
      "osed": 1084,
      "ason": 1085,
      "Ġleft": 1086,
      "els": 1087,
      "Ġeach": 1088,
      "ross": 1089,
      "Ġeyes": 1090,
      "Ġbetween": 1091,
      "Ġyet": 1092,
      "Ġworld": 1093,
      "Ġ6": 1094,
      "Ġanother": 1095,
      "Ġlight": 1096,
      "Ġthough": 1097,
      "ug": 1098,
      "den": 1099,
      "ived": 1100,
      "ĠâĢĺ": 1101,
      "Ġpur": 1102,
      "eth": 1103,
      "irl": 1104,
      "men": 1105,
      "Ġagainst": 1106,
      "Ġadd": 1107,
      "ĠThere": 1108,
      "Ġco": 1109,
      "ised": 1110,
      "ines": 1111,
      "aken": 1112,
      "amp": 1113,
      "Ġheart": 1114,
      "thing": 1115,
      "Ġev": 1116,
      "ON": 1117,
      "Ġsmall": 1118,
      "Ġinter": 1119,
      "rew": 1120,
      "gr": 1121,
      "outh": 1122,
      "alk": 1123,
      "18": 1124,
      "Ġonce": 1125,
      "Ġbu": 1126,
      "Ġtell": 1127,
      "Ġlove": 1128,
      "his": 1129,
      "cri": 1130,
      "iness": 1131,
      "con": 1132,
      "Ġgu": 1133,
      "Ġcountry": 1134,
      "Ġgive": 1135,
      "Ġ192": 1136,
      "ific": 1137,
      "ully": 1138,
      "ub": 1139,
      "Ġmin": 1140,
      "aster": 1141,
      "IN": 1142,
      "Ġter": 1143,
      "Ġface": 1144,
      "Ġfact": 1145,
      "Ġart": 1146,
      "15": 1147,
      "ene": 1148,
      "ants": 1149,
      "Ġrest": 1150,
      "Ġmon": 1151,
      "ief": 1152,
      "ĠMar": 1153,
      "new": 1154,
      "Ġside": 1155,
      "ĠGod": 1156,
      "Ġhome": 1157,
      "ys": 1158,
      "Ġread": 1159,
      "ched": 1160,
      "Ġkind": 1161,
      "aps": 1162,
      "ohn": 1163,
      "Ġform": 1164,
      "Ġdon": 1165,
      "Ġdisc": 1166,
      "ern": 1167,
      "pped": 1168,
      "Ġtook": 1169,
      "Ġland": 1170,
      "Ġcalled": 1171,
      "?âĢĿ": 1172,
      ".âĢĶ": 1173,
      "Ġmind": 1174,
      "Ġfam": 1175,
      "Ġalways": 1176,
      "Ġsaw": 1177,
      "Ġboth": 1178,
      "Ġass": 1179,
      "Ġple": 1180,
      "You": 1181,
      "ute": 1182,
      "rist": 1183,
      "lish": 1184,
      "ield": 1185,
      "Ġhigh": 1186,
      "read": 1187,
      "oot": 1188,
      "Ġcertain": 1189,
      "Ġins": 1190,
      "Ġcle": 1191,
      "form": 1192,
      "Ġpoint": 1193,
      "br": 1194,
      "Ġcap": 1195,
      "Ġstre": 1196,
      "ĠUn": 1197,
      "Ġhapp": 1198,
      "iet": 1199,
      "ĠAs": 1200,
      "Ġnothing": 1201,
      "Ġsy": 1202,
      "uthor": 1203,
      "ĠAr": 1204,
      "selves": 1205,
      "--": 1206,
      "wards": 1207,
      "Ġcare": 1208,
      "ider": 1209,
      "Ġ17": 1210,
      "AN": 1211,
      "az": 1212,
      "Ġser": 1213,
      "ably": 1214,
      "ution": 1215,
      "Ġnum": 1216,
      "Ġname": 1217,
      "ately": 1218,
      "Ġext": 1219,
      "Ġreturn": 1220,
      "Ġuse": 1221,
      "Ġcond": 1222,
      "Ġhalf": 1223,
      "Ġref": 1224,
      "Ġthings": 1225,
      "),": 1226,
      "cial": 1227,
      "II": 1228,
      "ged": 1229,
      "Ġwhole": 1230,
      "mon": 1231,
      "oun": 1232,
      "Ġunt": 1233,
      "Ġ8": 1234,
      "Ġless": 1235,
      "Ġ193": 1236,
      "Ġbecause": 1237,
      "meric": 1238,
      "Ġhum": 1239,
      "Ġdra": 1240,
      "Ġamong": 1241,
      "Ġsw": 1242,
      "Ġseen": 1243,
      "Ġcol": 1244,
      "ĊĊĠĠĠĠĊĊĠĠĠĠĠ": 1245,
      "Ġlarge": 1246,
      "ury": 1247,
      "ident": 1248,
      "Ġph": 1249,
      "Ġconf": 1250,
      "Ġsk": 1251,
      "ives": 1252,
      "ches": 1253,
      "Ġcr": 1254,
      "ually": 1255,
      "16": 1256,
      "Ġadv": 1257,
      "Ġpower": 1258,
      "Ġbest": 1259,
      "pro": 1260,
      "ange": 1261,
      "urch": 1262,
      "Ġcur": 1263,
      "Ġdays": 1264,
      "gether": 1265,
      "Ġ7": 1266,
      "19": 1267,
      "ublic": 1268,
      "Ġhel": 1269,
      "Ġfather": 1270,
      "Ġhard": 1271,
      "lect": 1272,
      "ĠAn": 1273,
      "right": 1274,
      "Ġsoon": 1275,
      "ĠYou": 1276,
      "Ġmom": 1277,
      "day": 1278,
      "Ġgot": 1279,
      "Ġhaving": 1280,
      "Ġche": 1281,
      "Ġsent": 1282,
      "Ġboy": 1283,
      "Ġneed": 1284,
      "Ġcourse": 1285,
      "Ġed": 1286,
      "ative": 1287,
      "ased": 1288,
      "ank": 1289,
      "augh": 1290,
      "ĠIf": 1291,
      "fic": 1292,
      "ison": 1293,
      "iew": 1294,
      "Ġhands": 1295,
      "Ġfeel": 1296,
      "Ġinterest": 1297,
      "ages": 1298,
      "had": 1299,
      "now": 1300,
      "tend": 1301,
      "Ġdel": 1302,
      "osition": 1303,
      "ude": 1304,
      "Ġcent": 1305,
      "Ġgoing": 1306,
      "Ġbro": 1307,
      "atch": 1308,
      "wor": 1309,
      "ĠÂ©": 1310,
      "ĠRe": 1311,
      "ling": 1312,
      "ery": 1313,
      "Ġfell": 1314,
      "We": 1315,
      "Ġgirl": 1316,
      "Ġhour": 1317,
      "Ġfour": 1318,
      "you": 1319,
      "Ġdet": 1320,
      "Ġdone": 1321,
      "xt": 1322,
      "ians": 1323,
      "no": 1324,
      "Ġdoes": 1325,
      "akes": 1326,
      "Ġtold": 1327,
      "Ġsim": 1328,
      "Ġthing": 1329,
      "from": 1330,
      "ense": 1331,
      "Ġstand": 1332,
      "Ġhowever": 1333,
      "14": 1334,
      "ĠInd": 1335,
      "Ġtri": 1336,
      "Ġbetter": 1337,
      "ets": 1338,
      "Ġvis": 1339,
      "Ġdiffe": 1340,
      "Ġwind": 1341,
      "ĠAl": 1342,
      "Ġfore": 1343,
      "Ġgra": 1344,
      "Ġserv": 1345,
      "Ġmil": 1346,
      "uss": 1347,
      "ung": 1348,
      "Ġinv": 1349,
      "owed": 1350,
      "ides": 1351,
      "arn": 1352,
      "Ġuntil": 1353,
      "Ġel": 1354,
      "ĠHis": 1355,
      "Ġroom": 1356,
      "Ġdec": 1357,
      "ention": 1358,
      "ah": 1359,
      "app": 1360,
      "ric": 1361,
      "Ġmother": 1362,
      "Ġlooked": 1363,
      "Ġalmost": 1364,
      "ĠMrs": 1365,
      "Ġbelie": 1366,
      "ism": 1367,
      "ash": 1368,
      "AR": 1369,
      "ceed": 1370,
      "Ġprodu": 1371,
      "ĠJohn": 1372,
      "Ġwoman": 1373,
      "eng": 1374,
      "ES": 1375,
      "Ġans": 1376,
      "elt": 1377,
      "Ġste": 1378,
      "oub": 1379,
      "Ġmo": 1380,
      "bed": 1381,
      "Ġsat": 1382,
      "Ġplay": 1383,
      "Ġmatter": 1384,
      "ided": 1385,
      "Ġasked": 1386,
      "stand": 1387,
      "Ġused": 1388,
      "!âĢĿ": 1389,
      "Ġcontin": 1390,
      "ĠAmeric": 1391,
      "Ġbook": 1392,
      "ility": 1393,
      "ĠSe": 1394,
      "Ġmoment": 1395,
      "Ġperson": 1396,
      "haps": 1397,
      "sp": 1398,
      "Ġheard": 1399,
      "Ġdep": 1400,
      "Ġwhom": 1401,
      "ering": 1402,
      "Ġremain": 1403,
      "Ġseemed": 1404,
      "Ġbus": 1405,
      "OR": 1406,
      ".;": 1407,
      "Ġkeep": 1408,
      "Ġbeaut": 1409,
      "Ġtru": 1410,
      "Ch": 1411,
      "Ġfin": 1412,
      "13": 1413,
      "oice": 1414,
      "io": 1415,
      "Ġtaken": 1416,
      "iam": 1417,
      "Ġreal": 1418,
      "Ġ15": 1419,
      "Ġfr": 1420,
      "ured": 1421,
      "ural": 1422,
      "oney": 1423,
      "Ġopen": 1424,
      "ey": 1425,
      "rench": 1426,
      "ape": 1427,
      "Ġes": 1428,
      "chool": 1429,
      "Ġbre": 1430,
      "Ġenough": 1431,
      "Ġtre": 1432,
      "Ġsil": 1433,
      "undred": 1434,
      "ĠAt": 1435,
      "Ġgiven": 1436,
      "Ġhor": 1437,
      "ames": 1438,
      "Ġrece": 1439,
      "THE": 1440,
      "Ġwhite": 1441,
      "used": 1442,
      "ized": 1443,
      "orning": 1444,
      "aring": 1445,
      "Ġsays": 1446,
      "'ll": 1447,
      "irc": 1448,
      "Ġquite": 1449,
      "Ġlaw": 1450,
      "alth": 1451,
      "Ġsuff": 1452,
      "ott": 1453,
      "ances": 1454,
      "Ġknew": 1455,
      "olog": 1456,
      "Ġorder": 1457,
      "Ġpol": 1458,
      "Ġfull": 1459,
      "sc": 1460,
      "ards": 1461,
      "No": 1462,
      "Ġoften": 1463,
      "fect": 1464,
      "ĠDe": 1465,
      "ached": 1466,
      "ĠSp": 1467,
      "fort": 1468,
      "Ġbeh": 1469,
      "peri": 1470,
      "Ġcor": 1471,
      "ax": 1472,
      "Ġvar": 1473,
      "What": 1474,
      "EN": 1475,
      "Ġhelp": 1476,
      "uc": 1477,
      "fully": 1478,
      "Ġinde": 1479,
      "Ġopp": 1480,
      "Ġmod": 1481,
      "aim": 1482,
      "oul": 1483,
      "reen": 1484,
      "redits": 1485,
      "Ġprov": 1486,
      "ĠFor": 1487,
      "Ġsomething": 1488,
      "Ġpri": 1489,
      "ient": 1490,
      ",âĢĶ": 1491,
      "Ġadm": 1492,
      "estion": 1493,
      "ote": 1494,
      "ĠNew": 1495,
      ").": 1496,
      "There": 1497,
      "Ġgave": 1498,
      "Credits": 1499,
      "Ġstud": 1500,
      "Ġ9": 1501,
      "Ġconst": 1502,
      "10": 1503,
      "Ġ16": 1504,
      "Ġ20": 1505,
      "Ġsince": 1506,
      "ressed": 1507,
      "ĠCom": 1508,
      "Ġdirect": 1509,
      "Ġauthor": 1510,
      "ature": 1511,
      "Ġbrought": 1512,
      "tern": 1513,
      "pend": 1514,
      "Ġdoor": 1515,
      "ists": 1516,
      "This": 1517,
      "acter": 1518,
      "ĊĠ": 1519,
      "20": 1520,
      "ĠChrist": 1521,
      "Ġprom": 1522,
      "Ġmem": 1523,
      "Ġmet": 1524,
      "Ġ10": 1525,
      "Ġking": 1526,
      "ĠOn": 1527,
      "oint": 1528,
      "son": 1529,
      "ird": 1530,
      "ĠĠĠĠĠĠĠĠ": 1531,
      "TER": 1532,
      "ĠPro": 1533,
      "Ġtrans": 1534,
      "Ġpres": 1535,
      "Ġnext": 1536,
      "Ġdeath": 1537,
      "Ġstate": 1538,
      "Ġplac": 1539,
      "Ġothers": 1540,
      "CH": 1541,
      "ices": 1542,
      "Ġest": 1543,
      "Ġprop": 1544,
      "ccess": 1545,
      "Ġwhose": 1546,
      "Ġfall": 1547,
      "ĠWhen": 1548,
      "him": 1549,
      "empt": 1550,
      "ii": 1551,
      "Ġround": 1552,
      "rence": 1553,
      "ert": 1554,
      "Ġ[": 1555,
      "enty": 1556,
      "ĠTHE": 1557,
      "Ġeffect": 1558,
      "Ġfeet": 1559,
      "She": 1560,
      "Ġide": 1561,
      "Ġheav": 1562,
      "range": 1563,
      "Ġ&": 1564,
      "Ġabove": 1565,
      "Ġshort": 1566,
      "Ġknown": 1567,
      "Ġrather": 1568,
      "ics": 1569,
      "Ġnecess": 1570,
      "Ġlo": 1571,
      "Ġdark": 1572,
      "ship": 1573,
      "they": 1574,
      "ĠPr": 1575,
      "use": 1576,
      "ann": 1577,
      "Ġimport": 1578,
      "Ġrun": 1579,
      "Ġhundred": 1580,
      "erm": 1581,
      "uck": 1582,
      "Ġstory": 1583,
      "were": 1584,
      "overed": 1585,
      "Ġill": 1586,
      "have": 1587,
      "Ġalong": 1588,
      "Ġwords": 1589,
      "ĠEnglish": 1590,
      "Ġduring": 1591,
      "entle": 1592,
      "Ġcase": 1593,
      "ĠThen": 1594,
      "Mr": 1595,
      "ait": 1596,
      "12": 1597,
      "oke": 1598,
      "ĠLe": 1599,
      "Ġsecond": 1600,
      "ĠSo": 1601,
      "unt": 1602,
      "Ġval": 1603,
      "ĠBr": 1604,
      "Ġsubject": 1605,
      "Ġsix": 1606,
      "ĠMiss": 1607,
      "Ġmorning": 1608,
      "Ġsun": 1609,
      "aves": 1610,
      "ley": 1611,
      "une": 1612,
      "ane": 1613,
      "Ġbegan": 1614,
      "Ġconsider": 1615,
      "ĠOF": 1616,
      "Ġlead": 1617,
      "Ġtogether": 1618,
      "king": 1619,
      "iving": 1620,
      "ken": 1621,
      "ats": 1622,
      "ĠLord": 1623,
      "Ġstrong": 1624,
      "Ġmean": 1625,
      "Ġcannot": 1626,
      "Ġrequ": 1627,
      "aint": 1628,
      "Ġthemselves": 1629,
      "ister": 1630,
      "That": 1631,
      "Ġsign": 1632,
      "ivers": 1633,
      "Ġspir": 1634,
      "ying": 1635,
      "Ġchildren": 1636,
      "ready": 1637,
      "par": 1638,
      "gy": 1639,
      "Ġturned": 1640,
      "Ġsle": 1641,
      "Ġpoor": 1642,
      "ety": 1643,
      "veral": 1644,
      "ole": 1645,
      "illed": 1646,
      "owing": 1647,
      "Ġaff": 1648,
      "Ġexpl": 1649,
      "well": 1650,
      "she": 1651,
      "ality": 1652,
      "Ġair": 1653,
      "val": 1654,
      "Ġclose": 1655,
      "Ġthus": 1656,
      "where": 1657,
      "Ġsure": 1658,
      "Ġmeans": 1659,
      "Ġhon": 1660,
      "Ġsing": 1661,
      "rance": 1662,
      "Ġtown": 1663,
      "ĠFrench": 1664,
      "ĠCor": 1665,
      "Ġdoub": 1666,
      "ĠPar": 1667,
      "Ġpar": 1668,
      "ĠNo": 1669,
      "Ġword": 1670,
      "ĠCl": 1671,
      "though": 1672,
      "Ġfire": 1673,
      "Ġground": 1674,
      "To": 1675,
      "Ġdifferent": 1676,
      "Ġbody": 1677,
      "this": 1678,
      "aj": 1679,
      "inci": 1680,
      "ountain": 1681,
      "ational": 1682,
      "ousand": 1683,
      "ĠBe": 1684,
      "Ġstart": 1685,
      "Ġtill": 1686,
      "ize": 1687,
      "Ġsum": 1688,
      "Ġreason": 1689,
      "ination": 1690,
      "ĠWill": 1691,
      "oud": 1692,
      "Ġproper": 1693,
      "nment": 1694,
      "Ġlay": 1695,
      "Ġgeneral": 1696,
      "Ġtrue": 1697,
      "que": 1698,
      "Ġeas": 1699,
      "asure": 1700,
      "Ġfelt": 1701,
      "Ġcomple": 1702,
      "iful": 1703,
      "ĠQ": 1704,
      "anger": 1705,
      "ring": 1706,
      "Ġcirc": 1707,
      "Ġmoney": 1708,
      "Ġ12": 1709,
      "Ġhold": 1710,
      "Ġmark": 1711,
      "Ġfa": 1712,
      "ges": 1713,
      "Ġcoll": 1714,
      "Ġtimes": 1715,
      "ĠTo": 1716,
      "Ġwond": 1717,
      "St": 1718,
      "Ġnumber": 1719,
      "Ġwithin": 1720,
      "Ġdev": 1721,
      "AP": 1722,
      "ney": 1723,
      "Ġpublic": 1724,
      "ĠEngland": 1725,
      "Ġfur": 1726,
      "ster": 1727,
      "Ġmeet": 1728,
      "Ġmus": 1729,
      "Ġ14": 1730,
      "ember": 1731,
      "Ġhist": 1732,
      "Ġobs": 1733,
      "ining": 1734,
      "Ġcharacter": 1735,
      "what": 1736,
      "ĠNor": 1737,
      "Ġblack": 1738,
      "itted": 1739,
      "Ġson": 1740,
      "Ġspec": 1741,
      "ream": 1742,
      "icular": 1743,
      "Ġswe": 1744,
      "bers": 1745,
      "oor": 1746,
      "When": 1747,
      "Ġequ": 1748,
      "like": 1749,
      "Ġdiv": 1750,
      ".)": 1751,
      "Ġseveral": 1752,
      "AT": 1753,
      "Ġdeep": 1754,
      "As": 1755,
      "Ġprof": 1756,
      "enn": 1757,
      "ĠCon": 1758,
      "Ġdr": 1759,
      "Ġele": 1760,
      "che": 1761,
      "erman": 1762,
      "Ġsuccess": 1763,
      "itions": 1764,
      "Ġpassed": 1765,
      "Ġwomen": 1766,
      "asion": 1767,
      "Ġwife": 1768,
      "Ġpain": 1769,
      "ĠStates": 1770,
      "Ġview": 1771,
      "Ġappro": 1772,
      "ĠKing": 1773,
      "Ġsol": 1774,
      "ues": 1775,
      "their": 1776,
      "stem": 1777,
      "'d": 1778,
      "arch": 1779,
      "ek": 1780,
      "Ġrepl": 1781,
      "Ġmer": 1782,
      "Ġaw": 1783,
      "Ġvoice": 1784,
      "let": 1785,
      "there": 1786,
      "ĠSh": 1787,
      "them": 1788,
      "Ġappear": 1789,
      "Ġleast": 1790,
      "ĠPh": 1791,
      "Ġexam": 1792,
      "idence": 1793,
      "Ġoffic": 1794,
      "aving": 1795,
      "Ġnature": 1796,
      "Ġcommon": 1797,
      "pper": 1798,
      "Ġhope": 1799,
      "ĠEd": 1800,
      "Ġstood": 1801,
      "ĠCo": 1802,
      "Ġconc": 1803,
      "cing": 1804,
      "Ġsea": 1805,
      "Ġship": 1806,
      "Ġmyself": 1807,
      "Ġport": 1808,
      "Ġhuman": 1809,
      "ger": 1810,
      "Ġstru": 1811,
      "ued": 1812,
      "Ġdri": 1813,
      "Ġincl": 1814,
      "Ġ13": 1815,
      "fact": 1816,
      "Ġten": 1817,
      "Ġbelieve": 1818,
      "cious": 1819,
      "alt": 1820,
      "Ġgentle": 1821,
      "Ġpat": 1822,
      "ones": 1823,
      "Ġobject": 1824,
      "Ġwood": 1825,
      "Ġvol": 1826,
      "Ġearth": 1827,
      "ĠWhat": 1828,
      "Ġwrit": 1829,
      "Ġheld": 1830,
      "velop": 1831,
      "bs": 1832,
      "Ġschool": 1833,
      "owers": 1834,
      "Ġabs": 1835,
      "Ġfamily": 1836,
      "arm": 1837,
      "Ġred": 1838,
      "ising": 1839,
      "ĠSir": 1840,
      "ording": 1841,
      "AL": 1842,
      "rying": 1843,
      "ases": 1844,
      "Ġcut": 1845,
      "Ġfree": 1846,
      "Ġdoubt": 1847,
      "co": 1848,
      "Oh": 1849,
      "Ġthousand": 1850,
      "ĠBrit": 1851,
      "ĠIs": 1852,
      "ĠSc": 1853,
      "arr": 1854,
      "tained": 1855,
      "Ġfre": 1856,
      "Ġquestion": 1857,
      "wer": 1858,
      "Ġeither": 1859,
      "ĠThat": 1860,
      "Ġline": 1861,
      "rie": 1862,
      "ony": 1863,
      "Ġdear": 1864,
      "For": 1865,
      "Ġinf": 1866,
      "Ġaccount": 1867,
      "ĠHow": 1868,
      "Ġeng": 1869,
      "Ġitself": 1870,
      "ĠAd": 1871,
      "Ġclear": 1872,
      "Ġcity": 1873,
      "Ġpract": 1874,
      "cient": 1875,
      "Ġir": 1876,
      "iled": 1877,
      "side": 1878,
      "Ġaround": 1879,
      "Ġperhaps": 1880,
      "Ġpap": 1881,
      "ots": 1882,
      "Ġmain": 1883,
      "ĠAll": 1884,
      "eor": 1885,
      "Ġanything": 1886,
      "Ġalready": 1887,
      "Ġbed": 1888,
      "Ġmaking": 1889,
      "Ġbegin": 1890,
      "They": 1891,
      "iously": 1892,
      "idd": 1893,
      "ision": 1894,
      "arent": 1895,
      "Ġfive": 1896,
      "ection": 1897,
      "If": 1898,
      "ina": 1899,
      "Ã¦": 1900,
      "rigin": 1901,
      "Ġpossible": 1902,
      "oes": 1903,
      "Ġspeak": 1904,
      "Ġpast": 1905,
      "Ġbar": 1906,
      "25": 1907,
      "Ġearly": 1908,
      "orm": 1909,
      "Ġce": 1910,
      "ession": 1911,
      "Ġbecame": 1912,
      "An": 1913,
      "reg": 1914,
      "oura": 1915,
      "Ġbusiness": 1916,
      "oe": 1917,
      "Ġroad": 1918,
      "bert": 1919,
      "000": 1920,
      "Ġherself": 1921,
      "ament": 1922,
      "Ġfair": 1923,
      "ounded": 1924,
      "Ġgover": 1925,
      "attle": 1926,
      "Ġdef": 1927,
      "rem": 1928,
      "ained": 1929,
      "Ġstra": 1930,
      "cript": 1931,
      "ĊĊĠĠĠĠĠĠĠ": 1932,
      "Ġresult": 1933,
      "cul": 1934,
      "Ġtherefore": 1935,
      "Ġgone": 1936,
      "Ġpurp": 1937,
      "ths": 1938,
      "Ġlater": 1939,
      "dden": 1940,
      "ression": 1941,
      "Ġbecome": 1942,
      "Ġanim": 1943,
      "wo": 1944,
      "iver": 1945,
      "tered": 1946,
      "Ġru": 1947,
      "IS": 1948,
      "would": 1949,
      "Ġfear": 1950,
      "ustr": 1951,
      "Ġspirit": 1952,
      "Ġhear": 1953,
      "Ġbra": 1954,
      "iment": 1955,
      "Ġbring": 1956,
      "rel": 1957,
      "âĢĶâĢĶ": 1958,
      "Ġwall": 1959,
      "On": 1960,
      "Ġrespect": 1961,
      "otion": 1962,
      "lled": 1963,
      "str": 1964,
      "Ġsit": 1965,
      "Ġtem": 1966,
      "Ġca": 1967,
      "airs": 1968,
      "eneral": 1969,
      "head": 1970,
      "ission": 1971,
      "Ġexpect": 1972,
      "Ġalone": 1973,
      "Ġdiffic": 1974,
      "ush": 1975,
      "Ġprob": 1976,
      "Ġprot": 1977,
      "ries": 1978,
      "Ġfav": 1979,
      "Ġbur": 1980,
      "Ġfoot": 1981,
      "vol": 1982,
      "Ġremark": 1983,
      "Ġfollowing": 1984,
      "Ġve": 1985,
      "Ġfine": 1986,
      "Ġreels": 1987,
      "who": 1988,
      "iar": 1989,
      "ĠX": 1990,
      ".[": 1991,
      "ham": 1992,
      "Ġunderstand": 1993,
      "Ġfriends": 1994,
      "ictures": 1995,
      "Ġtreat": 1996,
      "ledge": 1997,
      "ĠCol": 1998,
      "aughter": 1999,
      "ĠHer": 2000,
      "Ġsudden": 2001,
      "flu": 2002,
      "Ġperfect": 2003,
      "Ġlive": 2004,
      "cr": 2005,
      "Ġtalk": 2006,
      "Ġdead": 2007,
      "Ġleave": 2008,
      "ius": 2009,
      "Ġgold": 2010,
      "Ġprinci": 2011,
      "erved": 2012,
      "medi": 2013,
      "Ġexc": 2014,
      "ounds": 2015,
      "Ġlow": 2016,
      "Ġorigin": 2017,
      "Ġbehind": 2018,
      "23": 2019,
      "ilt": 2020,
      "Ġlost": 2021,
      "Ġeff": 2022,
      "inter": 2023,
      "iter": 2024,
      "Ġletter": 2025,
      "band": 2026,
      "Ġleg": 2027,
      "24": 2028,
      "Ġable": 2029,
      "Ġmis": 2030,
      "'m": 2031,
      "sequ": 2032,
      "Ġindeed": 2033,
      "go": 2034,
      "Ġexcept": 2035,
      "under": 2036,
      "aught": 2037,
      "raph": 2038,
      "orts": 2039,
      "ploy": 2040,
      "Ġarri": 2041,
      "ondon": 2042,
      "ead": 2043,
      "Ġmanner": 2044,
      "Ġdro": 2045,
      "orrow": 2046,
      "ĠBl": 2047,
      "inct": 2048,
      "Ġparticular": 2049,
      "Ġmove": 2050,
      "itten": 2051,
      "room": 2052,
      "ĠChar": 2053,
      "ribut": 2054,
      "ork": 2055,
      "Ġlab": 2056,
      "Yes": 2057,
      "Ġdest": 2058,
      "bo": 2059,
      "ital": 2060,
      "Ġriver": 2061,
      "ified": 2062,
      "Ġchurch": 2063,
      "Ġshow": 2064,
      "ouble": 2065,
      "uct": 2066,
      "Ġcommand": 2067,
      "Ġmed": 2068,
      "Ġsoul": 2069,
      "Ġhorse": 2070,
      "Ġfig": 2071,
      "Ġsystem": 2072,
      "ically": 2073,
      "oman": 2074,
      "Ġbuild": 2075,
      "Ġwhether": 2076,
      "ĉĉ": 2077,
      "Ġseems": 2078,
      "mp": 2079,
      "Ġbrother": 2080,
      "body": 2081,
      "Ġmiles": 2082,
      "Ġfort": 2083,
      "Ġkept": 2084,
      "Ġtwenty": 2085,
      "inary": 2086,
      "anged": 2087,
      "ĠInc": 2088,
      "Ġregard": 2089,
      "ask": 2090,
      "Ġreally": 2091,
      "itude": 2092,
      "cially": 2093,
      "At": 2094,
      "Then": 2095,
      "antly": 2096,
      "lf": 2097,
      "Ġlearn": 2098,
      "Ġsold": 2099,
      "Ġfront": 2100,
      "Ġord": 2101,
      "ency": 2102,
      "ences": 2103,
      ".'": 2104,
      "mand": 2105,
      "Ġpay": 2106,
      "Ġclass": 2107,
      "Ġdecl": 2108,
      "utes": 2109,
      "LE": 2110,
      "ium": 2111,
      "iod": 2112,
      "ivid": 2113,
      "Ġwhy": 2114,
      "idge": 2115,
      "ught": 2116,
      "Ġvill": 2117,
      "ĠBy": 2118,
      "Ġtowards": 2119,
      "Ġacross": 2120,
      "RE": 2121,
      "Ġet": 2122,
      "ored": 2123,
      "light": 2124,
      "eb": 2125,
      "Ġmere": 2126,
      "Ġjud": 2127,
      "when": 2128,
      "ĊĠĠĠĠĊĊĠĠĠĠĠ": 2129,
      "Well": 2130,
      "Ġcal": 2131,
      "oly": 2132,
      "more": 2133,
      "face": 2134,
      "cle": 2135,
      "Ġbeautiful": 2136,
      "Ġcoming": 2137,
      "Ġreceived": 2138,
      "Ġpie": 2139,
      "My": 2140,
      "ĠCorp": 2141,
      "pre": 2142,
      "Ġwild": 2143,
      "Ġnearly": 2144,
      "ĠGr": 2145,
      "Ġtruth": 2146,
      "yn": 2147,
      "APTER": 2148,
      "Ġreplied": 2149,
      "Ġbes": 2150,
      "Ġnecessary": 2151,
      "ron": 2152,
      "wered": 2153,
      "Ġlist": 2154,
      "Ġexperi": 2155,
      "ze": 2156,
      "uff": 2157,
      "30": 2158,
      "rank": 2159,
      "Ġbene": 2160,
      "ustom": 2161,
      "Ġdevelop": 2162,
      "How": 2163,
      "ped": 2164,
      "ĠMy": 2165,
      "cent": 2166,
      "ĠAmerican": 2167,
      "Ġquick": 2168,
      "Ġchief": 2169,
      "Ġla": 2170,
      "Ġut": 2171,
      "Ġoccasion": 2172,
      "Ġthy": 2173,
      "eorge": 2174,
      "will": 2175,
      ");": 2176,
      "Ġlady": 2177,
      "Ġav": 2178,
      "LP": 2179,
      "'ve": 2180,
      "Ġcried": 2181,
      "Ġstri": 2182,
      "usband": 2183,
      "Ġmag": 2184,
      "pri": 2185,
      "ald": 2186,
      "ING": 2187,
      "come": 2188,
      "night": 2189,
      "Ġye": 2190,
      "Ġlooking": 2191,
      "IT": 2192,
      "Ġcross": 2193,
      "ND": 2194,
      "itting": 2195,
      "ĠThese": 2196,
      "Ġprint": 2197,
      "ears": 2198,
      "Ġexist": 2199,
      "ops": 2200,
      "ume": 2201,
      "Ġentire": 2202,
      "Ġblood": 2203,
      "Ġwish": 2204,
      "thern": 2205,
      "cons": 2206,
      "Ġaccom": 2207,
      "ills": 2208,
      "ĠOne": 2209,
      "Ġcold": 2210,
      "OU": 2211,
      "irector": 2212,
      "Ġincre": 2213,
      "dom": 2214,
      "Ġrepresent": 2215,
      "ĠGerman": 2216,
      "ĠWilliam": 2217,
      "irm": 2218,
      "Ġsometimes": 2219,
      "Ġstep": 2220,
      "Ġvisit": 2221,
      "Ġposition": 2222,
      "ories": 2223,
      "Ġfif": 2224,
      "ours": 2225,
      "Ġage": 2226,
      "Ġcommun": 2227,
      "ior": 2228,
      "ilm": 2229,
      "Ġnatural": 2230,
      "ĠPl": 2231,
      "add": 2232,
      "Ġbit": 2233,
      "nded": 2234,
      "Ġfield": 2235,
      "Ġcause": 2236,
      "sem": 2237,
      "how": 2238,
      "Ġwonder": 2239,
      "27": 2240,
      "Ġbir": 2241,
      "urope": 2242,
      "Ġarm": 2243,
      "fer": 2244,
      "Ġexcl": 2245,
      "iers": 2246,
      "ĠCar": 2247,
      "ogn": 2248,
      "Ġwait": 2249,
      "Ġcarried": 2250,
      "cer": 2251,
      "ement": 2252,
      "Ġcreat": 2253,
      "ils": 2254,
      "Ġdraw": 2255,
      "Ġelse": 2256,
      "Ġmountain": 2257,
      "So": 2258,
      "then": 2259,
      "Ġdut": 2260,
      "look": 2261,
      "Ġbad": 2262,
      "Ġbig": 2263,
      "Ġperiod": 2264,
      "Ġfollowed": 2265,
      "Ġran": 2266,
      "Ġty": 2267,
      "athe": 2268,
      "Ġworth": 2269,
      "itle": 2270,
      "Ġ25": 2271,
      "ruct": 2272,
      "some": 2273,
      "been": 2274,
      "Ġfurther": 2275,
      "irt": 2276,
      "aged": 2277,
      "emy": 2278,
      "Ġreturned": 2279,
      "Ġhar": 2280,
      "Ġhistory": 2281,
      "angu": 2282,
      "resh": 2283,
      "CHAPTER": 2284,
      "port": 2285,
      "Ġpop": 2286,
      "atic": 2287,
      "28": 2288,
      "Ġsight": 2289,
      "ĠFrance": 2290,
      "ength": 2291,
      "dis": 2292,
      "Ġtable": 2293,
      "bur": 2294,
      "ĠWith": 2295,
      "ples": 2296,
      "Ġhur": 2297,
      "Ġimportant": 2298,
      "pecially": 2299,
      "Ġplan": 2300,
      "yond": 2301,
      "Ġemploy": 2302,
      "Ġanswered": 2303,
      "Ġrelig": 2304,
      "26": 2305,
      "Ġrock": 2306,
      "Ġacqu": 2307,
      "Ġdisp": 2308,
      "Ġforce": 2309,
      "ested": 2310,
      "part": 2311,
      "Ġann": 2312,
      "IL": 2313,
      "Ġsense": 2314,
      "Ġready": 2315,
      "ises": 2316,
      "min": 2317,
      "Ġpriv": 2318,
      "yl": 2319,
      "Un": 2320,
      "ales": 2321,
      "Ġidea": 2322,
      "rodu": 2323,
      "ciety": 2324,
      "Ġpost": 2325,
      "Ġhours": 2326,
      "bit": 2327,
      "ĠDr": 2328,
      "Ġtou": 2329,
      "ev": 2330,
      "ĠLondon": 2331,
      "Ġfail": 2332,
      "29": 2333,
      "iding": 2334,
      "tr": 2335,
      "Ind": 2336,
      "af": 2337,
      "Ġcast": 2338,
      "Ġpurpose": 2339,
      "Ġeight": 2340,
      "...": 2341,
      "Ġhig": 2342,
      "Ġesc": 2343,
      "ĠCap": 2344,
      "erve": 2345,
      "ĠMay": 2346,
      "gl": 2347,
      "can": 2348,
      "ously": 2349,
      "ĠBritish": 2350,
      "Ġevening": 2351,
      "Ġfac": 2352,
      "gu": 2353,
      "Ġ24": 2354,
      "Ġpret": 2355,
      "ening": 2356,
      "na": 2357,
      "Ġinflu": 2358,
      "alked": 2359,
      "usion": 2360,
      "Ġhair": 2361,
      "urs": 2362,
      "ford": 2363,
      "Ġoper": 2364,
      "Ġsweet": 2365,
      "Ġsort": 2366,
      "11": 2367,
      "ĠRo": 2368,
      "house": 2369,
      "With": 2370,
      "Ġwon": 2371,
      "got": 2372,
      "ls": 2373,
      "Ġlim": 2374,
      "Ġreached": 2375,
      "Ġarms": 2376,
      "Ġfaith": 2377,
      "Ġthou": 2378,
      "Ġlate": 2379,
      "âĢĵ": 2380,
      "riage": 2381,
      "ires": 2382,
      "joy": 2383,
      "Ġsoft": 2384,
      "rough": 2385,
      "ctor": 2386,
      "ĠZ": 2387,
      "kn": 2388,
      "ĠDirector": 2389,
      "mit": 2390,
      "ively": 2391,
      "Ġled": 2392,
      "Ġhot": 2393,
      "ĠEx": 2394,
      "ĠHar": 2395,
      "aterial": 2396,
      "bled": 2397,
      "ighb": 2398,
      "Ġchange": 2399,
      "Ġbreak": 2400,
      "Ġpeace": 2401,
      "Ġsett": 2402,
      "Ġhealth": 2403,
      "IC": 2404,
      "Ġhusband": 2405,
      "aul": 2406,
      "Ġattempt": 2407,
      "anced": 2408,
      "Ġopin": 2409,
      "Ġliving": 2410,
      "Ġarmy": 2411,
      "cell": 2412,
      "Ġparty": 2413,
      "Ġimmedi": 2414,
      "inn": 2415,
      "Ġsupport": 2416,
      "Ġlad": 2417,
      "aimed": 2418,
      "ator": 2419,
      "amed": 2420,
      "Ġfood": 2421,
      "ift": 2422,
      "ected": 2423,
      "Ġmaster": 2424,
      "aff": 2425,
      "ams": 2426,
      "Ġplain": 2427,
      "appe": 2428,
      "ral": 2429,
      "ĠEurope": 2430,
      "aching": 2431,
      "Ġtaking": 2432,
      "Ġknowledge": 2433,
      "Ġsleep": 2434,
      "Ġimag": 2435,
      "iol": 2436,
      "iddle": 2437,
      "ox": 2438,
      "Ġcorn": 2439,
      "rect": 2440,
      "Ġservice": 2441,
      "Ġdeal": 2442,
      "Ġdanger": 2443,
      "Ġadded": 2444,
      "oved": 2445,
      "Ġcomplete": 2446,
      "formation": 2447,
      "ingly": 2448,
      "Ġ.": 2449,
      "ille": 2450,
      "ividual": 2451,
      "Ġsound": 2452,
      "Ġstrange": 2453,
      "cience": 2454,
      "Ġtop": 2455,
      "Ġprobably": 2456,
      "Ġformer": 2457,
      "formed": 2458,
      "Ġeye": 2459,
      "ivil": 2460,
      "Ġorgan": 2461,
      "ellow": 2462,
      "oon": 2463,
      "ĠLP": 2464,
      "50": 2465,
      "Ġquar": 2466,
      "ulation": 2467,
      "Ġlonger": 2468,
      "Ġpray": 2469,
      "Ġfight": 2470,
      "Ġlatter": 2471,
      "Ġappeared": 2472,
      "Ġanswer": 2473,
      "Ġvarious": 2474,
      "Ġthick": 2475,
      ",'": 2476,
      "time": 2477,
      "Ġself": 2478,
      "pan": 2479,
      "hood": 2480,
      "Ġmist": 2481,
      "Ġbeyond": 2482,
      "ĠMad": 2483,
      "Ġaccording": 2484,
      "teen": 2485,
      "Ġquiet": 2486,
      "Ġwatch": 2487,
      "Ġdied": 2488,
      "hand": 2489,
      "Ġnorth": 2490,
      "Ġloc": 2491,
      "col": 2492,
      "Ġconn": 2493,
      "ethod": 2494,
      "ference": 2495,
      "Ġdeterm": 2496,
      "Ġwalk": 2497,
      "Ġaffect": 2498,
      "OM": 2499,
      "essed": 2500,
      "Ġver": 2501,
      "Ġplaced": 2502,
      "Ġdog": 2503,
      "reet": 2504,
      "into": 2505,
      "Ġask": 2506,
      "Ġ30": 2507,
      "Ġslight": 2508,
      "play": 2509,
      "Ġought": 2510,
      "Ġstay": 2511,
      "after": 2512,
      "do": 2513,
      "hy": 2514,
      "Ġoccup": 2515,
      "arrow": 2516,
      "iff": 2517,
      "Ġfun": 2518,
      "Ġ28": 2519,
      "Ġprep": 2520,
      "ĠGeorge": 2521,
      "ging": 2522,
      "upon": 2523,
      "Ġlength": 2524,
      "oup": 2525,
      "Ġwide": 2526,
      "Ġsatis": 2527,
      "Ġsir": 2528,
      "iling": 2529,
      "Ġcra": 2530,
      "Ġestab": 2531,
      "ords": 2532,
      "ĠAfter": 2533,
      "Ġsugg": 2534,
      "about": 2535,
      "count": 2536,
      "Ġda": 2537,
      "oses": 2538,
      "ĠEl": 2539,
      "Ġcomes": 2540,
      "set": 2541,
      "Ġobl": 2542,
      "Mar": 2543,
      "Ġcamp": 2544,
      "Ġforward": 2545,
      "ror": 2546,
      "off": 2547,
      "Ġtitle": 2548,
      "Ġ26": 2549,
      "Al": 2550,
      "than": 2551,
      "Ġ23": 2552,
      "Ġproceed": 2553,
      "ĠUnited": 2554,
      "Ġslow": 2555,
      "Ġgrow": 2556,
      "All": 2557,
      "Ġcontinued": 2558,
      "EL": 2559,
      "Ġprocess": 2560,
      "Ġwit": 2561,
      "rs": 2562,
      "cont": 2563,
      "ler": 2564,
      "Ġgreen": 2565,
      "ED": 2566,
      "Ġtro": 2567,
      "Ġdeg": 2568,
      "itary": 2569,
      "Ġsqu": 2570,
      "Ġboys": 2571,
      "ĠYork": 2572,
      "ests": 2573,
      ".âĢĻ": 2574,
      "Ġcourt": 2575,
      "ext": 2576,
      "itor": 2577,
      "umst": 2578,
      "Ġscar": 2579,
      "ĠOr": 2580,
      "Ġ27": 2581,
      "ION": 2582,
      "Ġappl": 2583,
      "Ġaction": 2584,
      "'re": 2585,
      "Ġpolit": 2586,
      "Ġsend": 2587,
      "erson": 2588,
      "ossible": 2589,
      "Ġalthough": 2590,
      "Ġgard": 2591,
      "Ġwritten": 2592,
      "rupt": 2593,
      "acher": 2594,
      "ĠMan": 2595,
      "ouses": 2596,
      "Ġcre": 2597,
      "ee": 2598,
      "Ġtoward": 2599,
      "ixed": 2600,
      "amm": 2601,
      "Ġattention": 2602,
      "Ġattack": 2603,
      "eter": 2604,
      "Ġforth": 2605,
      "Ġsecret": 2606,
      "ST": 2607,
      "....": 2608,
      "acy": 2609,
      "uke": 2610,
      "orses": 2611,
      "des": 2612,
      "Ġparts": 2613,
      "gar": 2614,
      "ĠNow": 2615,
      "Ġsurpr": 2616,
      "Ġfast": 2617,
      "uture": 2618,
      "Ġdesign": 2619,
      "Why": 2620,
      "Ġhy": 2621,
      "idered": 2622,
      "ipp": 2623,
      "Ġund": 2624,
      "ike": 2625,
      "Ġprev": 2626,
      "Now": 2627,
      "ication": 2628,
      "Ġmusic": 2629,
      "Ġemb": 2630,
      "Ġresp": 2631,
      "irty": 2632,
      "ata": 2633,
      "ĠPhil": 2634,
      "ĠAND": 2635,
      "ilar": 2636,
      "Ġjo": 2637,
      "Ġgrand": 2638,
      "âĢ²": 2639,
      "Ġago": 2640,
      "nor": 2641,
      "ĠFrom": 2642,
      "ha": 2643,
      "Ġwat": 2644,
      "wise": 2645,
      "osp": 2646,
      "hel": 2647,
      "Ġmakes": 2648,
      "pid": 2649,
      "Ġgreater": 2650,
      "ience": 2651,
      "has": 2652,
      "Ġrose": 2653,
      "Ġfellow": 2654,
      "rill": 2655,
      "Ġtrees": 2656,
      "asant": 2657,
      "ograph": 2658,
      "ument": 2659,
      "Ġstreng": 2660,
      "inner": 2661,
      "ager": 2662,
      "Of": 2663,
      "Ġdidn": 2664,
      "Ġbright": 2665,
      "sy": 2666,
      "Ġespecially": 2667,
      "ĠHen": 2668,
      "Ġdifficult": 2669,
      "ology": 2670,
      "por": 2671,
      "Ġphys": 2672,
      "ply": 2673,
      "Ġjour": 2674,
      "ĠAb": 2675,
      "ĠFl": 2676,
      "Ġintell": 2677,
      "Ġlaid": 2678,
      "ett": 2679,
      "aste": 2680,
      "Be": 2681,
      "Ġprison": 2682,
      "ray": 2683,
      "oose": 2684,
      "Ġcompany": 2685,
      "aly": 2686,
      "just": 2687,
      "Ġhappy": 2688,
      "Ġmur": 2689,
      "Ġque": 2690,
      "Ġsal": 2691,
      "Ġglad": 2692,
      "ĠAm": 2693,
      "ortun": 2694,
      "Ġgovernment": 2695,
      "Ġneighb": 2696,
      "ushed": 2697,
      "isted": 2698,
      "Ġmor": 2699,
      "ump": 2700,
      "AM": 2701,
      "ĠBar": 2702,
      "road": 2703,
      "Ġcost": 2704,
      "Ġimpro": 2705,
      "aded": 2706,
      "uous": 2707,
      "Ġsens": 2708,
      "Ġmass": 2709,
      "Ġindividual": 2710,
      "Ġtree": 2711,
      "tended": 2712,
      "ĠUnivers": 2713,
      "Ġfeeling": 2714,
      "Ġeverything": 2715,
      "work": 2716,
      "ades": 2717,
      "Ġpen": 2718,
      "Ġvalue": 2719,
      "Ġjoy": 2720,
      "ĠÂ": 2721,
      "Ġsouth": 2722,
      "Ġdescri": 2723,
      "ĊĊĠĠĠĠĠĊĊĠĠĠĠĠ": 2724,
      "Ġgun": 2725,
      "ables": 2726,
      "Ġbreat": 2727,
      "Ġremember": 2728,
      "Ġmaterial": 2729,
      "ĠNot": 2730,
      "Ġdistance": 2731,
      "Ġbelong": 2732,
      "could": 2733,
      "ruction": 2734,
      "Ġer": 2735,
      "ĠAmerica": 2736,
      "Ġrich": 2737,
      "Ġmention": 2738,
      "Ġ29": 2739,
      "Ġcompan": 2740,
      "Ar": 2741,
      "Ġbelow": 2742,
      "Ġlangu": 2743,
      "Ġsac": 2744,
      "Ġsuffic": 2745,
      "eness": 2746,
      "Ġreel": 2747,
      "Ġpal": 2748,
      "Ġpretty": 2749,
      "icture": 2750,
      "Ġpaper": 2751,
      "Ġenjoy": 2752,
      "while": 2753,
      "ĠParis": 2754,
      "Ġgenerally": 2755,
      "rict": 2756,
      "Ġdoing": 2757,
      "imate": 2758,
      "Ġminutes": 2759,
      "umb": 2760,
      "uation": 2761,
      "ajor": 2762,
      "sm": 2763,
      "By": 2764,
      "great": 2765,
      "Ġfrequ": 2766,
      "apt": 2767,
      "spe": 2768,
      "Ġant": 2769,
      "erc": 2770,
      ":âĢĶ": 2771,
      "ĠEm": 2772,
      "Ġthee": 2773,
      "iety": 2774,
      "Ġrecogn": 2775,
      "22": 2776,
      "Ġdelight": 2777,
      "ĠCan": 2778,
      "Ġconcl": 2779,
      "Ġconv": 2780,
      "Ġmonths": 2781,
      "Ġdemand": 2782,
      "oted": 2783,
      "sec": 2784,
      "Ġsuddenly": 2785,
      "OL": 2786,
      "Ġaccept": 2787,
      "ization": 2788,
      "Ġrepe": 2789,
      "gress": 2790,
      "ĠTr": 2791,
      "irection": 2792,
      "Not": 2793,
      "vere": 2794,
      "Ġdaughter": 2795,
      "ĠMP": 2796,
      "ned": 2797,
      "Ġsuppose": 2798,
      "ĠMary": 2799,
      "Ġisland": 2800,
      "Ġweek": 2801,
      "ik": 2802,
      "oured": 2803,
      "Ġcentury": 2804,
      "May": 2805,
      "overnment": 2806,
      "itution": 2807,
      "Ġdream": 2808,
      "Ġgen": 2809,
      "Ġheavy": 2810,
      "Ġlived": 2811,
      "itive": 2812,
      "Ġspoke": 2813,
      "ishing": 2814,
      "Ġeduc": 2815,
      "enth": 2816,
      "ny": 2817,
      "Ġinqu": 2818,
      "Ġcontain": 2819,
      "bes": 2820,
      "Ġsingle": 2821,
      "ĠChurch": 2822,
      "His": 2823,
      "ĠGu": 2824,
      "ech": 2825,
      "Ġcomfort": 2826,
      "ĠPer": 2827,
      "atever": 2828,
      "Ġblue": 2829,
      "35": 2830,
      "Ġi": 2831,
      "ming": 2832,
      "ĠChristian": 2833,
      "Ġcry": 2834,
      "said": 2835,
      "itable": 2836,
      "iant": 2837,
      "ĠDo": 2838,
      "rid": 2839,
      "Ġcontr": 2840,
      "soci": 2841,
      "ugust": 2842,
      "car": 2843,
      "ĠJack": 2844,
      "place": 2845,
      "Ġcrow": 2846,
      "Ġcover": 2847,
      "Ġconduct": 2848,
      "Ġbroad": 2849,
      "known": 2850,
      "Ġcoun": 2851,
      "istic": 2852,
      "Ġcompl": 2853,
      "Ġboat": 2854,
      "inal": 2855,
      "ĠNorth": 2856,
      "Ġconsequ": 2857,
      "Ġexperience": 2858,
      "Ġdesp": 2859,
      "reme": 2860,
      "Ġbear": 2861,
      "ean": 2862,
      "alled": 2863,
      "again": 2864,
      "36": 2865,
      "char": 2866,
      "Ġsuper": 2867,
      "Ġcertainly": 2868,
      "eks": 2869,
      "ĠPe": 2870,
      "unk": 2871,
      "Ġinclud": 2872,
      "pass": 2873,
      "ege": 2874,
      "Ġenc": 2875,
      "Ġopened": 2876,
      "Ġsaying": 2877,
      "Ġelect": 2878,
      "Ġopinion": 2879,
      "Ġnone": 2880,
      "Ġformed": 2881,
      "ĠHere": 2882,
      "race": 2883,
      "ancy": 2884,
      "Ġfuture": 2885,
      "onel": 2886,
      "Ġcircumst": 2887,
      "should": 2888,
      "hab": 2889,
      "mber": 2890,
      "From": 2891,
      "Ġreport": 2892,
      "Ġwanted": 2893,
      "bre": 2894,
      "Ġcovered": 2895,
      "ĠLa": 2896,
      "Ġplaces": 2897,
      "Ġvillage": 2898,
      "ching": 2899,
      "anted": 2900,
      "long": 2901,
      "Ġbecom": 2902,
      "Ġcustom": 2903,
      "Ġmethod": 2904,
      "wood": 2905,
      "opped": 2906,
      "34": 2907,
      "Ġthird": 2908,
      "never": 2909,
      "ov": 2910,
      "Ġtried": 2911,
      "Ġinfluence": 2912,
      "Ġmid": 2913,
      "rop": 2914,
      "ergy": 2915,
      "Ġentered": 2916,
      "hold": 2917,
      "ok": 2918,
      "Ġmouth": 2919,
      "Ġstone": 2920,
      "Ġpersons": 2921,
      "roy": 2922,
      "Ġpoet": 2923,
      "spect": 2924,
      "ĠGeneral": 2925,
      "osop": 2926,
      "Ġsafe": 2927,
      "ĠHouse": 2928,
      "omen": 2929,
      "37": 2930,
      "Ġsepar": 2931,
      "Ġduty": 2932,
      "orough": 2933,
      "One": 2934,
      "osing": 2935,
      "lling": 2936,
      "rief": 2937,
      "Ġbeauty": 2938,
      "Ġbattle": 2939,
      "Ġfle": 2940,
      "alley": 2941,
      "cely": 2942,
      "bling": 2943,
      "cil": 2944,
      "Ġresol": 2945,
      "Ġfresh": 2946,
      "Ġenemy": 2947,
      "Ġdepart": 2948,
      "Ġstudy": 2949,
      "omas": 2950,
      "Ġsurface": 2951,
      "Ġcomb": 2952,
      "rol": 2953,
      "ueen": 2954,
      "back": 2955,
      "ĠIndian": 2956,
      "Ġcondition": 2957,
      "ourage": 2958,
      "TH": 2959,
      "Ġchance": 2960,
      "ĠJu": 2961,
      "Ġwindow": 2962,
      "Ġgentleman": 2963,
      "Ġbran": 2964,
      "iles": 2965,
      "Ġsimple": 2966,
      "Is": 2967,
      "ĠSome": 2968,
      ",[": 2969,
      "ĠJames": 2970,
      "rey": 2971,
      "essel": 2972,
      "Ġprevent": 2973,
      "Ġhorses": 2974,
      "21": 2975,
      "Ġlower": 2976,
      "Ġeasy": 2977,
      "ĠIN": 2978,
      "Ġcru": 2979,
      "see": 2980,
      "Ġden": 2981,
      "gged": 2982,
      "Ġancient": 2983,
      "ĠState": 2984,
      "Ġeasily": 2985,
      "Ġanx": 2986,
      "certain": 2987,
      "Ġbott": 2988,
      "Ġremained": 2989,
      "Ġconsidered": 2990,
      "Ġwrote": 2991,
      "Ġsn": 2992,
      "Ġdue": 2993,
      "aled": 2994,
      "ĠÃ": 2995,
      "Ġburn": 2996,
      "bles": 2997,
      "Ġaf": 2998,
      "oid": 2999,
      "hib": 3000,
      "Ġsummer": 3001,
      "ĠSm": 3002,
      "cceed": 3003,
      "bet": 3004,
      "ruit": 3005,
      "Ġtry": 3006,
      "view": 3007,
      "Ġfamil": 3008,
      "Ġspecial": 3009,
      "rig": 3010,
      "ourt": 3011,
      "isk": 3012,
      "Ġcult": 3013,
      "uses": 3014,
      "38": 3015,
      "Ġappearance": 3016,
      "ĠCaptain": 3017,
      "cher": 3018,
      "Ġexact": 3019,
      "ĠFilm": 3020,
      "Ġpot": 3021,
      "umn": 3022,
      "ston": 3023,
      "vey": 3024,
      "omin": 3025,
      "bel": 3026,
      "aped": 3027,
      "Ġlines": 3028,
      "only": 3029,
      "Ġvict": 3030,
      "Ġoccur": 3031,
      "two": 3032,
      "Ġstarted": 3033,
      "Ġsocial": 3034,
      "Ġoffe": 3035,
      "Ġgirls": 3036,
      "Ġletters": 3037,
      "Ġneither": 3038,
      "iction": 3039,
      "eds": 3040,
      "ashing": 3041,
      "Ġdress": 3042,
      "Ġvessel": 3043,
      "lo": 3044,
      "Ġx": 3045,
      "Ġliter": 3046,
      "icate": 3047,
      "Ġshore": 3048,
      "ingu": 3049,
      "Ġlaugh": 3050,
      "ĠDav": 3051,
      "Ġ1915": 3052,
      "Ġbound": 3053,
      "Ġwarm": 3054,
      "Ġsave": 3055,
      "itation": 3056,
      "Ġmine": 3057,
      "ashion": 3058,
      "Ġimmediately": 3059,
      "Ġtrust": 3060,
      "Ġbroken": 3061,
      "Ġeat": 3062,
      "Ġgame": 3063,
      "Ġspecies": 3064,
      "Ġworks": 3065,
      "icked": 3066,
      "raid": 3067,
      "ulty": 3068,
      "ĠSpan": 3069,
      "ĠPictures": 3070,
      "Ġseason": 3071,
      "Ġstrength": 3072,
      "iced": 3073,
      "resp": 3074,
      "ĠCount": 3075,
      "Ġmodern": 3076,
      "Ġamount": 3077,
      "Ġmill": 3078,
      "Ġdirection": 3079,
      "Ġfurn": 3080,
      "ems": 3081,
      "ĠSouth": 3082,
      "Ġnote": 3083,
      "Sh": 3084,
      "Ġess": 3085,
      "Ġclot": 3086,
      "together": 3087,
      "III": 3088,
      "ointed": 3089,
      "ails": 3090,
      "Ġbeginning": 3091,
      "Ġterri": 3092,
      "Ġhop": 3093,
      "Ġoffice": 3094,
      "ĠColl": 3095,
      "Ġpleasure": 3096,
      "Ġdesire": 3097,
      "nding": 3098,
      "ĠCharles": 3099,
      "ĠRuss": 3100,
      "ishop": 3101,
      "Ġnarrow": 3102,
      "esty": 3103,
      "ux": 3104,
      "ĠWest": 3105,
      "Ġintrodu": 3106,
      "Ġdi": 3107,
      "Re": 3108,
      "aug": 3109,
      "Ġconce": 3110,
      "Ġfigure": 3111,
      "ĠQu": 3112,
      "made": 3113,
      "erous": 3114,
      "Ġaut": 3115,
      "Ġcivil": 3116,
      "reed": 3117,
      "Ġfat": 3118,
      "Ġbas": 3119,
      "Ġmeant": 3120,
      "40": 3121,
      "39": 3122,
      "âĢĶ\"": 3123,
      "ĠGreat": 3124,
      "aries": 3125,
      "stood": 3126,
      "Ġviol": 3127,
      ",âĢĻ": 3128,
      "Ġspring": 3129,
      "ĠOf": 3130,
      "Ġstanding": 3131,
      "ites": 3132,
      "Ġafterwards": 3133,
      "Ġhardly": 3134,
      "Ġinstead": 3135,
      "ĠLet": 3136,
      "Ġconvers": 3137,
      "Ġbuilt": 3138,
      "ential": 3139,
      "ĠDon": 3140,
      "ĠLady": 3141,
      "ĠLou": 3142,
      "enced": 3143,
      "field": 3144,
      "Ġbooks": 3145,
      "Ġmot": 3146,
      "bar": 3147,
      "through": 3148,
      "Ġusually": 3149,
      "ĊĊĉĉ": 3150,
      "Ġinn": 3151,
      "dered": 3152,
      "Ġpubl": 3153,
      "ĠTom": 3154,
      "Ġgiving": 3155,
      "Ġcarry": 3156,
      "Ġpress": 3157,
      "Ġsubst": 3158,
      "Ġextra": 3159,
      "Ġartic": 3160,
      "Ġrapid": 3161,
      "pany": 3162,
      "Ġpresence": 3163,
      "Ġpaid": 3164,
      "RO": 3165,
      "cription": 3166,
      "Ġwa": 3167,
      "Ġwinter": 3168,
      "Ġneg": 3169,
      "ET": 3170,
      "Ġopportun": 3171,
      "may": 3172,
      "Ġenter": 3173,
      "Ġweak": 3174,
      "ĠSte": 3175,
      "ips": 3176,
      "Ġadvant": 3177,
      "ĠHenry": 3178,
      "mn": 3179,
      "Ġang": 3180,
      "noon": 3181,
      "ilosop": 3182,
      "Ġbrown": 3183,
      "Ġborn": 3184,
      "Ġtest": 3185,
      "Ġwrong": 3186,
      "Ġhung": 3187,
      "aced": 3188,
      "ability": 3189,
      "Ġgetting": 3190,
      "Ġcases": 3191,
      "Ġgod": 3192,
      "Ġoriginal": 3193,
      "before": 3194,
      "Ġarrived": 3195,
      "pping": 3196,
      "icated": 3197,
      "Ġsister": 3198,
      "Ġdefe": 3199,
      "ibility": 3200,
      "ma": 3201,
      "Ġfilled": 3202,
      "Ġune": 3203,
      "Ġlie": 3204,
      "aces": 3205,
      "Ġentirely": 3206,
      "Ġsimilar": 3207,
      "Ġrace": 3208,
      "AS": 3209,
      "Ġstraight": 3210,
      "ibly": 3211,
      "culiar": 3212,
      "Ġpiece": 3213,
      "rish": 3214,
      "inite": 3215,
      "ĠFran": 3216,
      "Ġhappened": 3217,
      "uted": 3218,
      "nal": 3219,
      "Ġsucceed": 3220,
      "Ġdepend": 3221,
      "ĠWell": 3222,
      "Ġredu": 3223,
      "Ġobserv": 3224,
      "Ġpicture": 3225,
      "Ġinformation": 3226,
      "After": 3227,
      "worth": 3228,
      "istance": 3229,
      "Ġcoast": 3230,
      "Ġtrouble": 3231,
      "little": 3232,
      "every": 3233,
      "Ġcapt": 3234,
      "Ġshar": 3235,
      "wing": 3236,
      "arily": 3237,
      "IV": 3238,
      "Ġexample": 3239,
      "ustri": 3240,
      "dra": 3241,
      "Ġboard": 3242,
      "Ġmerely": 3243,
      "Ġsociety": 3244,
      "Ġgives": 3245,
      "line": 3246,
      "rees": 3247,
      "Ġliber": 3248,
      "Ġspot": 3249,
      "Ġprints": 3250,
      "Ġ186": 3251,
      "ĠAugust": 3252,
      "Ġiron": 3253,
      "anges": 3254,
      "olute": 3255,
      "Ġpersonal": 3256,
      "AD": 3257,
      "Ġleaves": 3258,
      "Ġimpossible": 3259,
      "Ġgall": 3260,
      "Ġglass": 3261,
      "Ġsd": 3262,
      "Ġcat": 3263,
      "Ġdrink": 3264,
      "Ġlives": 3265,
      "asing": 3266,
      "Ġdie": 3267,
      "Ġseven": 3268,
      "even": 3269,
      "down": 3270,
      "essor": 3271,
      "isc": 3272,
      "Ġlanguage": 3273,
      "Ġexclaimed": 3274,
      "Ġraised": 3275,
      "ĠWhy": 3276,
      "ĠNe": 3277,
      "oyal": 3278,
      "Ġmiddle": 3279,
      "ĠCal": 3280,
      "Ġexpress": 3281,
      "ded": 3282,
      "Ġforms": 3283,
      "ENT": 3284,
      "Ġtemper": 3285,
      "lying": 3286,
      "uge": 3287,
      "Ġloss": 3288,
      "Ġpure": 3289,
      "lex": 3290,
      "iring": 3291,
      "AC": 3292,
      "estions": 3293,
      "olly": 3294,
      "ĠQueen": 3295,
      "Ġlips": 3296,
      "Ġallowed": 3297,
      "asp": 3298,
      "Ġinteresting": 3299,
      "ĠProdu": 3300,
      "Ġmad": 3301,
      "Ġarch": 3302,
      "Ġyouth": 3303,
      "Ġforest": 3304,
      "ify": 3305,
      "Ã¨": 3306,
      "Ġsong": 3307,
      "Ġ11": 3308,
      "ĠWar": 3309,
      "Ġmagn": 3310,
      "mission": 3311,
      "reek": 3312,
      "Ġsurr": 3313,
      "oom": 3314,
      "Ġsand": 3315,
      "Ġbank": 3316,
      "Ġpun": 3317,
      "Ġhigher": 3318,
      "uel": 3319,
      "Ġthinking": 3320,
      "zen": 3321,
      "pal": 3322,
      "Ġbuilding": 3323,
      "Ġii": 3324,
      "Ġmoved": 3325,
      "UR": 3326,
      "bing": 3327,
      "ĠII": 3328,
      "yle": 3329,
      "Ġmembers": 3330,
      "jo": 3331,
      "zz": 3332,
      "Ġsomewhat": 3333,
      "lin": 3334,
      "Ġign": 3335,
      "Ġoutside": 3336,
      "Ġknows": 3337,
      "estern": 3338,
      "elve": 3339,
      "Ġyourself": 3340,
      "Ġsole": 3341,
      "IR": 3342,
      "Ġspread": 3343,
      "Ġcaught": 3344,
      "gment": 3345,
      "mar": 3346,
      "Ġgarden": 3347,
      "Ġcrit": 3348,
      "Ġgreatest": 3349,
      "ĊĊĠĠĠĠĠĠĠĠĠĠĠĠ": 3350,
      "Ġusual": 3351,
      "ander": 3352,
      "clock": 3353,
      "United": 3354,
      "oseph": 3355,
      "Ġhost": 3356,
      "Ġspace": 3357,
      "Ġheaven": 3358,
      "Ġprivate": 3359,
      "olic": 3360,
      "Ġdoll": 3361,
      "Ġdiscuss": 3362,
      "Ġpath": 3363,
      "ĠAg": 3364,
      "ĠOh": 3365,
      "Let": 3366,
      "much": 3367,
      "hest": 3368,
      "tra": 3369,
      "Ġheat": 3370,
      "Ġlearned": 3371,
      "ague": 3372,
      "Ġban": 3373,
      "Cl": 3374,
      "ĠJan": 3375,
      "Ġjourney": 3376,
      "Ġspo": 3377,
      "fast": 3378,
      "lor": 3379,
      "Ġquickly": 3380,
      "Ġhast": 3381,
      "Ġgrace": 3382,
      "Don": 3383,
      "Ġleaving": 3384,
      "Ġdinner": 3385,
      "ourse": 3386,
      "these": 3387,
      "bly": 3388,
      "Ġobserved": 3389,
      "mitted": 3390,
      "Ġslowly": 3391,
      "Ġdescr": 3392,
      "anging": 3393,
      "Ġregular": 3394,
      "Ġkilled": 3395,
      "Ġtrade": 3396,
      "arl": 3397,
      "Ġscene": 3398,
      "Ġhat": 3399,
      "Ġafraid": 3400,
      "Ġwis": 3401,
      "Ġextreme": 3402,
      "Ġconditions": 3403,
      "Ġproduced": 3404,
      "bered": 3405,
      "Ġshown": 3406,
      "Ġhouses": 3407,
      "ĠJes": 3408,
      "outhern": 3409,
      "Ġreach": 3410,
      "Ġworking": 3411,
      "gen": 3412,
      "Ġwalked": 3413,
      "Ġwalls": 3414,
      "Ġball": 3415,
      "ram": 3416,
      "Ġtrain": 3417,
      "Ġguard": 3418,
      "44": 3419,
      "Do": 3420,
      "Ġ$": 3421,
      "Ġsmile": 3422,
      "Ġdry": 3423,
      "Ġmarried": 3424,
      "Ġexpected": 3425,
      "Ġexcell": 3426,
      "ains": 3427,
      "Ġproperty": 3428,
      "Ġcup": 3429,
      "ĠPres": 3430,
      "Ġwest": 3431,
      "Ġfra": 3432,
      "Ġofficers": 3433,
      "ĠMc": 3434,
      "Ġcharge": 3435,
      "illy": 3436,
      "inc": 3437,
      "Ġclaim": 3438,
      "amb": 3439,
      "occ": 3440,
      "Ġgrad": 3441,
      "ois": 3442,
      "Ġdrew": 3443,
      "Ġthirty": 3444,
      "Ġbirds": 3445,
      "Ġfloor": 3446,
      "ĠRich": 3447,
      "Ġshad": 3448,
      "aven": 3449,
      "Ġsnow": 3450,
      "ental": 3451,
      "Ġexpression": 3452,
      "Ġapparent": 3453,
      "Ġexec": 3454,
      "Ġsilver": 3455,
      "Ġmach": 3456,
      "Ġminute": 3457,
      "Ġfing": 3458,
      "Ġmeeting": 3459,
      "Ġlikely": 3460,
      "Ġtend": 3461,
      "Ġoblig": 3462,
      "ault": 3463,
      "Ġpeculiar": 3464,
      "Ġgoes": 3465,
      "Ġcit": 3466,
      "Ġrare": 3467,
      "ids": 3468,
      "ĠThomas": 3469,
      "ĊĠĊĠ": 3470,
      "OT": 3471,
      "ĠRep": 3472,
      "Ġshot": 3473,
      "tic": 3474,
      "ĠPort": 3475,
      "Ġdecided": 3476,
      "aughed": 3477,
      "Ġcop": 3478,
      "Ġpull": 3479,
      "ocked": 3480,
      "gypt": 3481,
      "Ġpet": 3482,
      "Ġdistinct": 3483,
      "change": 3484,
      "Ġegg": 3485,
      "Ġthin": 3486,
      "Ġshowed": 3487,
      "ĊĊĠĠĠĠĠĠĠĠĠĠĠ": 3488,
      "Ġfirm": 3489,
      "Ġ22": 3490,
      "such": 3491,
      "Ġnation": 3492,
      "Ġcircumstances": 3493,
      "good": 3494,
      "Ġanimals": 3495,
      "Ġsupposed": 3496,
      "respond": 3497,
      "Ġpale": 3498,
      "Ġrevol": 3499,
      "ĠPaul": 3500,
      "Ġstopped": 3501,
      "33": 3502,
      "ctions": 3503,
      "Ġrise": 3504,
      "Ġlevel": 3505,
      "Ġmess": 3506,
      "ĠGovernment": 3507,
      "Ġ*": 3508,
      "Ġwrite": 3509,
      "lected": 3510,
      "pet": 3511,
      "osite": 3512,
      "India": 3513,
      "Ġstreet": 3514,
      "ception": 3515,
      "Ġoffer": 3516,
      "Where": 3517,
      "bec": 3518,
      "Ġyellow": 3519,
      "umed": 3520,
      "Ġloved": 3521,
      "Ġconcern": 3522,
      "Ġdiscovered": 3523,
      "iqu": 3524,
      "Le": 3525,
      "Ġsize": 3526,
      "Ġanimal": 3527,
      "Ġchap": 3528,
      "Ġaddition": 3529,
      "Ġexper": 3530,
      "Ġflowers": 3531,
      "Ġ187": 3532,
      "ification": 3533,
      "key": 3534,
      "IG": 3535,
      "Ġconsiderable": 3536,
      "being": 3537,
      "ĠChe": 3538,
      "happ": 3539,
      "Ġvirt": 3540,
      "Ġgroup": 3541,
      "lished": 3542,
      "lend": 3543,
      "Ġforeign": 3544,
      "sk": 3545,
      "eed": 3546,
      "Ġnews": 3547,
      "Ġnotice": 3548,
      "Ġappears": 3549,
      "Ġyes": 3550,
      "Ġwhatever": 3551,
      "peror": 3552,
      "present": 3553,
      "Ġetc": 3554,
      "Ġfool": 3555,
      "Ġtroops": 3556,
      "Ġwhis": 3557,
      "sl": 3558,
      "Ġfifty": 3559,
      "Ġstruck": 3560,
      "Mrs": 3561,
      "Ġbox": 3562,
      "Her": 3563,
      "Ġevidence": 3564,
      "Ġtrad": 3565,
      "Ġstrugg": 3566,
      "mb": 3567,
      "your": 3568,
      "Ġcou": 3569,
      "fied": 3570,
      "ai": 3571,
      "ological": 3572,
      "Ġforget": 3573,
      "nat": 3574,
      "Ġbread": 3575,
      "Ġappre": 3576,
      "Ġrequired": 3577,
      "ensive": 3578,
      ".]": 3579,
      "Ġlif": 3580,
      "ieve": 3581,
      "Ġlord": 3582,
      "Ġgrew": 3583,
      "order": 3584,
      "Ġgrass": 3585,
      "Ġdegree": 3586,
      "ration": 3587,
      "Ġdrawn": 3588,
      "mend": 3589,
      "heart": 3590,
      "ville": 3591,
      "anc": 3592,
      "ĠSam": 3593,
      "quis": 3594,
      "ocks": 3595,
      "kes": 3596,
      "Ġsick": 3597,
      "Ġnative": 3598,
      "iny": 3599,
      "cks": 3600,
      "ffic": 3601,
      "Ġ1916": 3602,
      "ĠSw": 3603,
      "atures": 3604,
      "ĠSee": 3605,
      "pg": 3606,
      "Ġpolitical": 3607,
      "Ġmel": 3608,
      "know": 3609,
      "Ġdistingu": 3610,
      "Ġfavor": 3611,
      "ially": 3612,
      "Ġseeing": 3613,
      "ĠSu": 3614,
      "Ġur": 3615,
      "Ġclean": 3616,
      "cts": 3617,
      "Ġmonth": 3618,
      "ĠJune": 3619,
      "imp": 3620,
      "ique": 3621,
      "water": 3622,
      "Ġattend": 3623,
      "Ġdeli": 3624,
      "Ġgrave": 3625,
      "Ġlaws": 3626,
      "oles": 3627,
      "Ġpra": 3628,
      "iments": 3629,
      "Here": 3630,
      "Ġprogress": 3631,
      "ivity": 3632,
      "Ġstop": 3633,
      "ĠCr": 3634,
      "Ġspr": 3635,
      "aval": 3636,
      "ailed": 3637,
      "Ġphilosop": 3638,
      "Will": 3639,
      "Ph": 3640,
      "pril": 3641,
      "Ġafternoon": 3642,
      "Ġreve": 3643,
      "itch": 3644,
      "ishment": 3645,
      "asc": 3646,
      "utions": 3647,
      "uded": 3648,
      "fortun": 3649,
      "kind": 3650,
      "Ġways": 3651,
      "fit": 3652,
      "leg": 3653,
      "Ġenv": 3654,
      "lar": 3655,
      "uments": 3656,
      "ding": 3657,
      "Â°": 3658,
      "Ġescape": 3659,
      "iently": 3660,
      "Ġhill": 3661,
      "Ġmarriage": 3662,
      "habit": 3663,
      "Ġbeg": 3664,
      "Ġstream": 3665,
      "Ġquant": 3666,
      "ĠGl": 3667,
      "ese": 3668,
      "Ġdu": 3669,
      "Ġsilence": 3670,
      "lement": 3671,
      "Ġarg": 3672,
      "Ġrunning": 3673,
      "first": 3674,
      "Ġinstance": 3675,
      "Ġrule": 3676,
      "umber": 3677,
      "Ã¢": 3678,
      "Ġassoci": 3679,
      "Ġlaughed": 3680,
      "Ġutter": 3681,
      "Ġrid": 3682,
      "Ġnoble": 3683,
      "ĠWor": 3684,
      "Ġscarcely": 3685,
      "Ġrul": 3686,
      "Ġdim": 3687,
      "Ġ189": 3688,
      "ented": 3689,
      "Ġplant": 3690,
      "hip": 3691,
      "Ġpassion": 3692,
      "Eng": 3693,
      "Ġobtained": 3694,
      "Ġchair": 3695,
      "book": 3696,
      "Ġheight": 3697,
      "bon": 3698,
      "ico": 3699,
      "Ġproble": 3700,
      "Ġeast": 3701,
      "Ġexistence": 3702,
      "Ġthoughts": 3703,
      "Ġlot": 3704,
      "Ġexerc": 3705,
      "ĠOct": 3706,
      "Ġkne": 3707,
      "ĠLouis": 3708,
      "Ġweight": 3709,
      "lands": 3710,
      "Ġfish": 3711,
      "ancing": 3712,
      "Ġsufficient": 3713,
      "Ġsour": 3714,
      "thought": 3715,
      "Com": 3716,
      "antic": 3717,
      "Ġforgot": 3718,
      "Ġprepared": 3719,
      "lly": 3720,
      "Ġsad": 3721,
      "arer": 3722,
      "Ġintellig": 3723,
      "ĠMon": 3724,
      "Ġadmir": 3725,
      "Ġbeat": 3726,
      "Ġevil": 3727,
      "ĠFrank": 3728,
      "Ġhall": 3729,
      "nest": 3730,
      "oring": 3731,
      "odies": 3732,
      "Ġtears": 3733,
      "Ġcook": 3734,
      "60": 3735,
      "Ġmiss": 3736,
      "Ġsituation": 3737,
      "Ġsalt": 3738,
      "Ġequal": 3739,
      "Ġtrave": 3740,
      "might": 3741,
      "umph": 3742,
      "ĠRoman": 3743,
      "sur": 3744,
      "Ġspent": 3745,
      "Ġmotion": 3746,
      "Ġ1914": 3747,
      "ĠJuly": 3748,
      "Ġupper": 3749,
      "Ġfit": 3750,
      "asures": 3751,
      "Ġordinary": 3752,
      "Ġoffered": 3753,
      "Ġpassing": 3754,
      "Ġstar": 3755,
      "irgin": 3756,
      "Ġbreath": 3757,
      "mod": 3758,
      "Ġtender": 3759,
      "acc": 3760,
      "SE": 3761,
      "ounced": 3762,
      "ĠMarch": 3763,
      "Ġnames": 3764,
      "Ġsoldiers": 3765,
      "Ġillustr": 3766,
      "Ġhabit": 3767,
      "Ġtrying": 3768,
      "Ġsmo": 3769,
      "45": 3770,
      "ternal": 3771,
      "John": 3772,
      "Ġsitting": 3773,
      "Ġbeside": 3774,
      "Ġsides": 3775,
      "Ġones": 3776,
      "ĠJe": 3777,
      "Ġreceive": 3778,
      "Ġpursu": 3779,
      "Ġpa": 3780,
      "Ġsky": 3781,
      "Ġwaiting": 3782,
      "Ġder": 3783,
      "nce": 3784,
      "ufact": 3785,
      "Ġpictures": 3786,
      "Ġdetermined": 3787,
      "Ġinj": 3788,
      "inst": 3789,
      "Ġfal": 3790,
      "Ġreligious": 3791,
      "Ġbase": 3792,
      "Ġbelieved": 3793,
      "asons": 3794,
      "Ġimportance": 3795,
      "Ġsin": 3796,
      "ĠCong": 3797,
      "Ġhun": 3798,
      "Ġwriting": 3799,
      "Ġparent": 3800,
      "without": 3801,
      "ĠBo": 3802,
      "ĠSch": 3803,
      "Ġtakes": 3804,
      "Ġpopular": 3805,
      "ĠSmith": 3806,
      "idently": 3807,
      "ien": 3808,
      "law": 3809,
      "atory": 3810,
      "Ġdevelopment": 3811,
      "Ġgaz": 3812,
      "Ġperform": 3813,
      "Ġsimply": 3814,
      "ĠTur": 3815,
      "rap": 3816,
      "Ġauthority": 3817,
      "stone": 3818,
      "Ġhero": 3819,
      "Con": 3820,
      "Ġfem": 3821,
      "ID": 3822,
      "Ġ188": 3823,
      "Ġeducation": 3824,
      "Ġbird": 3825,
      "urally": 3826,
      "Ġpoints": 3827,
      "Ġbroke": 3828,
      "Ġdam": 3829,
      "Ġproved": 3830,
      "Ġrecord": 3831,
      "ners": 3832,
      "Ġprim": 3833,
      "inent": 3834,
      "ators": 3835,
      "Ġscen": 3836,
      "Ġmovement": 3837,
      "Ġreligion": 3838,
      "Ġsteps": 3839,
      "Ġfol": 3840,
      "Ġband": 3841,
      "Ġopportunity": 3842,
      "Ġdoctor": 3843,
      "aker": 3844,
      "Ġpassage": 3845,
      "ias": 3846,
      "Ġcell": 3847,
      "Ġdeclared": 3848,
      "vention": 3849,
      "Ġmut": 3850,
      "Ġbow": 3851,
      "Ġsymp": 3852,
      "Ġreading": 3853,
      "ĠSan": 3854,
      "Ġfacts": 3855,
      "Ġlear": 3856,
      "bu": 3857,
      "those": 3858,
      "Ġallow": 3859,
      "AY": 3860,
      "Ġships": 3861,
      "Ġtwelve": 3862,
      "four": 3863,
      "found": 3864,
      "Ġtouch": 3865,
      "fric": 3866,
      "Ġstock": 3867,
      "bro": 3868,
      "Ġfinally": 3869,
      "ama": 3870,
      "Or": 3871,
      "Ġcorner": 3872,
      "attered": 3873,
      "vis": 3874,
      "Ġfro": 3875,
      "32": 3876,
      "ĠThus": 3877,
      "Ġtone": 3878,
      "ĠEvery": 3879,
      "aked": 3880,
      "ĠTheir": 3881,
      "Ġid": 3882,
      "Ġorders": 3883,
      "must": 3884,
      "Ġabsolute": 3885,
      "emed": 3886,
      "Ġpack": 3887,
      "chn": 3888,
      "ĠBur": 3889,
      "hens": 3890,
      "astern": 3891,
      "Ġmilitary": 3892,
      "Ġevent": 3893,
      "ĠMor": 3894,
      "31": 3895,
      "Ġfashion": 3896,
      "izing": 3897,
      "Ġwitness": 3898,
      "alian": 3899,
      "bey": 3900,
      "Ġfully": 3901,
      "rate": 3902,
      "oms": 3903,
      "ĠWall": 3904,
      "Ġ21": 3905,
      "Ġserve": 3906,
      "Ġdestroy": 3907,
      "Ġcab": 3908,
      "sub": 3909,
      "Ġadvantage": 3910,
      "Ġofficer": 3911,
      "Ġsail": 3912,
      "Ġfavour": 3913,
      "Ã¡": 3914,
      "ores": 3915,
      "Ġsav": 3916,
      "pir": 3917,
      "Ġadop": 3918,
      "ĠEgypt": 3919,
      "five": 3920,
      "Ġimm": 3921,
      "Ġkill": 3922,
      "Ġmoon": 3923,
      "Ġunless": 3924,
      "ĠRobert": 3925,
      "Ġinvest": 3926,
      "amber": 3927,
      "eral": 3928,
      "Ġserious": 3929,
      "ris": 3930,
      "ĠIndians": 3931,
      "ĠSpanish": 3932,
      "Ġperfectly": 3933,
      "lls": 3934,
      "Ġmarket": 3935,
      "Ġmeasure": 3936,
      "Ġfixed": 3937,
      "Ġpossess": 3938,
      "Ġpublished": 3939,
      "eav": 3940,
      "father": 3941,
      "Ġshout": 3942,
      "Ġleading": 3943,
      "icip": 3944,
      "Ġattract": 3945,
      "ĠHall": 3946,
      "Ġearli": 3947,
      "Ġchanged": 3948,
      "iffe": 3949,
      "ulated": 3950,
      "Ġcred": 3951,
      "Ġfruit": 3952,
      "uls": 3953,
      "Ġcrown": 3954,
      "ĠSept": 3955,
      "aph": 3956,
      "Ġsch": 3957,
      "48": 3958,
      "Ġdread": 3959,
      "Ġep": 3960,
      "These": 3961,
      "Ġnumerous": 3962,
      "een": 3963,
      "Ġdiam": 3964,
      "lebr": 3965,
      "ĠJoseph": 3966,
      "ĠIrish": 3967,
      "Ġcaptain": 3968,
      "Ġ40": 3969,
      "Ġweeks": 3970,
      "Ġcaused": 3971,
      "did": 3972,
      "Ad": 3973,
      "Ġcurious": 3974,
      "author": 3975,
      "Ġscience": 3976,
      "ĠRome": 3977,
      "Ġdescribed": 3978,
      "Ġmentioned": 3979,
      "Ġspite": 3980,
      "perior": 3981,
      "ĠĠĠĠĠĠĠĠĠĠĠĠĠĠĠĠ": 3982,
      "astic": 3983,
      "Ġterms": 3984,
      "Ġeager": 3985,
      "ival": 3986,
      "istory": 3987,
      "ober": 3988,
      "Ġmountains": 3989,
      "Ġdifficulty": 3990,
      "edy": 3991,
      "tee": 3992,
      "ĠMe": 3993,
      "OW": 3994,
      "rec": 3995,
      "atives": 3996,
      "Who": 3997,
      "rer": 3998,
      "using": 3999,
      "iron": 4000,
      "uary": 4001,
      "Ġsearch": 4002,
      "Ġrain": 4003,
      "ground": 4004,
      "Ġmeaning": 4005,
      "Ġfrequently": 4006,
      "ĠDuke": 4007,
      "Ġpieces": 4008,
      "Fig": 4009,
      "mas": 4010,
      "idden": 4011,
      "ilities": 4012,
      "ĠJew": 4013,
      "pered": 4014,
      "ode": 4015,
      "Ġsplend": 4016,
      "Ġstage": 4017,
      "ĠMer": 4018,
      "eping": 4019,
      "himself": 4020,
      "Ġdeb": 4021,
      "Ġapart": 4022,
      "ĠCourt": 4023,
      "ading": 4024,
      "Ġmemory": 4025,
      "Ġvast": 4026,
      "Ġpleasant": 4027,
      "ĠSy": 4028,
      "Ġstyle": 4029,
      "Ġ190": 4030,
      "Ġrail": 4031,
      "ĠBrown": 4032,
      "Ġenergy": 4033,
      "Ġbill": 4034,
      "ios": 4035,
      "Ġneck": 4036,
      "ceived": 4037,
      "orse": 4038,
      "Ġladies": 4039,
      "Ġlocal": 4040,
      "Ġplease": 4041,
      "chief": 4042,
      "aches": 4043,
      "Ġremem": 4044,
      "oration": 4045,
      "ulous": 4046,
      "Ġprice": 4047,
      "Ġhistor": 4048,
      "Ġstation": 4049,
      "Ġremains": 4050,
      "life": 4051,
      "morrow": 4052,
      "Ġwid": 4053,
      "ais": 4054,
      "cend": 4055,
      "Ġbeneath": 4056,
      "iting": 4057,
      "Ġhonor": 4058,
      "cis": 4059,
      "Ġthorough": 4060,
      "Ġopposite": 4061,
      "ctr": 4062,
      "Ġcarefully": 4063,
      "Ġfarm": 4064,
      "ĠST": 4065,
      "Ġclosed": 4066,
      "cip": 4067,
      "Pr": 4068,
      "Ġturning": 4069,
      "Ġexcellent": 4070,
      "Ġengaged": 4071,
      "Ġemployed": 4072,
      "Ġbottom": 4073,
      "Ġcapital": 4074,
      "Ġproject": 4075,
      "Ġparticularly": 4076,
      "standing": 4077,
      "friend": 4078,
      "ana": 4079,
      "Ġdistrict": 4080,
      "Ġrelation": 4081,
      "Ġinvol": 4082,
      "conom": 4083,
      "Ġvent": 4084,
      "vo": 4085,
      "Ġproduce": 4086,
      "AND": 4087,
      "tw": 4088,
      "Ġstat": 4089,
      "47": 4090,
      "ĠPal": 4091,
      "Ġconscious": 4092,
      "mond": 4093,
      "Ġmatters": 4094,
      "Ġsatisfact": 4095,
      "ĠScot": 4096,
      "Ġnamed": 4097,
      "Ġcurrent": 4098,
      "ada": 4099,
      "ĠBer": 4100,
      "urity": 4101,
      "Ġwise": 4102,
      "erted": 4103,
      "retched": 4104,
      "Ġintended": 4105,
      "Ġevents": 4106,
      "agement": 4107,
      "Ġmaid": 4108,
      "Ġ|": 4109,
      "ĠCath": 4110,
      "Ġroy": 4111,
      "uable": 4112,
      "icy": 4113,
      "ĠRiver": 4114,
      "icious": 4115,
      "Ġtravel": 4116,
      "ara": 4117,
      "ĠApril": 4118,
      "Ġrepeated": 4119,
      "Ġcand": 4120,
      "Ġjustice": 4121,
      "ĊĊĠĠĠĠĠĠ": 4122,
      "ora": 4123,
      "iation": 4124,
      "Ġsusp": 4125,
      "Ġeffort": 4126,
      "ĠYet": 4127,
      "Ġportion": 4128,
      "De": 4129,
      "Ġwealth": 4130,
      "Ġforty": 4131,
      "Ġtype": 4132,
      "cies": 4133,
      "Ġunto": 4134,
      "Ġcolour": 4135,
      "Ġpractice": 4136,
      "XX": 4137,
      "Ġsharp": 4138,
      "oned": 4139,
      "Ġcolor": 4140,
      "Ġadvance": 4141,
      "apan": 4142,
      "GE": 4143,
      "Ġweather": 4144,
      "Ġestablished": 4145,
      "aud": 4146,
      "Ġseries": 4147,
      "Jan": 4148,
      "Ġlooks": 4149,
      "Ġkiss": 4150,
      "eper": 4151,
      "ashed": 4152,
      "Ġobtain": 4153,
      "verse": 4154,
      "Ġproport": 4155,
      "Ex": 4156,
      "ĠSec": 4157,
      "Ġourselves": 4158,
      "Ġpock": 4159,
      "Ġconversation": 4160,
      "Ġestablish": 4161,
      "urb": 4162,
      "ĠĊ": 4163,
      "ashington": 4164,
      "mother": 4165,
      "ĠStreet": 4166,
      "ĠEven": 4167,
      "Ġsoil": 4168,
      "bell": 4169,
      "isters": 4170,
      "Ġvan": 4171,
      "three": 4172,
      "Ġthreat": 4173,
      "pel": 4174,
      "Ġdrawing": 4175,
      "Ġspeaking": 4176,
      "Ġpos": 4177,
      "Ġsex": 4178,
      "Dec": 4179,
      "ĠColonel": 4180,
      "Ġaccompl": 4181,
      "Ġremarkable": 4182,
      "inte": 4183,
      "somet": 4184,
      "Oct": 4185,
      "mun": 4186,
      "Ġspeech": 4187,
      "orry": 4188,
      "46": 4189,
      "Ġtall": 4190,
      "Ġgro": 4191,
      "dist": 4192,
      "Ġquestions": 4193,
      "Ġcorrect": 4194,
      "Ġmarked": 4195,
      "Ġprove": 4196,
      "ĠâĢĶ": 4197,
      "Ġ35": 4198,
      "ĠAnt": 4199,
      "Ġstir": 4200,
      "ĠMin": 4201,
      "aur": 4202,
      "Ġdifference": 4203,
      "Ġpossession": 4204,
      "ĠOur": 4205,
      "ste": 4206,
      "ares": 4207,
      "Ġshut": 4208,
      "Ġterrible": 4209,
      "Ġwished": 4210,
      "yr": 4211,
      "Ġdise": 4212,
      "igned": 4213,
      "isions": 4214,
      "Ġresults": 4215,
      "ĠâĢĵ": 4216,
      "Ġrad": 4217,
      "Ġagree": 4218,
      "Ġox": 4219,
      "Ġvalley": 4220,
      "Ġpurch": 4221,
      "Ġvain": 4222,
      "Ġhills": 4223,
      "unday": 4224,
      "Pl": 4225,
      "US": 4226,
      "Ġsilent": 4227,
      "Ġnational": 4228,
      "ĠSE": 4229,
      "ĠProf": 4230,
      "Ġmajor": 4231,
      "iance": 4232,
      "looking": 4233,
      "ĠOld": 4234,
      "Ġclim": 4235,
      "Ġordered": 4236,
      "Nor": 4237,
      "Ġserved": 4238,
      "Ġshare": 4239,
      "ims": 4240,
      "ĠWil": 4241,
      "Ġunivers": 4242,
      "49": 4243,
      "rences": 4244,
      "Ġroyal": 4245,
      "Ġwonderful": 4246,
      "rif": 4247,
      "ĠNap": 4248,
      "Ġprec": 4249,
      "ajesty": 4250,
      "Ġfamous": 4251,
      "Ġdirector": 4252,
      "Ġgreatly": 4253,
      "gel": 4254,
      "Ġcorrespond": 4255,
      "Ġrespons": 4256,
      "Ġident": 4257,
      "ordinary": 4258,
      "burg": 4259,
      "ĠAfric": 4260,
      "child": 4261,
      "icks": 4262,
      "Some": 4263,
      "supp": 4264,
      "Ġtechn": 4265,
      "Ġideas": 4266,
      "Ġhonour": 4267,
      "Ġmoral": 4268,
      "Ġquarter": 4269,
      "Ġbitter": 4270,
      "Ġmort": 4271,
      "ĠRed": 4272,
      "agg": 4273,
      "ĠEast": 4274,
      "Ġisn": 4275,
      "Ġ...": 4276,
      "Ġactually": 4277,
      "rous": 4278,
      "pes": 4279,
      "Ġdaily": 4280,
      "Ġtaste": 4281,
      "Ġunderstood": 4282,
      "people": 4283,
      "ols": 4284,
      "ĠUniversal": 4285,
      "Ġnovel": 4286,
      "aper": 4287,
      "ĠPresident": 4288,
      "put": 4289,
      "ĠVal": 4290,
      "Ġsteam": 4291,
      "Ġimper": 4292,
      "Ġmir": 4293,
      "ĠCH": 4294,
      "Ġpresented": 4295,
      "Ġheads": 4296,
      "Ġforced": 4297,
      "Ġseat": 4298,
      "acity": 4299,
      "ĠMac": 4300,
      "itz": 4301,
      "Ġcool": 4302,
      "met": 4303,
      "ĠPrince": 4304,
      "orious": 4305,
      "athered": 4306,
      "Ġbab": 4307,
      "ĠIndia": 4308,
      "Ġextent": 4309,
      "ĠGrand": 4310,
      "ĠBen": 4311,
      "Ġimprove": 4312,
      "Ġfreed": 4313,
      "ĠFather": 4314,
      "Ġmult": 4315,
      "Ġrob": 4316,
      "ĠBel": 4317,
      "God": 4318,
      "Ġindepend": 4319,
      "Ġcitiz": 4320,
      "erable": 4321,
      "Ġod": 4322,
      "Ġaddress": 4323,
      "Ġvolume": 4324,
      "asts": 4325,
      "uries": 4326,
      "ule": 4327,
      "Ġstates": 4328,
      "Ġteacher": 4329,
      "Ġworked": 4330,
      "fall": 4331,
      "Ġlarger": 4332,
      "Ã¼": 4333,
      "Ġring": 4334,
      "ulf": 4335,
      "mat": 4336,
      "Ġreply": 4337,
      "Ġplayed": 4338,
      "Ġtot": 4339,
      "Ġbirth": 4340,
      "ĠSpain": 4341,
      "Ġaid": 4342,
      "called": 4343,
      "Ġ1917": 4344,
      "Ġwel": 4345,
      "Ġcheer": 4346,
      "Ġbare": 4347,
      "give": 4348,
      "Ġshape": 4349,
      "Ġaud": 4350,
      "ye": 4351,
      "Ġadvent": 4352,
      "Ġcontrol": 4353,
      "Ġrough": 4354,
      "Ġphysical": 4355,
      "away": 4356,
      "Miss": 4357,
      "Ġarrange": 4358,
      "Ġtax": 4359,
      "appeared": 4360,
      "ĠDan": 4361,
      "Ġgrowing": 4362,
      "many": 4363,
      "ĠJust": 4364,
      "Ġfamiliar": 4365,
      "Ġcalm": 4366,
      "Ġspeed": 4367,
      "ads": 4368,
      "Ġrefer": 4369,
      "Ġexactly": 4370,
      "Ġz": 4371,
      "take": 4372,
      "Ġprinciples": 4373,
      "70": 4374,
      "nes": 4375,
      "ĠDick": 4376,
      "Ġendeav": 4377,
      "Ġfinished": 4378,
      "Ġinstant": 4379,
      "Ġprofession": 4380,
      "Ġmanufact": 4381,
      "Ġremoved": 4382,
      "Ġlying": 4383,
      "orne": 4384,
      "ĠTO": 4385,
      "Ġhom": 4386,
      "Ġice": 4387,
      "Ġlake": 4388,
      "uten": 4389,
      "ousin": 4390,
      "Ġcelebr": 4391,
      "Ġedge": 4392,
      "Ġsurprise": 4393,
      "Ġwear": 4394,
      "Ġfallen": 4395,
      "ĠAp": 4396,
      "ĠJesus": 4397,
      "unch": 4398,
      "80": 4399,
      "Ġuseful": 4400,
      "Ġinhabit": 4401,
      "Ġexhib": 4402,
      "ario": 4403,
      "liament": 4404,
      "comp": 4405,
      "Ġrequire": 4406,
      "Ġafford": 4407,
      "56": 4408,
      "Ġissu": 4409,
      "Ġthrown": 4410,
      "Ġtalking": 4411,
      "Ġfortune": 4412,
      "orous": 4413,
      "sit": 4414,
      "Ġshows": 4415,
      "Ġqual": 4416,
      "ĠConst": 4417,
      "Ġbutter": 4418,
      "Ġcompar": 4419,
      "Ġthroughout": 4420,
      "Ġsuppl": 4421,
      "Ġaffairs": 4422,
      "Ġslightly": 4423,
      "ĠDavid": 4424,
      "hum": 4425,
      "Ġconqu": 4426,
      "Ġlies": 4427,
      "Ġprovided": 4428,
      "Ġoccupied": 4429,
      "Ġsevent": 4430,
      "Ġfier": 4431,
      "offe": 4432,
      "ounted": 4433,
      "Ġincluding": 4434,
      "Ġproud": 4435,
      "umes": 4436,
      "Ġwouldn": 4437,
      "war": 4438,
      "ilst": 4439,
      "Ġpleased": 4440,
      "Ġcontribut": 4441,
      "aling": 4442,
      "Ġhighest": 4443,
      "serv": 4444,
      "turn": 4445,
      "Col": 4446,
      "abeth": 4447,
      "CT": 4448,
      "raz": 4449,
      "Ġlog": 4450,
      "Ġ50": 4451,
      "Ġfill": 4452,
      "pie": 4453,
      "Ġtheory": 4454,
      "Ġworse": 4455,
      "Ġneeds": 4456,
      "lection": 4457,
      "Ġterm": 4458,
      "Ġsignific": 4459,
      "Ġpowers": 4460,
      "Ġjudge": 4461,
      "hether": 4462,
      "ĠAlex": 4463,
      "Ġbesides": 4464,
      "ĠAra": 4465,
      "Ġrate": 4466,
      "ption": 4467,
      "Ġdig": 4468,
      "ĠFred": 4469,
      "ĠLaw": 4470,
      "Ġdiss": 4471,
      "dy": 4472,
      "athy": 4473,
      "Ġcatch": 4474,
      "Ġfright": 4475,
      "mark": 4476,
      "cture": 4477,
      "Ġhappiness": 4478,
      "Ġbecomes": 4479,
      "Ìĥ": 4480,
      "Ġdom": 4481,
      "New": 4482,
      "Ġnice": 4483,
      "Ġgate": 4484,
      "Ġlack": 4485,
      "Ġmilk": 4486,
      "izabeth": 4487,
      "Ġpromise": 4488,
      "Ġwin": 4489,
      "Ġindust": 4490,
      "wr": 4491,
      "rose": 4492,
      "Ġfalse": 4493,
      "Ġstro": 4494,
      "against": 4495,
      "Ġrange": 4496,
      "Ġtrem": 4497,
      "Ġunf": 4498,
      "Ġbull": 4499,
      "Ġquality": 4500,
      "atin": 4501,
      "Ġnerv": 4502,
      "think": 4503,
      "ette": 4504,
      "Ġcommer": 4505,
      "Ġproof": 4506,
      "Ġclothes": 4507,
      "Ġprotect": 4508,
      "58": 4509,
      "Ġeconom": 4510,
      "Ġsupply": 4511,
      "Ġignor": 4512,
      "Br": 4513,
      "ĠReg": 4514,
      "Ġwine": 4515,
      "usted": 4516,
      "oston": 4517,
      "Jul": 4518,
      "Ġears": 4519,
      "came": 4520,
      "pelled": 4521,
      "Pro": 4522,
      "ĠâĢĻ": 4523,
      "Ġnine": 4524,
      "Ġprincipal": 4525,
      "Ġbal": 4526,
      "arly": 4527,
      "Ġguess": 4528,
      "Ġroof": 4529,
      "Ġneeded": 4530,
      "Ġpointed": 4531,
      "cond": 4532,
      "Ġhonest": 4533,
      "Ġholding": 4534,
      "boy": 4535,
      "Ġwaters": 4536,
      "cles": 4537,
      "Ġtrou": 4538,
      "Ġdollars": 4539,
      "Ġbodies": 4540,
      "overy": 4541,
      "Per": 4542,
      "shire": 4543,
      "vation": 4544,
      "Ġdwell": 4545,
      "Ġskin": 4546,
      "ndered": 4547,
      "Ġcrowd": 4548,
      "Ġdouble": 4549,
      "Ġgentlemen": 4550,
      "Ġpair": 4551,
      "ĠPeter": 4552,
      "Ġrights": 4553,
      "Ġcentre": 4554,
      "chen": 4555,
      "Ġthank": 4556,
      "reland": 4557,
      "Ġadvanced": 4558,
      "Ġcourage": 4559,
      "Ġyield": 4560,
      "59": 4561,
      "Ġbrief": 4562,
      "Ġlean": 4563,
      "Ġfate": 4564,
      "Ġplants": 4565,
      "Ġdate": 4566,
      "Ġinstruct": 4567,
      "Ah": 4568,
      "ĠFirst": 4569,
      "van": 4570,
      "ĠTra": 4571,
      "Am": 4572,
      "Ġmember": 4573,
      "Ġeditor": 4574,
      "Ġgrown": 4575,
      "Feb": 4576,
      "Ġsecure": 4577,
      "ĠCollege": 4578,
      "Ġincreased": 4579,
      "leep": 4580,
      "don": 4581,
      "Ġsorrow": 4582,
      "Ġopening": 4583,
      "chan": 4584,
      "ago": 4585,
      "Ġcountries": 4586,
      "Our": 4587,
      "Ġrising": 4588,
      "Ġincrease": 4589,
      "Ġbrain": 4590,
      "say": 4591,
      "Ġvers": 4592,
      "Ġthrew": 4593,
      "vert": 4594,
      "elle": 4595,
      "course": 4596,
      "last": 4597,
      "Ġassem": 4598,
      "Ġteeth": 4599,
      "Ġdirectly": 4600,
      "RI": 4601,
      "Ġwoods": 4602,
      "Ġavail": 4603,
      "OO": 4604,
      "Ġresem": 4605,
      "omb": 4606,
      "ushing": 4607,
      "Ġsake": 4608,
      "oleon": 4609,
      "Ġcontent": 4610,
      "Ġdiscover": 4611,
      "esh": 4612,
      "Qu": 4613,
      "ipped": 4614,
      "ĠCent": 4615,
      "Ġtor": 4616,
      "ĠUniversity": 4617,
      "Ġexped": 4618,
      "ĠHowever": 4619,
      "ns": 4620,
      "Ġusing": 4621,
      "Ġexceed": 4622,
      "Ġpowerful": 4623,
      "Ġgray": 4624,
      "shall": 4625,
      "Ġsought": 4626,
      "Ġbrill": 4627,
      "jud": 4628,
      "sue": 4629,
      "country": 4630,
      "Ġvig": 4631,
      "isl": 4632,
      "Ġsucceeded": 4633,
      "ĠWashington": 4634,
      "lets": 4635,
      "Ġgrat": 4636,
      "win": 4637,
      "pers": 4638,
      "Ġtong": 4639,
      "ulate": 4640,
      "Ġpan": 4641,
      "ĠJer": 4642,
      "cked": 4643,
      "Ġmat": 4644,
      "Ġsettled": 4645,
      "Ġstreets": 4646,
      "exp": 4647,
      "power": 4648,
      "Ġrub": 4649,
      "Ġobliged": 4650,
      "Ġsquare": 4651,
      "Ed": 4652,
      "itect": 4653,
      "uated": 4654,
      "ainted": 4655,
      "Ġlearning": 4656,
      "ĠOctober": 4657,
      "ĠEdward": 4658,
      "ension": 4659,
      "Ġsuperior": 4660,
      "Ġstorm": 4661,
      "hus": 4662,
      "Ġgrowth": 4663,
      "ari": 4664,
      "Ġlose": 4665,
      "Ġentertain": 4666,
      "Ġnations": 4667,
      "ront": 4668,
      "Ġwatched": 4669,
      "Ġaltogether": 4670,
      "ĠMadame": 4671,
      "between": 4672,
      "ĠMed": 4673,
      "Ġdirected": 4674,
      "Good": 4675,
      "ipe": 4676,
      "Ġbold": 4677,
      "ILL": 4678,
      "aret": 4679,
      "Ġ36": 4680,
      "Ġdistant": 4681,
      "Ġforces": 4682,
      "Ġrecom": 4683,
      "Ġthro": 4684,
      "interest": 4685,
      "Sir": 4686,
      "Ġcompletely": 4687,
      "Ġhosp": 4688,
      "eal": 4689,
      "Ġworthy": 4690,
      "dro": 4691,
      "ĠEll": 4692,
      "Ġequally": 4693,
      "Ġfeelings": 4694,
      "Ġinside": 4695,
      "mal": 4696,
      "point": 4697,
      "Ġtim": 4698,
      "Ġdem": 4699,
      "Ġblind": 4700,
      "Ġpapers": 4701,
      "Ġgain": 4702,
      "Ġseek": 4703,
      "Ġliberty": 4704,
      "uk": 4705,
      "flict": 4706,
      "Ġtea": 4707,
      "Ġkingdom": 4708,
      "aver": 4709,
      "conscious": 4710,
      "Bl": 4711,
      "ses": 4712,
      "Ġflour": 4713,
      "Ġregarded": 4714,
      "ĠRichard": 4715,
      "ĠSl": 4716,
      "Ġotherwise": 4717,
      "kins": 4718,
      "sell": 4719,
      "half": 4720,
      "Ġkeeping": 4721,
      "Ġnaturally": 4722,
      "Ġagreed": 4723,
      "57": 4724,
      "Ġnon": 4725,
      "Ġaston": 4726,
      "ĠSuch": 4727,
      "requ": 4728,
      "ĠMart": 4729,
      "ĠLU": 4730,
      "Ġmerch": 4731,
      "Christ": 4732,
      "Ab": 4733,
      "follow": 4734,
      "Ġengine": 4735,
      "ĠPet": 4736,
      "Ġbrave": 4737,
      "sw": 4738,
      "rant": 4739,
      "!âĢĶ": 4740,
      "ĠSeptember": 4741,
      "ĠMont": 4742,
      "Ġefforts": 4743,
      "Ġ180": 4744,
      "arest": 4745,
      "Ġservices": 4746,
      "Ġfund": 4747,
      "Ġrefused": 4748,
      "Ġstands": 4749,
      "Ġtriumph": 4750,
      "Ġkey": 4751,
      "Ġquantity": 4752,
      "Ġcommit": 4753,
      "Ġ179": 4754,
      "Ġsaf": 4755,
      "Ġbranches": 4756,
      "cean": 4757,
      "Ġbless": 4758,
      "Ġeggs": 4759,
      "Ġprinciple": 4760,
      "Ġpit": 4761,
      "ĠMag": 4762,
      "Ġprefer": 4763,
      "Ġcompanion": 4764,
      "ica": 4765,
      "Ġeld": 4766,
      "Ġearnest": 4767,
      "Ġcouldn": 4768,
      "Ġwounded": 4769,
      "Ġamb": 4770,
      "Ġgas": 4771,
      "necess": 4772,
      "ĠVirgin": 4773,
      "Ġcontem": 4774,
      "bury": 4775,
      "Ġanxious": 4776,
      "ĠHarry": 4777,
      "Ġvaluable": 4778,
      "Ġdoctr": 4779,
      "bits": 4780,
      "eding": 4781,
      "mes": 4782,
      "Ġflat": 4783,
      "ERS": 4784,
      "iber": 4785,
      "ĠMore": 4786,
      "equ": 4787,
      "ĠGermany": 4788,
      "Ġregion": 4789,
      "panied": 4790,
      "pring": 4791,
      "Ġpride": 4792,
      "Ġapproach": 4793,
      "Ġfeatures": 4794,
      "Ġhath": 4795,
      "While": 4796,
      "inet": 4797,
      "ula": 4798,
      "illa": 4799,
      "Ġsevere": 4800,
      "Ġprovide": 4801,
      "ĊĊĠĠĠĠĠĠĠĠĠ": 4802,
      "Ġslaves": 4803,
      "ĠIII": 4804,
      "ĠJud": 4805,
      "Ġclearly": 4806,
      "Ġconsist": 4807,
      "emies": 4808,
      "ifferent": 4809,
      "Ġdarkness": 4810,
      "Ġtask": 4811,
      "ĠFeb": 4812,
      "Ġinstinct": 4813,
      "gra": 4814,
      "ĠBlack": 4815,
      "Ġscient": 4816,
      "ĠRom": 4817,
      "Ġble": 4818,
      "Ġsubjects": 4819,
      "ĠWood": 4820,
      "Ġlabor": 4821,
      "board": 4822,
      "Ġ-": 4823,
      "ĠProducer": 4824,
      "Nov": 4825,
      "Ġpromised": 4826,
      "itute": 4827,
      "Ġexplained": 4828,
      "Ġdesired": 4829,
      "Ġtransl": 4830,
      "Ġofficial": 4831,
      "Ġhighly": 4832,
      "Ġnumbers": 4833,
      "Ġglory": 4834,
      "Ġfond": 4835,
      "ovember": 4836,
      "cember": 4837,
      "mony": 4838,
      "Ġge": 4839,
      "Ġsmiled": 4840,
      "Ġdrive": 4841,
      "Ġsorry": 4842,
      "ĠCast": 4843,
      "Ġapparently": 4844,
      "Ġarr": 4845,
      "ĠBro": 4846,
      "Ġscreen": 4847,
      "ĠSer": 4848,
      "Ġcruel": 4849,
      "Se": 4850,
      "agon": 4851,
      "Ġrelief": 4852,
      "Ġloud": 4853,
      "mind": 4854,
      "Ġtreatment": 4855,
      "inate": 4856,
      "Ġjoined": 4857,
      "ĠPark": 4858,
      "Ġsubs": 4859,
      "Ġproportion": 4860,
      "Ġstones": 4861,
      "ĠHigh": 4862,
      "incess": 4863,
      "tering": 4864,
      "Come": 4865,
      "Ġnoticed": 4866,
      "ĠGood": 4867,
      "amil": 4868,
      "Ġ1913": 4869,
      "mo": 4870,
      "adv": 4871,
      "Ġbelief": 4872,
      "Ġtail": 4873,
      "Ġglance": 4874,
      "Ġsuffer": 4875,
      "Ġshoot": 4876,
      "aved": 4877,
      "pected": 4878,
      "ĠWhile": 4879,
      "Ġfollows": 4880,
      "utenant": 4881,
      "Ġlat": 4882,
      "\"'": 4883,
      "Ġwindows": 4884,
      "Ġinnoc": 4885,
      "ivered": 4886,
      "va": 4887,
      "Ġguns": 4888,
      "Ġcultiv": 4889,
      "55": 4890,
      "Ġempt": 4891,
      "Ġsugar": 4892,
      "Ġmighty": 4893,
      "ogue": 4894,
      "Ġspoken": 4895,
      "Ġlegs": 4896,
      "Ġrout": 4897,
      "Ġchanges": 4898,
      "Ġdropped": 4899,
      "ĠMany": 4900,
      "Ġlabour": 4901,
      "Ġshadow": 4902,
      "Ġrocks": 4903,
      "Ġcarrying": 4904,
      "Ġremarked": 4905,
      "Ġburst": 4906,
      "cur": 4907,
      "Ġhearts": 4908,
      "Ġ1927": 4909,
      "Apr": 4910,
      "amps": 4911,
      "ĠSunday": 4912,
      "thur": 4913,
      "Ġflower": 4914,
      "Ġfailed": 4915,
      "ino": 4916,
      "Ġbuy": 4917,
      "ĠArt": 4918,
      "Ġslave": 4919,
      "Ġfaint": 4920,
      "because": 4921,
      "Ġevidently": 4922,
      "Ġaffection": 4923,
      "het": 4924,
      "Ġpred": 4925,
      "aming": 4926,
      "Ġconsequence": 4927,
      "Ġparents": 4928,
      "ĠNational": 4929,
      "osen": 4930,
      "Ġbreakfast": 4931,
      "ĠIm": 4932,
      "Ġmaintain": 4933,
      "Ġneighbour": 4934,
      "ĠTe": 4935,
      "wind": 4936,
      "Ġfifteen": 4937,
      "UN": 4938,
      "ĠÂ£": 4939,
      "Ġmile": 4940,
      "Ġblow": 4941,
      "inces": 4942,
      "going": 4943,
      "pon": 4944,
      "CE": 4945,
      "Ġinstr": 4946,
      "Ġshook": 4947,
      "Ġgradually": 4948,
      "estic": 4949,
      "Ġfancy": 4950,
      "care": 4951,
      "return": 4952,
      "orted": 4953,
      "esc": 4954,
      "Ġcloth": 4955,
      "acle": 4956,
      "Ġconnected": 4957,
      "years": 4958,
      "Ġgar": 4959,
      "ĠJul": 4960,
      "Ġpage": 4961,
      "ĠTwo": 4962,
      "Ġcrossed": 4963,
      "Americ": 4964,
      "del": 4965,
      "Ġexplain": 4966,
      "Ġcommunity": 4967,
      "Ġfault": 4968,
      "theless": 4969,
      "ĠYour": 4970,
      "onder": 4971,
      "Ġdisapp": 4972,
      "ĠPresent": 4973,
      "Ġdust": 4974,
      "Ġcoat": 4975,
      "Ġyards": 4976,
      "Ġsuggested": 4977,
      "Ġappointed": 4978,
      "Ġclosely": 4979,
      "sing": 4980,
      "Ġactive": 4981,
      "Ġknowing": 4982,
      "Ġservant": 4983,
      "Ġconfidence": 4984,
      "hers": 4985,
      "make": 4986,
      "Ġ37": 4987,
      "ications": 4988,
      "ieur": 4989,
      "Ġlover": 4990,
      "Ġenthus": 4991,
      "Ġcow": 4992,
      "Ġshel": 4993,
      "Ġmarry": 4994,
      "Ġfaces": 4995,
      "Ġluck": 4996,
      "ATION": 4997,
      "Ġdistinguished": 4998,
      "ĠSen": 4999,
      "Ġexpressed": 5000,
      "ĠEn": 5001,
      "Ġsafety": 5002,
      "Ġreader": 5003,
      "Ġremembered": 5004,
      "Ġtaught": 5005,
      "Ġbecoming": 5006,
      "Ġbreast": 5007,
      "Ġessential": 5008,
      "Ġcontrary": 5009,
      "Ġpractical": 5010,
      "Ġoccurred": 5011,
      "Ġmoving": 5012,
      "ĠFrancis": 5013,
      "Ġtext": 5014,
      "?'": 5015,
      "Ġfigures": 5016,
      "Ġunknown": 5017,
      "fg": 5018,
      "Ġconnection": 5019,
      "rain": 5020,
      "Ġpocket": 5021,
      "Your": 5022,
      "Ġfreedom": 5023,
      "Ġerect": 5024,
      "Ġcolon": 5025,
      "Ġsuccessful": 5026,
      "po": 5027,
      "Ġnecessity": 5028,
      "Ġdescription": 5029,
      "ishes": 5030,
      "same": 5031,
      "Ġpor": 5032,
      "ights": 5033,
      "Ġpu": 5034,
      "Ġqueen": 5035,
      "world": 5036,
      "Can": 5037,
      "still": 5038,
      "Ġdign": 5039,
      "Ġwilling": 5040,
      "Ġpreced": 5041,
      "fle": 5042,
      "itement": 5043,
      "ĠWhite": 5044,
      "utch": 5045,
      "Ġpriest": 5046,
      "urt": 5047,
      "ĠAnn": 5048,
      "ĠMil": 5049,
      "Ġdangerous": 5050,
      "Ġmix": 5051,
      "ington": 5052,
      "88": 5053,
      "giv": 5054,
      "Ġeffects": 5055,
      "quar": 5056,
      "Ġharm": 5057,
      "action": 5058,
      "ician": 5059,
      "olid": 5060,
      "Ġappreci": 5061,
      "See": 5062,
      "Ġlod": 5063,
      "eg": 5064,
      "Ġgathered": 5065,
      "Ġrisk": 5066,
      "General": 5067,
      "oir": 5068,
      "Ġforgotten": 5069,
      "Ġgather": 5070,
      "Ġstore": 5071,
      "acqu": 5072,
      "Ġinhabitants": 5073,
      "opp": 5074,
      "utation": 5075,
      "went": 5076,
      "aks": 5077,
      "Jun": 5078,
      "Ġaside": 5079,
      "ĠPat": 5080,
      "force": 5081,
      "Ġfields": 5082,
      "ige": 5083,
      "Ġtal": 5084,
      "Ġsolemn": 5085,
      "Ġsplendid": 5086,
      "Ġhandsome": 5087,
      "ĠIreland": 5088,
      "Ġstudents": 5089,
      "atis": 5090,
      "Ġinterests": 5091,
      "Ġ100": 5092,
      "Ġsolid": 5093,
      "iel": 5094,
      "Aug": 5095,
      "Ġunderstanding": 5096,
      "Ġpick": 5097,
      "ounding": 5098,
      "mense": 5099,
      "ĠJim": 5100,
      "ruary": 5101,
      "Ġdivided": 5102,
      "Ġtired": 5103,
      "note": 5104,
      "Ġrapidly": 5105,
      "ulations": 5106,
      "Ġvariety": 5107,
      "Ġconcer": 5108,
      "anch": 5109,
      "Ġens": 5110,
      "pur": 5111,
      "itchen": 5112,
      "ĠMfg": 5113,
      "Ġfingers": 5114,
      "Ġcolumn": 5115,
      "Ġcomposed": 5116,
      "Ġpossessed": 5117,
      "Ġindustry": 5118,
      "Ġaver": 5119,
      "ĠScott": 5120,
      "Ġsword": 5121,
      "ĠItaly": 5122,
      "adel": 5123,
      "rait": 5124,
      "atively": 5125,
      "Ġfinal": 5126,
      "Ġmas": 5127,
      "Ġjudgment": 5128,
      "ieved": 5129,
      "Ġfinding": 5130,
      "uts": 5131,
      "ĠMaster": 5132,
      "ĠWal": 5133,
      "Ġcounty": 5134,
      "ĠHim": 5135,
      "cor": 5136,
      "Ġindu": 5137,
      "Ġextend": 5138,
      "ĠIts": 5139,
      "ĠInst": 5140,
      "Ġintellect": 5141,
      "ĠCont": 5142,
      "Ġshoulder": 5143,
      "appear": 5144,
      "Ġstars": 5145,
      "Ġcrim": 5146,
      "ĠCongress": 5147,
      "Ġsoldier": 5148,
      "onsieur": 5149,
      "Ġdivine": 5150,
      "Ġpopulation": 5151,
      "Ġresour": 5152,
      "Ġpounds": 5153,
      "ĠGreek": 5154,
      "nothing": 5155,
      "Ġreign": 5156,
      "Ġstories": 5157,
      "rifice": 5158,
      "Sep": 5159,
      "angers": 5160,
      "ĠLife": 5161,
      "Ġmanif": 5162,
      "Ġsmooth": 5163,
      "ouds": 5164,
      "MP": 5165,
      "Ġarrival": 5166,
      "Ġstated": 5167,
      "Ġprotection": 5168,
      "Ġsaved": 5169,
      "Ġsuffered": 5170,
      "Ġcollect": 5171,
      "Ġartist": 5172,
      "UT": 5173,
      "lie": 5174,
      "another": 5175,
      "cribed": 5176,
      "ball": 5177,
      "Ġactual": 5178,
      "irit": 5179,
      "Ġshoulders": 5180,
      "Ġbell": 5181,
      "Ġflag": 5182,
      "iest": 5183,
      "Ġdriven": 5184,
      "Ġdoesn": 5185,
      "Ġprayer": 5186,
      "arts": 5187,
      "isp": 5188,
      "ĠWhere": 5189,
      "henomen": 5190,
      "Ġacid": 5191,
      "Ġgolden": 5192,
      "ĠJoe": 5193,
      "others": 5194,
      "Ġing": 5195,
      "Ġdisplay": 5196,
      "rue": 5197,
      "Ġinformed": 5198,
      "Ġ39": 5199,
      "Ġkinds": 5200,
      "mir": 5201,
      "ĠHel": 5202,
      "udden": 5203,
      "Ġduties": 5204,
      "ĠArch": 5205,
      "Ġconsideration": 5206,
      "Ġobjects": 5207,
      "Ġcareful": 5208,
      "Ġrank": 5209,
      "Ġreck": 5210,
      "olit": 5211,
      "ky": 5212,
      "Ġtwice": 5213,
      "ĠBritain": 5214,
      "Ġaband": 5215,
      "Ġimpl": 5216,
      "Ġwriter": 5217,
      "Ġfighting": 5218,
      "Ġsche": 5219,
      "Ġprevious": 5220,
      "too": 5221,
      "acters": 5222,
      "Ġcere": 5223,
      "Ġarticle": 5224,
      "Ġcontract": 5225,
      "Ġuncle": 5226,
      "Ġ31": 5227,
      "Ġinterrupt": 5228,
      "Ġpolicy": 5229,
      "Ġemer": 5230,
      "Ġskill": 5231,
      "took": 5232,
      "Ġrecommend": 5233,
      "pret": 5234,
      "abor": 5235,
      "Ġthrow": 5236,
      "Ġsmoke": 5237,
      "Ġmission": 5238,
      "Ġspecim": 5239,
      "Ġride": 5240,
      "Ġadmin": 5241,
      "Ġflesh": 5242,
      "avi": 5243,
      "Ġadmitted": 5244,
      "ĠCompany": 5245,
      "Sc": 5246,
      "Ġunfortun": 5247,
      "Ġaware": 5248,
      "pic": 5249,
      "taken": 5250,
      "Ġmachine": 5251,
      "ria": 5252,
      "Ġdeeply": 5253,
      "vest": 5254,
      "Â½": 5255,
      "Ġ38": 5256,
      "Ġain": 5257,
      "ulph": 5258,
      "mist": 5259,
      "ĠProfessor": 5260,
      "cknow": 5261,
      "Ġstranger": 5262,
      "Ġbearing": 5263,
      "avy": 5264,
      "ĠElizabeth": 5265,
      "inity": 5266,
      "ictor": 5267,
      "Ġgoods": 5268,
      "Ġcontinue": 5269,
      "aith": 5270,
      "Ġaim": 5271,
      "Ġmental": 5272,
      "Ġavoid": 5273,
      "Ġmyst": 5274,
      "Ġtreated": 5275,
      "ĠVol": 5276,
      "seen": 5277,
      "Ġsli": 5278,
      "ĠBet": 5279,
      "âĢĤ": 5280,
      "Ġbusy": 5281,
      "ĠLake": 5282,
      "Ġeffic": 5283,
      "Ġjoin": 5284,
      "Ġ200": 5285,
      "Ġhurt": 5286,
      "Ġveget": 5287,
      "Ġbranch": 5288,
      "Ġoil": 5289,
      "rian": 5290,
      "iform": 5291,
      "Ġsurprised": 5292,
      "och": 5293,
      "Ġquietly": 5294,
      "host": 5295,
      "erate": 5296,
      "born": 5297,
      "la": 5298,
      "ĠBook": 5299,
      "Ġinterested": 5300,
      "Ġfalling": 5301,
      "Ġrom": 5302,
      "Ġrele": 5303,
      "Ġfarther": 5304,
      "gs": 5305,
      "Ġwants": 5306,
      "Ġ1929": 5307,
      "Ġdata": 5308,
      "teenth": 5309,
      "Ġwings": 5310,
      "Ġsacred": 5311,
      "ĠNapoleon": 5312,
      "Ġproposed": 5313,
      "pres": 5314,
      "Ġnorthern": 5315,
      "rand": 5316,
      "ĠSal": 5317,
      "Ġcompet": 5318,
      "Ġaccess": 5319,
      "Ġretreat": 5320,
      "Ġbi": 5321,
      "Ġdeveloped": 5322,
      "ums": 5323,
      "42": 5324,
      "esides": 5325,
      "Ġregret": 5326,
      "rim": 5327,
      "Ġbridge": 5328,
      "Ġmeat": 5329,
      "etch": 5330,
      "Ġacknow": 5331,
      "75": 5332,
      "Ġlands": 5333,
      "Ġnarr": 5334,
      "Ġreven": 5335,
      "Ġearlier": 5336,
      "gest": 5337,
      "young": 5338,
      "Ġhappen": 5339,
      "Ġbringing": 5340,
      "Ġintroduced": 5341,
      "mus": 5342,
      "Ġspirits": 5343,
      "Ġpity": 5344,
      "Ġdozen": 5345,
      "rows": 5346,
      "Ġdare": 5347,
      "ĠRev": 5348,
      "Ġaccepted": 5349,
      "Ġproblem": 5350,
      "Ġ1928": 5351,
      "ĠEmperor": 5352,
      "Ġfairly": 5353,
      "Ġinches": 5354,
      "Ġpalace": 5355,
      "OV": 5356,
      "Ġviews": 5357,
      "Ġcloud": 5358,
      "Ġpartly": 5359,
      "Ġcapable": 5360,
      "ĠItalian": 5361,
      "Ġalive": 5362,
      "ography": 5363,
      "woman": 5364,
      "LU": 5365,
      "Ġrese": 5366,
      "lessly": 5367,
      "Ġtruly": 5368,
      "Ġconstitution": 5369,
      "Ġspiritual": 5370,
      "Ġrepresented": 5371,
      "anks": 5372,
      "Ġabund": 5373,
      "Ġminds": 5374,
      "sper": 5375,
      "ĠJo": 5376,
      "Ġsurely": 5377,
      "Ġapplied": 5378,
      "66": 5379,
      "offee": 5380,
      "Ġamongst": 5381,
      "43": 5382,
      "ĠJanuary": 5383,
      "Ġahead": 5384,
      "Ġjob": 5385,
      "ients": 5386,
      "ĠLu": 5387,
      "onds": 5388,
      "const": 5389,
      "Ġwand": 5390,
      "Ġcro": 5391,
      "olf": 5392,
      "Ġsheep": 5393,
      "Ġwatching": 5394,
      "Ġends": 5395,
      "mosp": 5396,
      "ena": 5397,
      "ĠCons": 5398,
      "razil": 5399,
      "Ġnet": 5400,
      "urd": 5401,
      "ĠMal": 5402,
      "Ġbay": 5403,
      "ldom": 5404,
      "Ġenemies": 5405,
      "Ġcouple": 5406,
      "anim": 5407,
      "Ġconven": 5408,
      "Ġhuge": 5409,
      "ĠSat": 5410,
      "ĠRoyal": 5411,
      "ĠNovember": 5412,
      "ships": 5413,
      "Ġfemale": 5414,
      "Ġshowing": 5415,
      "Ġprepar": 5416,
      "sured": 5417,
      "Ġach": 5418,
      "Ġwhilst": 5419,
      "Ġevident": 5420,
      "Ġschools": 5421,
      "ca": 5422,
      "Ġbag": 5423,
      "arth": 5424,
      "Ġarea": 5425,
      "Ġsmaller": 5426,
      "story": 5427,
      "ĠSchool": 5428,
      "Ġthoroughly": 5429,
      "Ġwhispered": 5430,
      "RA": 5431,
      "Ġtelling": 5432,
      "Ġdevoted": 5433,
      "oups": 5434,
      "Ġstruggle": 5435,
      "Ġexception": 5436,
      "Ġreward": 5437,
      "Ġrode": 5438,
      "ĠDecember": 5439,
      "Ġkeen": 5440,
      "Ġwalking": 5441,
      "otes": 5442,
      "igation": 5443,
      "Ġgained": 5444,
      "Ġaccompanied": 5445,
      "Ġextraordinary": 5446,
      "!'": 5447,
      "amount": 5448,
      "Ġmechan": 5449,
      "Ġburning": 5450,
      "Ġpossibly": 5451,
      "Ġacquaint": 5452,
      "ĠCatholic": 5453,
      "Ġflo": 5454,
      "Ġdetails": 5455,
      "Ġdemanded": 5456,
      "agn": 5457,
      "aign": 5458,
      "Ġcauses": 5459,
      "Ġsouthern": 5460,
      "Ġexercise": 5461,
      "Ã§": 5462,
      "Ġdisease": 5463,
      "Ã¶": 5464,
      "Ġentrance": 5465,
      "90": 5466,
      "Ġholy": 5467,
      "ere": 5468,
      "Ġbore": 5469,
      "Ġconcerning": 5470,
      "west": 5471,
      "Ġadvice": 5472,
      "Ġpersu": 5473,
      "Ġcreature": 5474,
      "Ġschol": 5475,
      "Phil": 5476,
      "Ġmurm": 5477,
      "Ġsons": 5478,
      "ĠTer": 5479,
      "sey": 5480,
      "Ġassist": 5481,
      "da": 5482,
      "antry": 5483,
      "Ġchoice": 5484,
      "hard": 5485,
      "Ġsuspect": 5486,
      "Ġputting": 5487,
      "Ġlovely": 5488,
      "Â·": 5489,
      "Ġsource": 5490,
      "Ġnod": 5491,
      "ĠBay": 5492,
      "Ġwasn": 5493,
      "ĠSim": 5494,
      "Ġphot": 5495,
      "cra": 5496,
      "Ġconstant": 5497,
      "held": 5498,
      "ĠVit": 5499,
      "ĠRes": 5500,
      "Ġremind": 5501,
      "ĠAc": 5502,
      "Ġimpression": 5503,
      "Ġreasons": 5504,
      "Ġforb": 5505,
      "far": 5506,
      "Ġrelations": 5507,
      "Ġabsence": 5508,
      "41": 5509,
      "fin": 5510,
      "El": 5511,
      "kin": 5512,
      "Ġspect": 5513,
      "Ġplaying": 5514,
      "Ġhurried": 5515,
      "coming": 5516,
      "among": 5517,
      "ĠMaria": 5518,
      "Ġsust": 5519,
      "ĠCity": 5520,
      "ĠWho": 5521,
      "Ġgenius": 5522,
      "Ġfly": 5523,
      "Ġexplan": 5524,
      "Ġstick": 5525,
      "ardon": 5526,
      "Ġconcerned": 5527,
      "ĠVer": 5528,
      "Ġattached": 5529,
      "Ġimagine": 5530,
      "ĠRepublic": 5531,
      "Ġwaited": 5532,
      "Ġfortun": 5533,
      "Ġvessels": 5534,
      "Ġolder": 5535,
      "ĠDay": 5536,
      "Ġtrial": 5537,
      "Ġnoise": 5538,
      "Ġrooms": 5539,
      "Ġsatisfied": 5540,
      "Ġul": 5541,
      "Ġproceeded": 5542,
      "gain": 5543,
      "Ġmarch": 5544,
      "Ġfellows": 5545,
      "ller": 5546,
      "also": 5547,
      "Ġconstantly": 5548,
      "Ġburied": 5549,
      "ĊĊĠĠĠĠĠĠĠĠĠĠĠĠĠĠ": 5550,
      "ĠDor": 5551,
      "UL": 5552,
      "Ġmethods": 5553,
      "Ġtongue": 5554,
      "Ġbatt": 5555,
      "Ġdivision": 5556,
      "Mad": 5557,
      "ĠLove": 5558,
      "Ġtradition": 5559,
      "Ġswift": 5560,
      "case": 5561,
      "ĠMet": 5562,
      "Ġwet": 5563,
      "udes": 5564,
      "terday": 5565,
      "Ġimmense": 5566,
      "arse": 5567,
      "Ġdull": 5568,
      "Ġtalked": 5569,
      "unning": 5570,
      "Ġguide": 5571,
      "happy": 5572,
      "Ġsuit": 5573,
      "things": 5574,
      "Ġcredit": 5575,
      "ker": 5576,
      "tha": 5577,
      "ĠDu": 5578,
      "Ġenviron": 5579,
      "Ġhide": 5580,
      "ĠIll": 5581,
      "Ġorn": 5582,
      "Ġ1926": 5583,
      "Ġseized": 5584,
      "ĠBab": 5585,
      "ĠVen": 5586,
      "Ġwore": 5587,
      "Ġliterature": 5588,
      "Ġtraining": 5589,
      "Ġservants": 5590,
      "fulness": 5591,
      "Ġarranged": 5592,
      "German": 5593,
      "Ġcard": 5594,
      "ĠWorld": 5595,
      "rived": 5596,
      "Sp": 5597,
      "Ġmyster": 5598,
      "Ġrecent": 5599,
      "Ġexcitement": 5600,
      "Ġprince": 5601,
      "Ġtu": 5602,
      "77": 5603,
      "Ġslender": 5604,
      "Ġdisg": 5605,
      "white": 5606,
      "Ġspecific": 5607,
      "ĠBill": 5608,
      "Ġcarriage": 5609,
      "conf": 5610,
      "Ġbrilliant": 5611,
      "Ġlisten": 5612,
      "IGH": 5613,
      "ĠLy": 5614,
      "seless": 5615,
      "Ġsurrounded": 5616,
      "inging": 5617,
      "Ġpup": 5618,
      "ĠCle": 5619,
      "cast": 5620,
      "master": 5621,
      "Ġdressed": 5622,
      "Ġnotes": 5623,
      "enny": 5624,
      "ccording": 5625,
      "Ġarchitect": 5626,
      "cap": 5627,
      "oyage": 5628,
      "hon": 5629,
      "asy": 5630,
      "Ġ1930": 5631,
      "ĠJapan": 5632,
      "ĠDel": 5633,
      "Ġdisci": 5634,
      "Ġabsolutely": 5635,
      "Ġwelcome": 5636,
      "Ġcities": 5637,
      "Ġbegun": 5638,
      "Ġcattle": 5639,
      "Ġtouched": 5640,
      "Ġpresently": 5641,
      "ĠBon": 5642,
      "Ġcareer": 5643,
      "Ġextremely": 5644,
      "Ġindividuals": 5645,
      "ĠFort": 5646,
      "Ġaccident": 5647,
      "Ġcontains": 5648,
      "Ġproduction": 5649,
      "sim": 5650,
      "Ġdelicate": 5651,
      "Ġelements": 5652,
      "oft": 5653,
      "Ġobv": 5654,
      "Ġfamilies": 5655,
      "always": 5656,
      "Ġplenty": 5657,
      "Ġmidst": 5658,
      "six": 5659,
      "ĠRose": 5660,
      "otest": 5661,
      "apel": 5662,
      "ĠDiv": 5663,
      "Ġprompt": 5664,
      "Ã±": 5665,
      "Ġanal": 5666,
      "apers": 5667,
      "Ġplans": 5668,
      "idents": 5669,
      "Ġstriking": 5670,
      "Ġvo": 5671,
      "ĠSociety": 5672,
      "ĠColumb": 5673,
      "ae": 5674,
      "Ġunable": 5675,
      "âĢ²âĢĶ": 5676,
      "Ġangry": 5677,
      "Ġsympathy": 5678,
      "Ġcrime": 5679,
      "ĠScotland": 5680,
      "Just": 5681,
      "rat": 5682,
      "Ġshell": 5683,
      "iot": 5684,
      "Ġemotion": 5685,
      "Ġreflect": 5686,
      "low": 5687,
      "porary": 5688,
      "Ġteach": 5689,
      "Ġaffair": 5690,
      "Ġdogs": 5691,
      "ints": 5692,
      "ointment": 5693,
      "Ġdemon": 5694,
      "Ġarticles": 5695,
      "Ġcopy": 5696,
      "ARD": 5697,
      "stra": 5698,
      "Ġdelay": 5699,
      "Ġbent": 5700,
      "Ġtells": 5701,
      "nds": 5702,
      "Ġoperations": 5703,
      "Ġfilm": 5704,
      "gram": 5705,
      "Ġgloom": 5706,
      "Ġtempt": 5707,
      "cended": 5708,
      "ĠHill": 5709,
      "Ġtables": 5710,
      "Ġhearing": 5711,
      "Ġstatement": 5712,
      "door": 5713,
      "miss": 5714,
      "ta": 5715,
      "Ġsuffering": 5716,
      "Ġnose": 5717,
      "ĠLand": 5718,
      "Ġdevil": 5719,
      "poss": 5720,
      "produ": 5721,
      "Ġdrove": 5722,
      "icle": 5723,
      "Ġwaste": 5724,
      "Ġaspect": 5725,
      "Ġavailable": 5726,
      "Ġrev": 5727,
      "inese": 5728,
      "iforn": 5729,
      "Ġprisoner": 5730,
      "Ġhopes": 5731,
      "ceive": 5732,
      "ĠBishop": 5733,
      "eenth": 5734,
      "Ġpill": 5735,
      "something": 5736,
      "Ġloose": 5737,
      "Ġoccasionally": 5738,
      "oop": 5739,
      "Ġworn": 5740,
      "Ġcalling": 5741,
      "tle": 5742,
      "Ġseparate": 5743,
      "Ġcollection": 5744,
      "Ġfer": 5745,
      "foot": 5746,
      "Ġsan": 5747,
      "year": 5748,
      "Ġmale": 5749,
      "Ġpil": 5750,
      "ĠFebruary": 5751,
      "51": 5752,
      "Ġcomplex": 5753,
      "Ġcastle": 5754,
      "Ġempty": 5755,
      "lim": 5756,
      "Ġshop": 5757,
      "eling": 5758,
      "Ġprecious": 5759,
      "Ġvirtue": 5760,
      "eless": 5761,
      "Ġcreated": 5762,
      "?âĢĶ": 5763,
      "Ġwed": 5764,
      "ĠLie": 5765,
      "ibr": 5766,
      "name": 5767,
      "Ġconclusion": 5768,
      "Ġparties": 5769,
      "Ġideal": 5770,
      "Ġcalls": 5771,
      "owder": 5772,
      "iency": 5773,
      "Ġminister": 5774,
      "ona": 5775,
      "each": 5776,
      "ĠGreen": 5777,
      "bus": 5778,
      "uit": 5779,
      "Ġdesper": 5780,
      "ĠAct": 5781,
      "Ġreality": 5782,
      "var": 5783,
      "Ġflight": 5784,
      "Ġassured": 5785,
      "Ġdoc": 5786,
      "Thus": 5787,
      "Ġsuspic": 5788,
      "Ġcontained": 5789,
      "Ġcentral": 5790,
      "top": 5791,
      "Ġmurder": 5792,
      "ĠSar": 5793,
      "ĠPhilip": 5794,
      "ĠFig": 5795,
      "Ġarrest": 5796,
      "Ġadmit": 5797,
      "ELL": 5798,
      "Ġmal": 5799,
      "Ġsolution": 5800,
      "pire": 5801,
      "ĠOx": 5802,
      "Ġmaterials": 5803,
      "ĠMex": 5804,
      "Ġintelligence": 5805,
      "icles": 5806,
      "Ġdiscovery": 5807,
      "89": 5808,
      "Ġpour": 5809,
      "Ġworst": 5810,
      "ĠMajesty": 5811,
      "looked": 5812,
      "Ġexcited": 5813,
      "Ġfold": 5814,
      "Ġdoors": 5815,
      "ref": 5816,
      "urches": 5817,
      "Ġcalcul": 5818,
      "once": 5819,
      "ilty": 5820,
      "ecause": 5821,
      "Ġsatisfaction": 5822,
      "Ġnearer": 5823,
      "Did": 5824,
      "Char": 5825,
      "Ġfleet": 5826,
      "burgh": 5827,
      "Ġdistribut": 5828,
      "Ġsupper": 5829,
      "Ġimmediate": 5830,
      "Ġdrop": 5831,
      "ĠEuropean": 5832,
      "Ġteam": 5833,
      "ĊĊĠĊĠ": 5834,
      "however": 5835,
      "dr": 5836,
      "Ġchosen": 5837,
      "ĠAunt": 5838,
      "Ġsection": 5839,
      "Ġax": 5840,
      "EW": 5841,
      "having": 5842,
      "xx": 5843,
      "oral": 5844,
      "ĠCoun": 5845,
      "Ġplate": 5846,
      "avalry": 5847,
      "ado": 5848,
      "Ġhesit": 5849,
      "cut": 5850,
      "asted": 5851,
      "Ġinquir": 5852,
      "Ġphenomen": 5853,
      "ĠMill": 5854,
      "Ã©e": 5855,
      "iable": 5856,
      "Ġdegrees": 5857,
      "olution": 5858,
      "Ġfourth": 5859,
      "Ġprisoners": 5860,
      "umin": 5861,
      "Ġvisited": 5862,
      "Ġchapter": 5863,
      "Ġprivile": 5864,
      "ĠAfrica": 5865,
      "Ġdying": 5866,
      "urely": 5867,
      "Ġbaby": 5868,
      "Ġbased": 5869,
      "aging": 5870,
      "ĠPerhaps": 5871,
      "gent": 5872,
      "ĠHoly": 5873,
      "ĠIV": 5874,
      "Ġmillion": 5875,
      "Ġimpress": 5876,
      "Ġwestern": 5877,
      "Par": 5878,
      "Ġdish": 5879,
      "bor": 5880,
      "Ġwholly": 5881,
      "Ġ1937": 5882,
      "Ġpatient": 5883,
      "iture": 5884,
      "Ġgle": 5885,
      "ĠDes": 5886,
      "Ġsurv": 5887,
      "ĠPortug": 5888,
      "Ġcompre": 5889,
      "ifying": 5890,
      "Ġproduct": 5891,
      "Ġhoped": 5892,
      "aviour": 5893,
      "Ġrender": 5894,
      "Ġclasses": 5895,
      "Ġ1925": 5896,
      "Ġadminist": 5897,
      "Åĵ": 5898,
      "Ġhither": 5899,
      "bridge": 5900,
      "arte": 5901,
      "Ġreduced": 5902,
      "ĠCamp": 5903,
      "Ġrequest": 5904,
      "ture": 5905,
      "Ġadopted": 5906,
      "Ġ60": 5907,
      "Ne": 5908,
      "Ġgay": 5909,
      "ĠSpe": 5910,
      "omer": 5911,
      "Ġobst": 5912,
      "pot": 5913,
      "Ġfaithful": 5914,
      "earing": 5915,
      "owned": 5916,
      "Every": 5917,
      "Ġmedic": 5918,
      "Ġhaven": 5919,
      "oused": 5920,
      "beaut": 5921,
      "tell": 5922,
      "Ġamid": 5923,
      "Ġthousands": 5924,
      "Ġintention": 5925,
      "65": 5926,
      "inced": 5927,
      "Ġyours": 5928,
      "Ġreference": 5929,
      "Ġmessage": 5930,
      "Ġlifted": 5931,
      "large": 5932,
      "rub": 5933,
      "Ġliqu": 5934,
      "ĠUnion": 5935,
      "erick": 5936,
      "ĠPers": 5937,
      "Ġcharacters": 5938,
      "Ġdepos": 5939,
      "ĠCarol": 5940,
      "ulse": 5941,
      "alls": 5942,
      "Ġstout": 5943,
      "87": 5944,
      "Ġcontro": 5945,
      "Ġsetting": 5946,
      "Ġscientific": 5947,
      "69": 5948,
      "natural": 5949,
      "mons": 5950,
      "ĠHu": 5951,
      "ĠGo": 5952,
      "Ġelement": 5953,
      "Ġbenefit": 5954,
      "Ġped": 5955,
      "VI": 5956,
      "Ġexha": 5957,
      "regular": 5958,
      "Ġcitizens": 5959,
      "Ġpages": 5960,
      "acon": 5961,
      "Ġended": 5962,
      "common": 5963,
      "67": 5964,
      "Ġtowns": 5965,
      "small": 5966,
      "ourn": 5967,
      "Ġforming": 5968,
      "ĠTrans": 5969,
      "Ġoperation": 5970,
      "Ġextended": 5971,
      "uity": 5972,
      "Ġfought": 5973,
      "Ġinner": 5974,
      "ĠEr": 5975,
      "Ġcritic": 5976,
      "ael": 5977,
      "Ġshame": 5978,
      "Ġstrict": 5979,
      "ĠCam": 5980,
      "ĠCounty": 5981,
      "mosphere": 5982,
      "inking": 5983,
      "Ġaccur": 5984,
      "volution": 5985,
      "ustomed": 5986,
      "Ġfil": 5987,
      "Ġvision": 5988,
      "Ġjew": 5989,
      "Ġattended": 5990,
      "Ġpurposes": 5991,
      "alia": 5992,
      "ĠNature": 5993,
      "ties": 5994,
      "Ġkindly": 5995,
      "Ġmoments": 5996,
      "ESS": 5997,
      "erk": 5998,
      "atre": 5999,
      "dep": 6000,
      "ĠMass": 6001,
      "inction": 6002,
      "arden": 6003,
      "Ġimagination": 6004,
      "Ġprospect": 6005,
      "Ġ1920": 6006,
      "det": 6007,
      "writ": 6008,
      "asions": 6009,
      "Ġpulled": 6010,
      "Ġdestroyed": 6011,
      "icity": 6012,
      "Ġkitchen": 6013,
      "iana": 6014,
      "Ġassistance": 6015,
      "Ġ1934": 6016,
      "Ġconsult": 6017,
      "ĠGold": 6018,
      "urance": 6019,
      "Ġvic": 6020,
      "ourable": 6021,
      "ef": 6022,
      "Ġdefinite": 6023,
      "Ġhit": 6024,
      "contin": 6025,
      "Ġproperly": 6026,
      "ĠAlexander": 6027,
      "love": 6028,
      "uce": 6029,
      "Ġchall": 6030,
      "Ġliked": 6031,
      "Are": 6032,
      "Ġcas": 6033,
      "rep": 6034,
      "EST": 6035,
      "ĠRussia": 6036,
      "IF": 6037,
      "Ġrear": 6038,
      "Ġclouds": 6039,
      "Ġhidden": 6040,
      "cia": 6041,
      "Ġcircle": 6042,
      "Ġmagnific": 6043,
      "Ġconsum": 6044,
      "Ġmistake": 6045,
      "ĠBoston": 6046,
      "iverse": 6047,
      "tow": 6048,
      "ura": 6049,
      "uns": 6050,
      "Ġbought": 6051,
      "Ġnest": 6052,
      "Ġstern": 6053,
      "Ġterror": 6054,
      "Ġ1936": 6055,
      "making": 6056,
      "Ġelectric": 6057,
      "ĠMa": 6058,
      "Ġchamber": 6059,
      "elson": 6060,
      "Ġcompanions": 6061,
      "Ġplat": 6062,
      "Ġcondem": 6063,
      "Ġ1921": 6064,
      "Ġchiefly": 6065,
      "Ġacts": 6066,
      "ĠDuring": 6067,
      "sent": 6068,
      "Ġrevolution": 6069,
      "wed": 6070,
      "Ġweap": 6071,
      "Ġnatives": 6072,
      "ser": 6073,
      "icted": 6074,
      "Ġlux": 6075,
      "Ġchoose": 6076,
      "Ġframe": 6077,
      "usual": 6078,
      "ifornia": 6079,
      "ĠAss": 6080,
      "gments": 6081,
      "otton": 6082,
      "Ġbanks": 6083,
      "Ġcrew": 6084,
      "Ġvisible": 6085,
      "Ġsingular": 6086,
      "orial": 6087,
      "eration": 6088,
      "Ġhang": 6089,
      "Ġseldom": 6090,
      "ĠLin": 6091,
      "Ġattitude": 6092,
      "ĠHeaven": 6093,
      "Ġclub": 6094,
      "Ġinvent": 6095,
      "itty": 6096,
      "Ġvictory": 6097,
      "English": 6098,
      "class": 6099,
      "Ġadapt": 6100,
      "ĠProv": 6101,
      "Ġbuildings": 6102,
      "Ġdeck": 6103,
      "En": 6104,
      "Ġho": 6105,
      "ĠBell": 6106,
      "Ġreported": 6107,
      "Ġrendered": 6108,
      "ĠYes": 6109,
      "ĠVirginia": 6110,
      "rors": 6111,
      "Ġrejo": 6112,
      "Ġsufficiently": 6113,
      "Ġcott": 6114,
      "Ġexcess": 6115,
      "uddenly": 6116,
      "rier": 6117,
      "Ġcontaining": 6118,
      "Ġcollege": 6119,
      "Ġraise": 6120,
      "Ġhal": 6121,
      "Ġactivity": 6122,
      "Ġcousin": 6123,
      "har": 6124,
      "ato": 6125,
      "themselves": 6126,
      "Ġworship": 6127,
      "Ġfounded": 6128,
      "Ġstead": 6129,
      "ĠHistory": 6130,
      "oonful": 6131,
      "ĠRussian": 6132,
      "enance": 6133,
      "step": 6134,
      "ĠEmp": 6135,
      "ĠServ": 6136,
      "ĠJeff": 6137,
      "ĠVan": 6138,
      "ĠLittle": 6139,
      "Ġresolved": 6140,
      "reason": 6141,
      "necessary": 6142,
      "Ġsixty": 6143,
      "left": 6144,
      "Ġhole": 6145,
      "Ġpolice": 6146,
      "ĠHon": 6147,
      "Ġenvironment": 6148,
      "Ġgrief": 6149,
      "Ġstructure": 6150,
      "cho": 6151,
      "Ġalt": 6152,
      "ĠFar": 6153,
      "yet": 6154,
      "Ġshr": 6155,
      "oser": 6156,
      "ĠGree": 6157,
      "ĠRob": 6158,
      "Ġspend": 6159,
      "Ġabsor": 6160,
      "ĠMark": 6161,
      "52": 6162,
      "disc": 6163,
      "real": 6164,
      "Ġ1931": 6165,
      "ĠSel": 6166,
      "Ġsimpl": 6167,
      "Ġlistened": 6168,
      "ĠIsland": 6169,
      "Ġaddressed": 6170,
      "ounce": 6171,
      "Ġspl": 6172,
      "addle": 6173,
      "Ġhotel": 6174,
      "Yet": 6175,
      "Ġcelebrated": 6176,
      "imately": 6177,
      "ĠTH": 6178,
      "ĠOff": 6179,
      "Ġ1924": 6180,
      "Ġ1918": 6181,
      "Ġterrit": 6182,
      "othy": 6183,
      "Ġscenario": 6184,
      "Ġpraise": 6185,
      "gener": 6186,
      "Ġboats": 6187,
      "Ġpainted": 6188,
      "Ġescaped": 6189,
      "Ġdoctrine": 6190,
      "ĠMen": 6191,
      "Ġcaut": 6192,
      "Ġlibr": 6193,
      "Ġhabits": 6194,
      "Ġsigns": 6195,
      "coln": 6196,
      "Ġissue": 6197,
      "weet": 6198,
      "comfort": 6199,
      "AK": 6200,
      "Ġstuff": 6201,
      "Ġtrack": 6202,
      "organ": 6203,
      "Go": 6204,
      "rical": 6205,
      "ĠKe": 6206,
      "Tr": 6207,
      "general": 6208,
      "inger": 6209,
      "oqu": 6210,
      "ĠÃł": 6211,
      "pent": 6212,
      "68": 6213,
      "Man": 6214,
      "aine": 6215,
      "iosity": 6216,
      "Ġthrone": 6217,
      "zy": 6218,
      "ini": 6219,
      "ĠOnly": 6220,
      "Ġnewsp": 6221,
      "Ġhelped": 6222,
      "Ġcommission": 6223,
      "abled": 6224,
      "apter": 6225,
      "ĠParliament": 6226,
      "Ġdesert": 6227,
      "Ġaverage": 6228,
      "oph": 6229,
      "Ġenorm": 6230,
      "ĠChristmas": 6231,
      "overnor": 6232,
      "Ġceased": 6233,
      "wers": 6234,
      "âĢ¦": 6235,
      "Lord": 6236,
      "ĠAustr": 6237,
      "Ġeverywhere": 6238,
      "trans": 6239,
      "William": 6240,
      "Ġded": 6241,
      "usive": 6242,
      "mical": 6243,
      "Ġsell": 6244,
      "Ġgently": 6245,
      "Ġouter": 6246,
      "Ġgroups": 6247,
      "Ġcheck": 6248,
      "udd": 6249,
      "berg": 6250,
      ".--": 6251,
      "EM": 6252,
      "Ġocean": 6253,
      "until": 6254,
      "era": 6255,
      "Ġnegro": 6256,
      "Dr": 6257,
      "school": 6258,
      "ferences": 6259,
      "Har": 6260,
      "Ġcampaign": 6261,
      "ealous": 6262,
      "ĠMajor": 6263,
      "Ġgrey": 6264,
      "54": 6265,
      "Ġhence": 6266,
      "ĠArthur": 6267,
      "Ġfan": 6268,
      "eyes": 6269,
      "state": 6270,
      "Ġdawn": 6271,
      "import": 6272,
      "inks": 6273,
      "Ġfriendly": 6274,
      "Ġcontact": 6275,
      "ospel": 6276,
      "Ġgods": 6277,
      "ĠMur": 6278,
      "elly": 6279,
      "Ġperformance": 6280,
      "adelph": 6281,
      "Ġpermitted": 6282,
      "Ġseated": 6283,
      "orter": 6284,
      "alle": 6285,
      "Ġconstruct": 6286,
      "ros": 6287,
      "Ġamaz": 6288,
      "Ġdelivered": 6289,
      "Ã´": 6290,
      "ĠBible": 6291,
      "home": 6292,
      "acles": 6293,
      "Ġtotal": 6294,
      "Ġability": 6295,
      "Ġunex": 6296,
      "yer": 6297,
      "ĠCat": 6298,
      "iii": 6299,
      "Ġproc": 6300,
      "Ġcenturies": 6301,
      "enses": 6302,
      "Ġpressure": 6303,
      "Ġtight": 6304,
      "Ġhate": 6305,
      "Ġmercy": 6306,
      "itors": 6307,
      "Ġperformed": 6308,
      "ĠBob": 6309,
      "Ġsym": 6310,
      "Ġinfer": 6311,
      ";\"": 6312,
      "ĠDen": 6313,
      "person": 6314,
      "tense": 6315,
      "ricult": 6316,
      "Ġpressed": 6317,
      "bour": 6318,
      "Ġdefence": 6319,
      "Ġarose": 6320,
      "Ġwing": 6321,
      "IST": 6322,
      "53": 6323,
      "ĠFR": 6324,
      "olved": 6325,
      "pless": 6326,
      "Ġrecognized": 6327,
      "Ġwheel": 6328,
      "ervation": 6329,
      "Ġrelated": 6330,
      "forms": 6331,
      "Ġcompared": 6332,
      "Ġfrequent": 6333,
      "Ġris": 6334,
      "Ġresources": 6335,
      "Ġsuggest": 6336,
      "Ġliterary": 6337,
      "ĠSea": 6338,
      "ban": 6339,
      "aints": 6340,
      "success": 6341,
      "find": 6342,
      "Ġ1919": 6343,
      "Ġwisdom": 6344,
      "Cor": 6345,
      "given": 6346,
      "bra": 6347,
      "ĠFOR": 6348,
      "Ġbark": 6349,
      "ĠEarl": 6350,
      "Ġrecoll": 6351,
      "Ġresolution": 6352,
      "AB": 6353,
      "Ġflood": 6354,
      "79": 6355,
      "Ġma": 6356,
      "amily": 6357,
      "Ġprinted": 6358,
      "effect": 6359,
      "Ġpicked": 6360,
      "Ġfunction": 6361,
      "bran": 6362,
      "Ġdomin": 6363,
      "Ġsentiment": 6364,
      "Gu": 6365,
      "ĠChinese": 6366,
      "Ġmajority": 6367,
      "Ġ=": 6368,
      "both": 6369,
      "Ġsmiling": 6370,
      "enger": 6371,
      "Ġpoetry": 6372,
      "ĠGra": 6373,
      "Ġprosper": 6374,
      "ĠPart": 6375,
      "ĠNever": 6376,
      "Ġrules": 6377,
      "bably": 6378,
      "offic": 6379,
      "Car": 6380,
      "cht": 6381,
      "ĠMus": 6382,
      "ĠAustri": 6383,
      "ĠFox": 6384,
      "Ġaltern": 6385,
      "heard": 6386,
      "duc": 6387,
      "avery": 6388,
      "arded": 6389,
      "Ġmatch": 6390,
      "osal": 6391,
      "IX": 6392,
      "Ġawful": 6393,
      "isher": 6394,
      "Ġasleep": 6395,
      "Ġdecision": 6396,
      "Ġappropri": 6397,
      "arrison": 6398,
      "Ġmeal": 6399,
      "Ġgets": 6400,
      "Ġyounger": 6401,
      "sych": 6402,
      "Ġdespair": 6403,
      "stairs": 6404,
      "armed": 6405,
      "Ġowner": 6406,
      "Ġarmed": 6407,
      "ussia": 6408,
      "Ġcryst": 6409,
      "ountains": 6410,
      "iated": 6411,
      "za": 6412,
      "Ġpron": 6413,
      "aws": 6414,
      "Ġtum": 6415,
      "Ġnobody": 6416,
      "Ġobey": 6417,
      "almost": 6418,
      "ola": 6419,
      "Ġlaughing": 6420,
      "Ġexperiment": 6421,
      "circ": 6422,
      "Ãª": 6423,
      "Ġstrongly": 6424,
      "ĠDoctor": 6425,
      "Ġchest": 6426,
      "ugg": 6427,
      "piece": 6428,
      "position": 6429,
      "ĠBra": 6430,
      "rible": 6431,
      "inted": 6432,
      "Ġblock": 6433,
      "Ġmistress": 6434,
      "Ġfurnished": 6435,
      "].": 6436,
      "Ġexpedition": 6437,
      "pat": 6438,
      "enge": 6439,
      "ĠTimes": 6440,
      "Ġdisappeared": 6441,
      "Ġmeasures": 6442,
      "Ġrarely": 6443,
      "ĠMich": 6444,
      "ĠAng": 6445,
      "Ġcompelled": 6446,
      "ometimes": 6447,
      "ĠXX": 6448,
      "Ġbatter": 6449,
      "Ġsigh": 6450,
      "imony": 6451,
      "urther": 6452,
      "IM": 6453,
      "Ġsentence": 6454,
      "Ġpp": 6455,
      "ĠMat": 6456,
      "Ġsovere": 6457,
      "Ġeastern": 6458,
      "ida": 6459,
      "Ġknees": 6460,
      "Ġopt": 6461,
      "Ġcommitted": 6462,
      "Ġapplication": 6463,
      "iate": 6464,
      "Ġindul": 6465,
      "Ġcoffee": 6466,
      "sil": 6467,
      "strong": 6468,
      "Ġhorn": 6469,
      "Ġconstruction": 6470,
      "Ġtale": 6471,
      "Ġrent": 6472,
      "Ġsinging": 6473,
      "Ġappeal": 6474,
      "Ġinclude": 6475,
      "tt": 6476,
      "itled": 6477,
      "Ġages": 6478,
      "izes": 6479,
      "Ġruin": 6480,
      "days": 6481,
      "Ġstrike": 6482,
      "ĠArab": 6483,
      "Ġease": 6484,
      "Ġshade": 6485,
      "Ġleaf": 6486,
      "âĢĶâĢľ": 6487,
      "olate": 6488,
      "Ġfever": 6489,
      "Ġemph": 6490,
      "Ġ1935": 6491,
      "Ġpreserved": 6492,
      "Ġsubsequ": 6493,
      "annel": 6494,
      "Ġcomfortable": 6495,
      "istor": 6496,
      "Ġindependent": 6497,
      "Ġindign": 6498,
      "rated": 6499,
      "oment": 6500,
      "**": 6501,
      "rich": 6502,
      "ĠPresented": 6503,
      "Ġweary": 6504,
      "Ġben": 6505,
      "Ġannounced": 6506,
      "Two": 6507,
      "ingham": 6508,
      "Ġhousehold": 6509,
      "Ġhoriz": 6510,
      "gon": 6511,
      "Ġmanaged": 6512,
      "wild": 6513,
      "ĠHy": 6514,
      "question": 6515,
      "Ġcommunication": 6516,
      "Ġcreate": 6517,
      "girl": 6518,
      "Ġmixed": 6519,
      "Ġconvey": 6520,
      "post": 6521,
      "Ġstudent": 6522,
      "Ġowing": 6523,
      "Ġgift": 6524,
      "hind": 6525,
      "ĠFe": 6526,
      "nox": 6527,
      "Ġpatri": 6528,
      "Ġclergy": 6529,
      "Ġperman": 6530,
      "Ġbasis": 6531,
      "IGHT": 6532,
      "whose": 6533,
      "Cap": 6534,
      "OP": 6535,
      "pen": 6536,
      "Ġatmosphere": 6537,
      "Ġapproached": 6538,
      "Ġprecise": 6539,
      "Ste": 6540,
      "Ġasking": 6541,
      "ĠDep": 6542,
      "lers": 6543,
      "seemed": 6544,
      "Ġsounds": 6545,
      "enough": 6546,
      "osure": 6547,
      "Ġles": 6548,
      "ĠLong": 6549,
      "Ġgranted": 6550,
      "Ġrecon": 6551,
      "Ġaccomplished": 6552,
      "high": 6553,
      "mouth": 6554,
      "ante": 6555,
      "Ġkings": 6556,
      "Ġflying": 6557,
      "Ġargument": 6558,
      "net": 6559,
      "ĠAdd": 6560,
      "Ġsymb": 6561,
      "Ġpushed": 6562,
      "ailing": 6563,
      "brought": 6564,
      "Ġformerly": 6565,
      "Ġintense": 6566,
      "perhaps": 6567,
      "Ġmovements": 6568,
      "Ġsavage": 6569,
      "ĠSEE": 6570,
      "riff": 6571,
      "ĠNat": 6572,
      "close": 6573,
      "Ġphr": 6574,
      "Ġft": 6575,
      "Ġseed": 6576,
      "Ġattribut": 6577,
      "Ġanxiety": 6578,
      "itated": 6579,
      "irk": 6580,
      "ĠWater": 6581,
      "Ġthroat": 6582,
      "ivities": 6583,
      "Ġexplanation": 6584,
      "lot": 6585,
      "Ġwicked": 6586,
      "irds": 6587,
      "Ġstret": 6588,
      "85": 6589,
      "rd": 6590,
      "ella": 6591,
      "Ġsooner": 6592,
      "Ġreturning": 6593,
      "Ġremaining": 6594,
      "lyn": 6595,
      "Ġperpet": 6596,
      "Ġvoices": 6597,
      "matter": 6598,
      "sal": 6599,
      "comple": 6600,
      "vals": 6601,
      "Ġinquired": 6602,
      "Pe": 6603,
      "atus": 6604,
      "bow": 6605,
      "Ġscale": 6606,
      "ĠCalifornia": 6607,
      "Ġ1933": 6608,
      "Ġyesterday": 6609,
      "iasm": 6610,
      "Ġinnocent": 6611,
      "illery": 6612,
      "76": 6613,
      "Ġstor": 6614,
      "Ġconfess": 6615,
      "ALL": 6616,
      "Ġacquaintance": 6617,
      "Ġpoison": 6618,
      "Ġvoyage": 6619,
      "Ġthinks": 6620,
      "ĠOxford": 6621,
      "Ġtur": 6622,
      "Ġsecured": 6623,
      "acious": 6624,
      "consider": 6625,
      "George": 6626,
      "Ġbones": 6627,
      "Ġcharming": 6628,
      "Ġteaching": 6629,
      "Ġphilosophy": 6630,
      "urbed": 6631,
      "Ġlegisl": 6632,
      "UM": 6633,
      "Ġdescend": 6634,
      "Ġ1938": 6635,
      "Ġwishes": 6636,
      "ĠLatin": 6637,
      "Ġfled": 6638,
      "amped": 6639,
      "Ġdifficulties": 6640,
      "Ġdignity": 6641,
      "IES": 6642,
      "Ġcharm": 6643,
      "Ġleaders": 6644,
      "Have": 6645,
      "eight": 6646,
      "ĠThose": 6647,
      "Ġguilty": 6648,
      "Ġeverybody": 6649,
      "dif": 6650,
      "Ġnoted": 6651,
      "Ġbrothers": 6652,
      "ITH": 6653,
      "Ġdance": 6654,
      "othe": 6655,
      "rael": 6656,
      "Ġlikewise": 6657,
      "alem": 6658,
      "Ġsteep": 6659,
      "Ġqualities": 6660,
      "Ġhollow": 6661,
      "amin": 6662,
      "passed": 6663,
      "Ġgif": 6664,
      "ummer": 6665,
      "prise": 6666,
      "build": 6667,
      "Look": 6668,
      "ĠHad": 6669,
      "ĠPo": 6670,
      "isto": 6671,
      "istics": 6672,
      "Ġexpense": 6673,
      "ĠWas": 6674,
      "open": 6675,
      "Ġreferred": 6676,
      "Ġov": 6677,
      "lay": 6678,
      "prom": 6679,
      "Ġalarm": 6680,
      "Ġprocl": 6681,
      "whole": 6682,
      "ANT": 6683,
      "Ġcompleted": 6684,
      "Ġdeliver": 6685,
      "Ġfriendship": 6686,
      "Ġamuse": 6687,
      "umped": 6688,
      "Ġ1922": 6689,
      "fts": 6690,
      "Ġwrites": 6691,
      "Ġscheme": 6692,
      "Ġbree": 6693,
      "âĢĦ": 6694,
      "ĠVictor": 6695,
      "scape": 6696,
      "Ġfo": 6697,
      "Ġspark": 6698,
      "Ġthanks": 6699,
      "arted": 6700,
      "Ġdischar": 6701,
      "78": 6702,
      "fig": 6703,
      "Ġleader": 6704,
      "Ġwaves": 6705,
      "Ġlit": 6706,
      "Ġcounter": 6707,
      "French": 6708,
      "olph": 6709,
      "IE": 6710,
      "Ġswept": 6711,
      "Ġincident": 6712,
      "American": 6713,
      "Ġult": 6714,
      "Ġze": 6715,
      "table": 6716,
      "Ġthrust": 6717,
      "iger": 6718,
      "ĊĊĉĉĉ": 6719,
      "live": 6720,
      "Ġlately": 6721,
      "Brazil": 6722,
      "London": 6723,
      "Ġaccord": 6724,
      "ART": 6725,
      "Ġfed": 6726,
      "orders": 6727,
      "Ġobservation": 6728,
      "Ġincluded": 6729,
      "anting": 6730,
      "Ġcommanded": 6731,
      "ĠAh": 6732,
      "Ġmanners": 6733,
      "Ġinit": 6734,
      "arian": 6735,
      "ĠDist": 6736,
      "Ġcord": 6737,
      "istent": 6738,
      "Ġblank": 6739,
      "amma": 6740,
      "ocr": 6741,
      "ĠOther": 6742,
      "Ġobsc": 6743,
      "mittee": 6744,
      "orable": 6745,
      "Ġsem": 6746,
      "Ġbrand": 6747,
      "Ġstandard": 6748,
      "Ġestate": 6749,
      "artment": 6750,
      "Ġenjoyed": 6751,
      "Ġmanagement": 6752,
      "ĠFer": 6753,
      "Ġsulph": 6754,
      "ĠPol": 6755,
      "ĠCape": 6756,
      "Ġtrip": 6757,
      "Ġlegal": 6758,
      "Ġsacrifice": 6759,
      "otted": 6760,
      "iah": 6761,
      "Ġsecurity": 6762,
      "Ġgreet": 6763,
      "Ġbul": 6764,
      "adelphia": 6765,
      "Ġcontempt": 6766,
      "ĠUnder": 6767,
      "ĠAmong": 6768,
      "Never": 6769,
      "Ġdiameter": 6770,
      "Ġexposed": 6771,
      "Ġsettle": 6772,
      "fire": 6773,
      "Ġdestruction": 6774,
      "dem": 6775,
      "inth": 6776,
      "Ġscattered": 6777,
      "Ġ1923": 6778,
      "OUR": 6779,
      "ican": 6780,
      "Ġstiff": 6781,
      "ĠBoth": 6782,
      "Ġimage": 6783,
      "Ġprofound": 6784,
      "ĠMother": 6785,
      "Ġglorious": 6786,
      "Ġrecently": 6787,
      "div": 6788,
      "Ġfinger": 6789,
      "ĠWalla": 6790,
      "ĠSil": 6791,
      "Ġnervous": 6792,
      "Ġscreenplay": 6793,
      "Ġunfortunate": 6794,
      "aping": 6795,
      "ĠFin": 6796,
      "human": 6797,
      "ĠBefore": 6798,
      "ighed": 6799,
      "Ġnut": 6800,
      "anned": 6801,
      "mean": 6802,
      "ipping": 6803,
      "Ġthence": 6804,
      "âĢī": 6805,
      "phe": 6806,
      "Ġmud": 6807,
      "Ġsouls": 6808,
      "expl": 6809,
      "respect": 6810,
      "Ġretired": 6811,
      "Ġwire": 6812,
      "Ġvac": 6813,
      "break": 6814,
      "ĠCouncil": 6815,
      "itate": 6816,
      "Such": 6817,
      "Ġconstit": 6818,
      "character": 6819,
      "Ġclever": 6820,
      "Ġsubstance": 6821,
      "Ġruns": 6822,
      "cest": 6823,
      "ĠBru": 6824,
      "withstanding": 6825,
      "Gl": 6826,
      "Im": 6827,
      "rog": 6828,
      "Ġinfinite": 6829,
      "ĊĊĠĠĠĠĠĠĠĠĠĠĠĠĊĊĠĠĠĠĠĠĠĠĠĠĠĠĠĠ": 6830,
      "Ġprobable": 6831,
      "town": 6832,
      "ĠGerm": 6833,
      "Ġbegins": 6834,
      "vi": 6835,
      "vision": 6836,
      "useum": 6837,
      "Ġlimited": 6838,
      "Ġinstrument": 6839,
      "taking": 6840,
      "Ġwithdra": 6841,
      "ĠCur": 6842,
      "tains": 6843,
      "ĊĠĊ": 6844,
      "Ġsoftly": 6845,
      "Ġregiment": 6846,
      "Gold": 6847,
      "ateg": 6848,
      "Ġanch": 6849,
      "ĠSecret": 6850,
      "ita": 6851,
      "Ġrenew": 6852,
      "Ġutterly": 6853,
      "Ġtrace": 6854,
      "verted": 6855,
      "Ġscenes": 6856,
      "oubted": 6857,
      "ĠEv": 6858,
      "Ġwooden": 6859,
      "Ġconsent": 6860,
      "Ġinse": 6861,
      "Ġfeed": 6862,
      "Ġimpat": 6863,
      "Ġtemperature": 6864,
      "Ġadventure": 6865,
      "ĠSk": 6866,
      "Ġconflict": 6867,
      "Ġdefend": 6868,
      "ĠGen": 6869,
      "ga": 6870,
      "Ġconnect": 6871,
      "Ġmanifest": 6872,
      "Cont": 6873,
      "ĠFair": 6874,
      "Ġpreviously": 6875,
      "Ġ1932": 6876,
      "ysis": 6877,
      "Ġconscience": 6878,
      "Ġfoundation": 6879,
      "amental": 6880,
      "Ġexecution": 6881,
      "King": 6882,
      "Ġdiscussion": 6883,
      "Ġwound": 6884,
      "Ġpatter": 6885,
      "Ġinclined": 6886,
      "rip": 6887,
      "Ġagricult": 6888,
      "resses": 6889,
      "Ġuniform": 6890,
      "Ġtransport": 6891,
      "Sm": 6892,
      "Ġlone": 6893,
      "Ġdeliber": 6894,
      "Ġmood": 6895,
      "Ġsus": 6896,
      "Ġcabin": 6897,
      "aux": 6898,
      "amous": 6899,
      "Ġunited": 6900,
      "Ġhistorical": 6901,
      "round": 6902,
      "Ġsen": 6903,
      "Ġhumble": 6904,
      "Ġenormous": 6905,
      "appro": 6906,
      "oked": 6907,
      "Ġobserve": 6908,
      "Ġeffective": 6909,
      "Ġyard": 6910,
      "ĠEs": 6911,
      "Ġreadily": 6912,
      "RY": 6913,
      "ĠDE": 6914,
      "62": 6915,
      "Ġreputation": 6916,
      "Ġfinds": 6917,
      "anda": 6918,
      "Ġmetal": 6919,
      "ĠMem": 6920,
      "Ġwriters": 6921,
      "Ġ49": 6922,
      "Ġacquired": 6923,
      "ĠLew": 6924,
      "Ġdemonstr": 6925,
      "Ġmedical": 6926,
      "Ġsees": 6927,
      "ĠGe": 6928,
      "yard": 6929,
      "ache": 6930,
      "Ġinterior": 6931,
      "ancial": 6932,
      "agraph": 6933,
      "since": 6934,
      "ĊĊĠĠĠĠĠĠĠĠĠĠĠĠĠĠĠĠ": 6935,
      "Ġcuriosity": 6936,
      "CK": 6937,
      "Ġcy": 6938,
      "turned": 6939,
      "France": 6940,
      "Ġiv": 6941,
      "Ġrust": 6942,
      "Another": 6943,
      "Ġopinions": 6944,
      "Ġcommittee": 6945,
      "houses": 6946,
      "Ġchurches": 6947,
      "Ġrequires": 6948,
      "ĠCome": 6949,
      "rection": 6950,
      "Ġsprang": 6951,
      "ĠKent": 6952,
      "Ġkindness": 6953,
      "Ġinstantly": 6954,
      "Ġuniversal": 6955,
      "ĠMost": 6956,
      "children": 6957,
      "rive": 6958,
      "rific": 6959,
      "Ġmarks": 6960,
      "icken": 6961,
      "Ġfailure": 6962,
      "Ġtar": 6963,
      "Ġalike": 6964,
      "Ġlargely": 6965,
      "Ġviolent": 6966,
      "Ġanyone": 6967,
      "ĠSol": 6968,
      "raw": 6969,
      "Ġdesir": 6970,
      "ĠDutch": 6971,
      "ĠAre": 6972,
      "closed": 6973,
      "Before": 6974,
      "Ġadmiration": 6975,
      "etic": 6976,
      "ĠBoy": 6977,
      "unction": 6978,
      "liness": 6979,
      "osom": 6980,
      "Ġjealous": 6981,
      "Ġaffected": 6982,
      "Ġincreasing": 6983,
      "ules": 6984,
      "Ġmanufacture": 6985,
      "61": 6986,
      "ĠBesides": 6987,
      "Ġpoem": 6988,
      "Ġneighbor": 6989,
      "pired": 6990,
      "AIN": 6991,
      "worthy": 6992,
      "ĠJean": 6993,
      "ĠLincoln": 6994,
      "Ġfulf": 6995,
      "unn": 6996,
      ".\"[": 6997,
      "Ġstudied": 6998,
      "ĠĠĠĠĠ": 6999,
      "Ġrow": 7000,
      "Ġissued": 7001,
      "ruits": 7002,
      "Ġaudience": 7003,
      "tem": 7004,
      "Ġclo": 7005,
      "64": 7006,
      "unte": 7007,
      "Ġhomes": 7008,
      "Perhaps": 7009,
      "Ġintellectual": 7010,
      "Ġsteel": 7011,
      "better": 7012,
      "Ġpier": 7013,
      "Ġfeather": 7014,
      "OS": 7015,
      "Ġcliff": 7016,
      "upid": 7017,
      "Ġshouted": 7018,
      "Ġrum": 7019,
      "Ġfix": 7020,
      "Ġfoolish": 7021,
      "otic": 7022,
      "Ġknife": 7023,
      "whom": 7024,
      ",--": 7025,
      "ulating": 7026,
      "Ġcomposition": 7027,
      "eries": 7028,
      "Ġwhence": 7029,
      "ĠIndeed": 7030,
      "Ġsupported": 7031,
      "ateful": 7032,
      "Ġrepro": 7033,
      "Ġfee": 7034,
      "Ġdecor": 7035,
      "ĠStill": 7036,
      "iast": 7037,
      "Ġ0": 7038,
      "Ġreview": 7039,
      "Ġflow": 7040,
      "Ġstudies": 7041,
      "Very": 7042,
      "inder": 7043,
      "Ġdelightful": 7044,
      "otions": 7045,
      "ĠBi": 7046,
      "ware": 7047,
      "Ġham": 7048,
      "Ġanger": 7049,
      "ĠRay": 7050,
      "Ġprofit": 7051,
      "agger": 7052,
      "Ġremarks": 7053,
      "ĠApp": 7054,
      "Their": 7055,
      "Ġsurre": 7056,
      "Ġquarters": 7057,
      "ĠJones": 7058,
      "Ġcapacity": 7059,
      "Ġacquainted": 7060,
      "Ġdomestic": 7061,
      "Ġcavalry": 7062,
      "burn": 7063,
      "63": 7064,
      "Ġcoal": 7065,
      "rather": 7066,
      "Ġfalls": 7067,
      "ĠProtest": 7068,
      "wyn": 7069,
      "allel": 7070,
      ";âĢĶ": 7071,
      "ulpt": 7072,
      "Ġcomment": 7073,
      "Ġlights": 7074,
      "iards": 7075,
      "ĠEve": 7076,
      "Ġbetray": 7077,
      "Bar": 7078,
      "ĠPope": 7079,
      "Ġcreatures": 7080,
      "Ġpipe": 7081,
      "boat": 7082,
      "Ġdreadful": 7083,
      "Ġsystems": 7084,
      "Ġrespond": 7085,
      "isation": 7086,
      "Ġfired": 7087,
      "Ġremove": 7088,
      "Ġcam": 7089,
      "shine": 7090,
      "Ġdeparture": 7091,
      "Ġ80": 7092,
      "Ġ70": 7093,
      "Ġstepped": 7094,
      "Ġoccasions": 7095,
      "ocking": 7096,
      "Ġseparated": 7097,
      "Ġconvinced": 7098,
      "Ġmode": 7099,
      "Ġfreely": 7100,
      "Ġculture": 7101,
      "done": 7102,
      ",)": 7103,
      "Ġchain": 7104,
      "engers": 7105,
      "Ġconsciousness": 7106,
      "Ġthunder": 7107,
      "AV": 7108,
      "Ġcutting": 7109,
      "onom": 7110,
      "Brit": 7111,
      "urday": 7112,
      "abb": 7113,
      "Ġpunishment": 7114,
      "Ġaccustomed": 7115,
      "Ġconfusion": 7116,
      "soon": 7117,
      "fed": 7118,
      "Ġabroad": 7119,
      "Ġlargest": 7120,
      "elled": 7121,
      "Ġcounsel": 7122,
      "Ġrude": 7123,
      "Ġrolled": 7124,
      "Ġbrings": 7125,
      "Ġpark": 7126,
      "Ġroll": 7127,
      "Ġprominent": 7128,
      "ĠMel": 7129,
      "Ġshed": 7130,
      "encies": 7131,
      "Ġauthorities": 7132,
      "entions": 7133,
      "ĠPri": 7134,
      "99": 7135,
      "non": 7136,
      "ĠEach": 7137,
      "unted": 7138,
      "rust": 7139,
      "ĠON": 7140,
      "stud": 7141,
      "Ġglo": 7142,
      "Ġmodel": 7143,
      "Ġexamination": 7144,
      "ĠNelson": 7145,
      "ĠRog": 7146,
      "Ġsite": 7147,
      "Ġpin": 7148,
      "Ġdil": 7149,
      "ĠGal": 7150,
      "Ġbreaking": 7151,
      "Ġacknowled": 7152,
      "ua": 7153,
      "Ġtent": 7154,
      "icable": 7155,
      "Ġroads": 7156,
      "ĠSouthern": 7157,
      "Ġelder": 7158,
      "Ġvault": 7159,
      "Ġencoura": 7160,
      "Ġresearch": 7161,
      "ioned": 7162,
      "ador": 7163,
      "ĠPur": 7164,
      "Ġexperienced": 7165,
      "quisite": 7166,
      "Ġanybody": 7167,
      "ĠMartin": 7168,
      "ĠFore": 7169,
      "Ġdetail": 7170,
      "hands": 7171,
      "Ġbelonged": 7172,
      "Ġproblems": 7173,
      "Ġ1939": 7174,
      "black": 7175,
      "Ġadditional": 7176,
      "full": 7177,
      "ouch": 7178,
      "utive": 7179,
      "Ġtemple": 7180,
      "Ġconcluded": 7181,
      "Ġpig": 7182,
      "ĠSur": 7183,
      "Ġstairs": 7184,
      "iary": 7185,
      "ĠMess": 7186,
      "Ġcollected": 7187,
      "Ġdesigned": 7188,
      "quarters": 7189,
      "\"âĢĶ": 7190,
      "Ġbon": 7191,
      "Ġrounded": 7192,
      "Ġfierce": 7193,
      "tis": 7194,
      "ĠMatt": 7195,
      "axim": 7196,
      "Ġconsequently": 7197,
      "Ġmounted": 7198,
      "orig": 7199,
      "Ġautumn": 7200,
      "Ġassociated": 7201,
      "Ġhunting": 7202,
      "uv": 7203,
      "Ġislands": 7204,
      "vell": 7205,
      "Ġclimate": 7206,
      "brown": 7207,
      "garet": 7208,
      "erves": 7209,
      "Ġhorror": 7210,
      "Ġinch": 7211,
      "rib": 7212,
      "arling": 7213,
      "Ġstaff": 7214,
      "Ġgeneration": 7215,
      "opes": 7216,
      "ĠUncle": 7217,
      "Ġinstit": 7218,
      "Ġrealized": 7219,
      "asket": 7220,
      "Ġriding": 7221,
      "Ġunconscious": 7222,
      "Ã¨re": 7223,
      "ĠAndrew": 7224,
      "uthors": 7225,
      "Ġignorant": 7226,
      "ĠSon": 7227,
      "Ġattempted": 7228,
      "stre": 7229,
      "saw": 7230,
      "Ġsale": 7231,
      "Ġpist": 7232,
      "ooper": 7233,
      "Ġimpr": 7234,
      "Ġpaint": 7235,
      "green": 7236,
      "Ġmagnificent": 7237,
      "Ġwave": 7238,
      "acob": 7239,
      "OND": 7240,
      "Ġshelter": 7241,
      "Ġrig": 7242,
      "Ġpropri": 7243,
      "ĠOut": 7244,
      "ĠChina": 7245,
      "hem": 7246,
      "achment": 7247,
      "stru": 7248,
      "Ġeternal": 7249,
      "Ġinterrupted": 7250,
      "ĠRuth": 7251,
      "coll": 7252,
      "scar": 7253,
      "Ġrushed": 7254,
      "nut": 7255,
      "ĊĊĠĊ": 7256,
      "Ġprofessional": 7257,
      "icians": 7258,
      "twenty": 7259,
      "apted": 7260,
      "Ġmystery": 7261,
      "awn": 7262,
      "ĠAnother": 7263,
      "ero": 7264,
      "ĠThree": 7265,
      "Ġbelonging": 7266,
      "Ġconsists": 7267,
      "Ġcir": 7268,
      "Ġcouncil": 7269,
      "Ġlibrary": 7270,
      "abs": 7271,
      "Ġpaused": 7272,
      "Ġcig": 7273,
      "orus": 7274,
      "thus": 7275,
      "Ġfarmer": 7276,
      "Ġinform": 7277,
      "Ġinterview": 7278,
      "Ġedition": 7279,
      "Ġplays": 7280,
      "86": 7281,
      "amation": 7282,
      "ĠCorn": 7283,
      "England": 7284,
      "Ġcommercial": 7285,
      "Ġfrank": 7286,
      "aments": 7287,
      "Ġtele": 7288,
      "Ġdistress": 7289,
      "IA": 7290,
      "ĠRE": 7291,
      "ĠRus": 7292,
      "Ġacted": 7293,
      "ĠAnne": 7294,
      "reck": 7295,
      "subject": 7296,
      "rick": 7297,
      "Ġtied": 7298,
      "alo": 7299,
      "72": 7300,
      "ĠRock": 7301,
      "azz": 7302,
      "Ġcontempl": 7303,
      "Ġopposition": 7304,
      "Ġfatal": 7305,
      "alks": 7306,
      "oubt": 7307,
      "Ġaunt": 7308,
      "Ġsuitable": 7309,
      "osa": 7310,
      "princi": 7311,
      "hundred": 7312,
      "Ġsignificant": 7313,
      "ĠExchange": 7314,
      "ano": 7315,
      "whether": 7316,
      "Ġsomewhere": 7317,
      "Ġcommenced": 7318,
      "Ġdoubtless": 7319,
      "Ġnecessarily": 7320,
      "Ġplainly": 7321,
      "Ġresc": 7322,
      "morning": 7323,
      "Ġfare": 7324,
      "Ġstim": 7325,
      "Ġbehold": 7326,
      "ĠDev": 7327,
      "pher": 7328,
      "Ġdistinction": 7329,
      "Ġabsurd": 7330,
      "Ġdreams": 7331,
      "Ġfame": 7332,
      "ĠRem": 7333,
      "Ġcountenance": 7334,
      "Ġurged": 7335,
      "Ġactions": 7336,
      "best": 7337,
      "glass": 7338,
      "tre": 7339,
      "Ġbat": 7340,
      "liver": 7341,
      "quite": 7342,
      "Ġcharacteristic": 7343,
      "urse": 7344,
      "Ġtribes": 7345,
      "list": 7346,
      "Ġslept": 7347,
      "vin": 7348,
      "Ġlanded": 7349,
      "Ġoffers": 7350,
      "Ã©s": 7351,
      "Ġtoler": 7352,
      "oore": 7353,
      "ĠHart": 7354,
      "Ġtrail": 7355,
      "Ġturns": 7356,
      "pended": 7357,
      "Ġbears": 7358,
      "ĠSaint": 7359,
      "Ġwidow": 7360,
      "Ġenthusiasm": 7361,
      "mem": 7362,
      "Ġtrunk": 7363,
      "74": 7364,
      "ĠMo": 7365,
      "Ġrivers": 7366,
      "During": 7367,
      "inations": 7368,
      "Ġspare": 7369,
      "Ġtower": 7370,
      "fits": 7371,
      "Ġproducts": 7372,
      "Ġgrounds": 7373,
      "Ġremo": 7374,
      "ĠCastle": 7375,
      "Ġwages": 7376,
      "Ġfest": 7377,
      "ands": 7378,
      "Ġric": 7379,
      "Ġcrowded": 7380,
      "Ġtoday": 7381,
      "Ġmysterious": 7382,
      "Ġcottage": 7383,
      "ĠHol": 7384,
      "Ġexchange": 7385,
      "Ġuncertain": 7386,
      "Ġprecip": 7387,
      "ylon": 7388,
      "ele": 7389,
      "Ġregions": 7390,
      "Ġconfined": 7391,
      "Ġbeaten": 7392,
      "Ġshining": 7393,
      "Ġrope": 7394,
      "past": 7395,
      "fol": 7396,
      "Ġbud": 7397,
      "Ġdiff": 7398,
      "83": 7399,
      "wick": 7400,
      "Ġpardon": 7401,
      "Ġprovisions": 7402,
      "Ġloving": 7403,
      "suffic": 7404,
      "Ġuseless": 7405,
      "ĠChild": 7406,
      "uine": 7407,
      "Ġtermin": 7408,
      "ĠAssoci": 7409,
      "ĠWalter": 7410,
      "Ġcommonly": 7411,
      "Ġcream": 7412,
      "asm": 7413,
      "ez": 7414,
      "proper": 7415,
      "ĠYoung": 7416,
      "Ġpresents": 7417,
      "told": 7418,
      "Ġcopper": 7419,
      "ĠThor": 7420,
      "Ġodd": 7421,
      "Ġarrangement": 7422,
      "71": 7423,
      "cal": 7424,
      "Ġvary": 7425,
      "during": 7426,
      "istle": 7427,
      "Ġeleven": 7428,
      "Ġestablishment": 7429,
      "incl": 7430,
      "Ġexamined": 7431,
      "Ġapproaching": 7432,
      "ĠJews": 7433,
      "84": 7434,
      "ademy": 7435,
      "Ġjoint": 7436,
      "alion": 7437,
      "Ġportrait": 7438,
      "Ġorganization": 7439,
      "ĠCOM": 7440,
      "Ġacute": 7441,
      "ĠDid": 7442,
      "gging": 7443,
      "Ġcaptured": 7444,
      "vity": 7445,
      "Ġnurs": 7446,
      "Ġleads": 7447,
      "Ġeating": 7448,
      "Ġgrim": 7449,
      "gone": 7450,
      "Ġtyp": 7451,
      "73": 7452,
      "Ro": 7453,
      "ordon": 7454,
      "Ġindustri": 7455,
      "Ġmargin": 7456,
      "amilton": 7457,
      "BER": 7458,
      "oting": 7459,
      "moment": 7460,
      "Ġmarched": 7461,
      "words": 7462,
      "Ġextensive": 7463,
      "vy": 7464,
      "acific": 7465,
      "Ġexcuse": 7466,
      "Ġthread": 7467,
      "hedral": 7468,
      "aughters": 7469,
      "Fl": 7470,
      "Ġpowder": 7471,
      "ĠMoses": 7472,
      "Ġunhappy": 7473,
      "ĠWilson": 7474,
      "Ġreaching": 7475,
      "Ġvague": 7476,
      "bler": 7477,
      "Ġpasses": 7478,
      "Ġreaders": 7479,
      "Ġgames": 7480,
      "raction": 7481,
      "Ġblessed": 7482,
      "irmed": 7483,
      "usions": 7484,
      "Ġconcent": 7485,
      "Ġancest": 7486,
      "ĠHam": 7487,
      "Ġuns": 7488,
      "Ġenh": 7489,
      "ĠTurk": 7490,
      "iations": 7491,
      "Ġswim": 7492,
      "keep": 7493,
      "ras": 7494,
      "ĠSqu": 7495,
      "olation": 7496,
      "Ġwhenever": 7497,
      "Ġapt": 7498,
      "Ġcher": 7499,
      "ccles": 7500,
      "Ġsport": 7501,
      "piration": 7502,
      "ISH": 7503,
      "Ġpurple": 7504,
      "Ġinvolved": 7505,
      "Ġassumed": 7506,
      "Ġnav": 7507,
      "Ġlamp": 7508,
      "second": 7509,
      "Ġsuspicion": 7510,
      "ucky": 7511,
      "Ġfrightened": 7512,
      "Ġroute": 7513,
      "Äģ": 7514,
      "Ġtide": 7515,
      "greg": 7516,
      "lest": 7517,
      "yes": 7518,
      "apes": 7519,
      "Ġflu": 7520,
      "does": 7521,
      "Ġwondered": 7522,
      "Ġcheeks": 7523,
      "ĠBilly": 7524,
      "Ġmaintained": 7525,
      "Ġzeal": 7526,
      "tes": 7527,
      "atched": 7528,
      "Ġfran": 7529,
      "Ġgenerous": 7530,
      "Ġfert": 7531,
      "Ġrelative": 7532,
      "early": 7533,
      "82": 7534,
      "allow": 7535,
      "Ġinvited": 7536,
      "ĠFrederick": 7537,
      "forth": 7538,
      "racted": 7539,
      "Ġdram": 7540,
      "Ġcontrast": 7541,
      "Ġmankind": 7542,
      "Ġunion": 7543,
      "ĠSamuel": 7544,
      "Ġcharged": 7545,
      "Ġmillions": 7546,
      "uding": 7547,
      "Ġobed": 7548,
      "Ġstrain": 7549,
      "Ġloyal": 7550,
      "Ġcompanies": 7551,
      "OD": 7552,
      "Ġpractically": 7553,
      "Ġelsewhere": 7554,
      "Ġlimit": 7555,
      "eanwhile": 7556,
      "grow": 7557,
      "Ġju": 7558,
      "comes": 7559,
      "Ġacting": 7560,
      "ĠGermans": 7561,
      "Foot": 7562,
      "changed": 7563,
      "ĠWestern": 7564,
      "Ġsovereign": 7565,
      "via": 7566,
      "Ġtreaty": 7567,
      "bid": 7568,
      "idel": 7569,
      "Ġresidence": 7570,
      "Ġformation": 7571,
      "Ġdepth": 7572,
      "Ġtransfer": 7573,
      "Ġhydro": 7574,
      "Ġwheat": 7575,
      "pract": 7576,
      "ih": 7577,
      "VIII": 7578,
      "illing": 7579,
      "Ġselect": 7580,
      "Ġagent": 7581,
      "Ġwra": 7582,
      "Ġdriving": 7583,
      "Ġfoc": 7584,
      "Ġlest": 7585,
      "money": 7586,
      "asped": 7587,
      "ĠPhiladelphia": 7588,
      "ĠPre": 7589,
      "fare": 7590,
      "women": 7591,
      "Ã®": 7592,
      "Ġentitled": 7593,
      "Ġhealthy": 7594,
      "Ġpsych": 7595,
      "alling": 7596,
      "account": 7597,
      "Ġmeas": 7598,
      "Ġdisposed": 7599,
      "lla": 7600,
      "Ġhumanity": 7601,
      "Ġannual": 7602,
      "Ġcritical": 7603,
      "utter": 7604,
      "Ġpainting": 7605,
      "ĠColumbia": 7606,
      "Ġdimin": 7607,
      "ba": 7608,
      "Ġfeared": 7609,
      "Ġrival": 7610,
      "Ġunexpected": 7611,
      "geon": 7612,
      "100": 7613,
      "Ġsteady": 7614,
      "pleasant": 7615,
      "ĠMonsieur": 7616,
      "word": 7617,
      "ĠâĢĶâĢĶ": 7618,
      "kel": 7619,
      "Ġclaims": 7620,
      "Ġutmost": 7621,
      "ĠPathe": 7622,
      "Ġunusual": 7623,
      "rett": 7624,
      "ĠOnce": 7625,
      "Ġeleg": 7626,
      "VII": 7627,
      "ĠDra": 7628,
      "rad": 7629,
      "lem": 7630,
      "omach": 7631,
      "Great": 7632,
      "dev": 7633,
      "Ġconducted": 7634,
      "Ġmiserable": 7635,
      "Ġhanded": 7636,
      "Ġweakness": 7637,
      "Ġoath": 7638,
      "ĠTim": 7639,
      "former": 7640,
      "Ġpurchase": 7641,
      "Ġmob": 7642,
      "Ġresponsible": 7643,
      "Ġtort": 7644,
      "Ġghost": 7645,
      "Ġabrupt": 7646,
      "ĠAgain": 7647,
      "Ġspecimens": 7648,
      "mis": 7649,
      "angle": 7650,
      "Ġmonarch": 7651,
      "Ġbarbar": 7652,
      "pose": 7653,
      "ĠGovernor": 7654,
      "Ġbride": 7655,
      "Ġcraft": 7656,
      "ĠCre": 7657,
      "Ġholds": 7658,
      "Ġvital": 7659,
      "gedy": 7660,
      "Ġwinds": 7661,
      "Ġstronger": 7662,
      "Ġtiny": 7663,
      "Ġdirections": 7664,
      "ĠHome": 7665,
      "Ġregarding": 7666,
      "aparte": 7667,
      "Ġgrie": 7668,
      "acco": 7669,
      "ĠPost": 7670,
      "ĠVI": 7671,
      "Ġsupplied": 7672,
      "Ġhitherto": 7673,
      "Ġtour": 7674,
      "Ġprem": 7675,
      "Ġcommod": 7676,
      "Ġapply": 7677,
      "Ġentering": 7678,
      "Ġfinancial": 7679,
      "Ġborne": 7680,
      "Ġcoach": 7681,
      "81": 7682,
      "Ġdelighted": 7683,
      "Ġmild": 7684,
      "Ġascertain": 7685,
      "ĠJane": 7686,
      "Ġemperor": 7687,
      "More": 7688,
      "Ġpenet": 7689,
      "ĠSenate": 7690,
      "Ġdevotion": 7691,
      "Ġexisting": 7692,
      "ione": 7693,
      "ĠSun": 7694,
      "cs": 7695,
      "ipt": 7696,
      "Ġgaze": 7697,
      "Ġnearest": 7698,
      "Ġwarning": 7699,
      "Ġestim": 7700,
      "ĠFour": 7701,
      "CTION": 7702,
      "umps": 7703,
      "death": 7704,
      "dig": 7705,
      "ĠHay": 7706,
      "ĠIsrael": 7707,
      "95": 7708,
      "Ġseeking": 7709,
      "Ġopposed": 7710,
      "sar": 7711,
      "ĠĊĊ": 7712,
      "ĠBu": 7713,
      "Ġlesson": 7714,
      "ĠJefferson": 7715,
      "Ġrush": 7716,
      "arms": 7717,
      "ĠSand": 7718,
      "elling": 7719,
      "Ġpositive": 7720,
      "covered": 7721,
      "Ġpermit": 7722,
      "dec": 7723,
      "ĠHugh": 7724,
      "represent": 7725,
      "Ġcart": 7726,
      "bishop": 7727,
      "Ġencourage": 7728,
      "ancholy": 7729,
      "OH": 7730,
      "ĠÎ": 7731,
      "city": 7732,
      "Ġshoes": 7733,
      "Ġsafely": 7734,
      "Ġderived": 7735,
      "Ġadaptation": 7736,
      "Ġcommerce": 7737,
      "ĠNothing": 7738,
      "Ġfolks": 7739,
      "ĠAccording": 7740,
      "Ġheavily": 7741,
      "cending": 7742,
      "ĠHave": 7743,
      "Ġbalance": 7744,
      "AU": 7745,
      "ĠTw": 7746,
      "dest": 7747,
      "eous": 7748,
      "Ġlistening": 7749,
      "ĠEmpire": 7750,
      "pit": 7751,
      "Ġsorts": 7752,
      "Ġattacked": 7753,
      "TO": 7754,
      "Ġtendency": 7755,
      "oos": 7756,
      "ĠHaw": 7757,
      "Spe": 7758,
      "anta": 7759,
      "Ġlighted": 7760,
      "Ġignorance": 7761,
      "Ġfeature": 7762,
      "ĠAdams": 7763,
      "Ġautom": 7764,
      "Ġcompass": 7765,
      "Ġerror": 7766,
      "Even": 7767,
      "near": 7768,
      "def": 7769,
      "Ġrailway": 7770,
      "ifications": 7771,
      "ĠWat": 7772,
      "Ġseriously": 7773,
      "along": 7774,
      "Ġscore": 7775,
      "wife": 7776,
      "âĢĶâĢĶ\"": 7777,
      "Though": 7778,
      "Ġsongs": 7779,
      "Ġtools": 7780,
      "istence": 7781,
      "ector": 7782,
      "ĠLuc": 7783,
      "Ġtrick": 7784,
      "Ġhanging": 7785,
      "ĠEllen": 7786,
      "Ġstretched": 7787,
      "Ġcarbon": 7788,
      "chers": 7789,
      "Captain": 7790,
      "direct": 7791,
      "horse": 7792,
      "Ġnights": 7793,
      "Ġspeaks": 7794,
      "Ġburned": 7795,
      "Charles": 7796,
      "Ġlonely": 7797,
      "aac": 7798,
      "different": 7799,
      "Ġgovernor": 7800,
      "eting": 7801,
      "ĠArmy": 7802,
      "ĠTem": 7803,
      "anny": 7804,
      "Hen": 7805,
      "gentle": 7806,
      "inding": 7807,
      "Ġgardens": 7808,
      "Ġdesperate": 7809,
      "AST": 7810,
      "Ġbeloved": 7811,
      "Ġterritory": 7812,
      "rely": 7813,
      "Ã¤": 7814,
      "thren": 7815,
      "qual": 7816,
      "ĠGall": 7817,
      "ĠParamount": 7818,
      "above": 7819,
      "occup": 7820,
      "aus": 7821,
      "public": 7822,
      "exam": 7823,
      "Ġerected": 7824,
      "Ġmedicine": 7825,
      "Ġeste": 7826,
      "ka": 7827,
      "press": 7828,
      "ĠPass": 7829,
      "Ġroots": 7830,
      "ĠLook": 7831,
      "Ġpuzz": 7832,
      "Ġvel": 7833,
      ".\"âĢĶ": 7834,
      "pline": 7835,
      "aze": 7836,
      "ĠClub": 7837,
      "Ġtroubles": 7838,
      "Page": 7839,
      "onse": 7840,
      "ĠRh": 7841,
      "Ġguests": 7842,
      "Ġ90": 7843,
      "ala": 7844,
      "ĠPen": 7845,
      "Ġobvious": 7846,
      "itudes": 7847,
      "ĠMack": 7848,
      "Ġsituated": 7849,
      "Ġmap": 7850,
      "Ġinev": 7851,
      "ĠLike": 7852,
      "Ġplayers": 7853,
      "Ġnodded": 7854,
      "Ġmasses": 7855,
      "Ġsilk": 7856,
      "ulgar": 7857,
      "whe": 7858,
      "Ġpursued": 7859,
      "Su": 7860,
      "suff": 7861,
      "Ġselected": 7862,
      "Ġexternal": 7863,
      "Ġblame": 7864,
      "Ġglanced": 7865,
      "Ġelev": 7866,
      "ij": 7867,
      "few": 7868,
      "Ġmotor": 7869,
      "Ġridic": 7870,
      "hor": 7871,
      "tree": 7872,
      "Ġquoted": 7873,
      "ĠAny": 7874,
      "Ġrefuse": 7875,
      "Ġtestimony": 7876,
      "ĠDave": 7877,
      "Em": 7878,
      "sters": 7879,
      "Ġfirmly": 7880,
      "Ġexceedingly": 7881,
      "wa": 7882,
      "PE": 7883,
      "Ġreject": 7884,
      "Ġmostly": 7885,
      "ĠTown": 7886,
      "Ġmoist": 7887,
      "Ġexamples": 7888,
      "Ġanticip": 7889,
      "ĠStep": 7890,
      "Ġhungry": 7891,
      "opping": 7892,
      "Ġfeast": 7893,
      "Ġresistance": 7894,
      "ĠAlthough": 7895,
      "Ġintroduction": 7896,
      "ĠMexico": 7897,
      "Cle": 7898,
      "Ġrecovered": 7899,
      "Ġcenter": 7900,
      "Ġtypes": 7901,
      "Ġviolence": 7902,
      "Ġdebt": 7903,
      "Ġaccordingly": 7904,
      "Ġpound": 7905,
      "Ġtear": 7906,
      "ĠThough": 7907,
      "Ġrot": 7908,
      "Ġaccompany": 7909,
      "eff": 7910,
      "Ġdivers": 7911,
      "olland": 7912,
      "Ġphenomena": 7913,
      "98": 7914,
      "why": 7915,
      "Ġforehead": 7916,
      "uously": 7917,
      "Ġfasc": 7918,
      "Ġard": 7919,
      "Ġverse": 7920,
      "ym": 7921,
      "Ġbeings": 7922,
      "ĠSus": 7923,
      "Ġingen": 7924,
      "Ġash": 7925,
      "ĠConn": 7926,
      "commun": 7927,
      "Ġrestored": 7928,
      "oubtedly": 7929,
      "ositions": 7930,
      "Germany": 7931,
      "Ġbeach": 7932,
      "Ġrecords": 7933,
      "Ġhospital": 7934,
      "Ġplatform": 7935,
      "Ìĥ.": 7936,
      "ertion": 7937,
      "national": 7938,
      "Ġscorn": 7939,
      "except": 7940,
      "uese": 7941,
      "Take": 7942,
      "Ġwretched": 7943,
      "Ġseas": 7944,
      "Ġmerchant": 7945,
      "Ġirregular": 7946,
      "Ġflew": 7947,
      "Ġcells": 7948,
      "Ġgrant": 7949,
      "Ġsignal": 7950,
      "gave": 7951,
      "Ġenable": 7952,
      "Ġhundreds": 7953,
      "hearted": 7954,
      "fell": 7955,
      "Ġnormal": 7956,
      "Ġneighbourhood": 7957,
      "free": 7958,
      "Ġrefuge": 7959,
      "Ġinstructions": 7960,
      "Ġeagerly": 7961,
      "Ġren": 7962,
      "iege": 7963,
      "Ġremote": 7964,
      "Ġstreams": 7965,
      "Ġstraw": 7966,
      "Ġobservations": 7967,
      "bal": 7968,
      "arrass": 7969,
      "Ġemployment": 7970,
      "Ġcries": 7971,
      "Ġcheek": 7972,
      "rooms": 7973,
      "llen": 7974,
      "ĠAT": 7975,
      ";âĢĿ": 7976,
      "east": 7977,
      "Ġhell": 7978,
      "Ġoffering": 7979,
      "ĠLeg": 7980,
      "Ġming": 7981,
      "AG": 7982,
      "Ġflame": 7983,
      "Ġoh": 7984,
      "Ġresist": 7985,
      "Ġachieve": 7986,
      "iveness": 7987,
      "Ġunique": 7988,
      "Sec": 7989,
      "fashion": 7990,
      "Ġdial": 7991,
      "Ġneat": 7992,
      "aiting": 7993,
      "ĠDis": 7994,
      "Ġburden": 7995,
      "miral": 7996,
      "Ġinquiry": 7997,
      "ieu": 7998,
      "Ġinsisted": 7999,
      "Ġaccounts": 8000,
      "ĠAmericans": 8001,
      "box": 8002,
      "Ġpause": 8003,
      "Ġlaughter": 8004,
      "91": 8005,
      "êĿ": 8006,
      "akers": 8007,
      "Ġdescribe": 8008,
      "ĠCross": 8009,
      "Ġsculpt": 8010,
      "Ġthir": 8011,
      "Ġchemical": 8012,
      "dess": 8013,
      "wart": 8014,
      "Ġinher": 8015,
      "Ġbeast": 8016,
      "Ġowners": 8017,
      "Ġshadows": 8018,
      "ĠOffice": 8019,
      "First": 8020,
      "dark": 8021,
      "agle": 8022,
      "Ġsleeping": 8023,
      "Ġstared": 8024,
      "Ġmanage": 8025,
      "chess": 8026,
      "Ġbosom": 8027,
      "Ġindicated": 8028,
      "Ġcombined": 8029,
      "Ġslipped": 8030,
      "Ġcave": 8031,
      "Ġdancing": 8032,
      "accom": 8033,
      "Ġ150": 8034,
      "nature": 8035,
      "often": 8036,
      "Ġteachers": 8037,
      "asked": 8038,
      "Ġga": 8039,
      "ĠInt": 8040,
      "Ġgovern": 8041,
      "INE": 8042,
      "Ġstarting": 8043,
      "Ġintelligent": 8044,
      "tri": 8045,
      "Ġvon": 8046,
      "ĠAsia": 8047,
      "Ġquarrel": 8048,
      "Bel": 8049,
      "ĠRel": 8050,
      "Ġrecover": 8051,
      "Old": 8052,
      "Ġ{": 8053,
      "ieties": 8054,
      "ĠKingdom": 8055,
      "Ġpossibility": 8056,
      "Ġimagined": 8057,
      "ĠSecond": 8058,
      "Ġabandoned": 8059,
      "icing": 8060,
      "ĠCommittee": 8061,
      "Ġhers": 8062,
      "Ġprejud": 8063,
      "inson": 8064,
      "Ġwhisper": 8065,
      "intend": 8066,
      "unting": 8067,
      "Ġenabled": 8068,
      "Ġmerit": 8069,
      "Ġoriginally": 8070,
      "Ġprayers": 8071,
      "rigade": 8072,
      "ĠSH": 8073,
      "Ġsailed": 8074,
      "ĠFlore": 8075,
      "Ġlic": 8076,
      "Ġbrid": 8077,
      "Ġfinest": 8078,
      "iner": 8079,
      "ĠTy": 8080,
      "Ġinstances": 8081,
      "century": 8082,
      "Ġcorps": 8083,
      "therefore": 8084,
      "Ġdrift": 8085,
      "Ġattain": 8086,
      "Ġ32": 8087,
      "Ġrage": 8088,
      "Ġcreation": 8089,
      "Ġhadn": 8090,
      "fortune": 8091,
      "Ġinvestig": 8092,
      "Ġbuff": 8093,
      "rage": 8094,
      "ĠDar": 8095,
      "Ġflung": 8096,
      "short": 8097,
      "Ġmidnight": 8098,
      "Ġmasters": 8099,
      "Ġdeparted": 8100,
      "cross": 8101,
      "ensity": 8102,
      "Ġmerry": 8103,
      "criptions": 8104,
      "Ġshortly": 8105,
      "ila": 8106,
      "estab": 8107,
      "Ġours": 8108,
      "Ġsending": 8109,
      "ĠJohnson": 8110,
      "Mary": 8111,
      "Ġape": 8112,
      "Ġclay": 8113,
      "Ġtreasure": 8114,
      "sight": 8115,
      "Ġhelpless": 8116,
      "grad": 8117,
      "isms": 8118,
      "Ġvote": 8119,
      "Ġcovering": 8120,
      "Tis": 8121,
      "die": 8122,
      "wall": 8123,
      "terior": 8124,
      "perfect": 8125,
      "Ġconspic": 8126,
      "Ġboil": 8127,
      "Ġhurry": 8128,
      "Like": 8129,
      "Ġretain": 8130,
      "Ġalter": 8131,
      "ĠStud": 8132,
      "ibilities": 8133,
      "Ġdetect": 8134,
      "fred": 8135,
      "Ġcards": 8136,
      "oof": 8137,
      "Ġhed": 8138,
      "Ġdeeper": 8139,
      "aration": 8140,
      "Ġimpulse": 8141,
      "ĠBelg": 8142,
      "Ġgrain": 8143,
      "keeper": 8144,
      "Ġpover": 8145,
      "MAN": 8146,
      "êĿŃ": 8147,
      "Ġcanoe": 8148,
      "ĠChristians": 8149,
      "ifully": 8150,
      "Ġexisted": 8151,
      "Ġbelongs": 8152,
      "Ġgenuine": 8153,
      "geant": 8154,
      "Ġimpact": 8155,
      "ĠTor": 8156,
      "ĠRec": 8157,
      "fav": 8158,
      "lord": 8159,
      "ĠDec": 8160,
      "oping": 8161,
      "Ġpatience": 8162,
      "Ġfavourite": 8163,
      "Ġmixture": 8164,
      "feet": 8165,
      "Which": 8166,
      "ĠHal": 8167,
      "aying": 8168,
      "thousand": 8169,
      "Ġangel": 8170,
      "Ġpepper": 8171,
      "EY": 8172,
      "Ġsang": 8173,
      "azine": 8174,
      "Ġrecorded": 8175,
      "alph": 8176,
      "Ġridge": 8177,
      "Ġloves": 8178,
      "Ġengra": 8179,
      "istry": 8180,
      "ograp": 8181,
      "Ġagreeable": 8182,
      "eman": 8183,
      "Ġbadly": 8184,
      "ĠLewis": 8185,
      "Ġpoverty": 8186,
      "hour": 8187,
      "Ġsettlement": 8188,
      "Ġ45": 8189,
      "Des": 8190,
      "dri": 8191,
      "iano": 8192,
      "ournal": 8193,
      "Ġprovince": 8194,
      "Me": 8195,
      "itality": 8196,
      "Ġprotest": 8197,
      "Ġcircumstance": 8198,
      "ĠSpaniards": 8199,
      "James": 8200,
      "ĠAN": 8201,
      "Ġmisery": 8202,
      "Ġpolitics": 8203,
      "Ġrevealed": 8204,
      "Che": 8205,
      "Many": 8206,
      "actions": 8207,
      "Ġdistinctly": 8208,
      "Ser": 8209,
      "Ġfitted": 8210,
      "omed": 8211,
      "Ġast": 8212,
      "Ġdece": 8213,
      "Ġinterpret": 8214,
      "Ġqueer": 8215,
      "Ġpermanent": 8216,
      "Ġreceiving": 8217,
      "ĠCanada": 8218,
      "Ġadvantages": 8219,
      "Ġnarrative": 8220,
      "rained": 8221,
      "Ġmead": 8222,
      "92": 8223,
      "Ġacres": 8224,
      "Ġeighteen": 8225,
      "Ġtrembling": 8226,
      "either": 8227,
      "ĠEduc": 8228,
      "ĠLeon": 8229,
      "lines": 8230,
      "pled": 8231,
      "Ġkissed": 8232,
      "ĠRod": 8233,
      "Ġintr": 8234,
      "Ġmusical": 8235,
      "Ġearliest": 8236,
      "aned": 8237,
      "acks": 8238,
      "Ġparticip": 8239,
      "fif": 8240,
      "Ġsenses": 8241,
      "Ġcustoms": 8242,
      "Ġpace": 8243,
      "Ġboiling": 8244,
      "Ġgazed": 8245,
      "ester": 8246,
      "ĠWel": 8247,
      "olds": 8248,
      "pop": 8249,
      "Ġdisposition": 8250,
      "Ġchapel": 8251,
      "Ġdetermine": 8252,
      "Ġnaked": 8253,
      "Ġnevertheless": 8254,
      "Ġelection": 8255,
      "ĠPeople": 8256,
      "Ġadopt": 8257,
      "Ġventure": 8258,
      "ĠLieutenant": 8259,
      "raits": 8260,
      "LY": 8261,
      "Ġpars": 8262,
      "acing": 8263,
      "Ġlege": 8264,
      "Ġgrasp": 8265,
      "Frank": 8266,
      "Was": 8267,
      "ĠGer": 8268,
      "usalem": 8269,
      "96": 8270,
      "ĠTay": 8271,
      "cannot": 8272,
      "icit": 8273,
      "Ġdeer": 8274,
      "Ġreasonable": 8275,
      "particular": 8276,
      "Ġmurmured": 8277,
      "Ġauthors": 8278,
      "Ġthereby": 8279,
      "Ġprimitive": 8280,
      "Ġdur": 8281,
      "Ġexperiences": 8282,
      "Ġbowed": 8283,
      "ĠBY": 8284,
      "Ġinternal": 8285,
      "oa": 8286,
      "Ġpool": 8287,
      "lle": 8288,
      "Ġnoon": 8289,
      "Ġhaste": 8290,
      "Ġexquisite": 8291,
      "Ġminor": 8292,
      "Ġantiqu": 8293,
      "ghter": 8294,
      "within": 8295,
      "Ġsustain": 8296,
      "93": 8297,
      "Ġtorn": 8298,
      "ACK": 8299,
      "Ġcotton": 8300,
      "Ġdared": 8301,
      "intell": 8302,
      "Ġsigned": 8303,
      "Ġsexual": 8304,
      "trees": 8305,
      "Ġtribe": 8306,
      "ĠSax": 8307,
      "Ġareas": 8308,
      "anything": 8309,
      "Ġmerc": 8310,
      "Ġactivities": 8311,
      "Ġlandscape": 8312,
      "Ġsed": 8313,
      "Ġcivilization": 8314,
      "Ġbloom": 8315,
      "ĠConstant": 8316,
      "Ġemphas": 8317,
      "TON": 8318,
      "ashes": 8319,
      "oster": 8320,
      "pton": 8321,
      "ĠSometimes": 8322,
      "Ġshock": 8323,
      "Ġsomehow": 8324,
      "Ġcrack": 8325,
      "Nothing": 8326,
      "Ġsupplies": 8327,
      "knew": 8328,
      "ĠRu": 8329,
      "Ġcontinually": 8330,
      "ĠPrincess": 8331,
      "leton": 8332,
      "ĠJapanese": 8333,
      "Ġprogram": 8334,
      "gro": 8335,
      "ĠMetro": 8336,
      "Ġrepublic": 8337,
      "mill": 8338,
      "uty": 8339,
      "ĠTime": 8340,
      "ĠHence": 8341,
      "Ġunlike": 8342,
      "Ġcapture": 8343,
      "udence": 8344,
      "Ġafterward": 8345,
      "Ġhappens": 8346,
      "giving": 8347,
      "Ġcoarse": 8348,
      "Ġcrossing": 8349,
      "Ġsore": 8350,
      "Ġabst": 8351,
      "aft": 8352,
      "atoes": 8353,
      "ĠAtl": 8354,
      "inburgh": 8355,
      "Ġgates": 8356,
      "Ġempire": 8357,
      "Ġjump": 8358,
      "Ġpriests": 8359,
      "Ġreduce": 8360,
      "Ġcheap": 8361,
      "Ġfinish": 8362,
      "Ġsheet": 8363,
      "agues": 8364,
      "Ġconvention": 8365,
      "inned": 8366,
      "bacco": 8367,
      "Ġbrow": 8368,
      "Ġartific": 8369,
      "Ġannoy": 8370,
      "ĠBaron": 8371,
      "Ġcrying": 8372,
      "ĠVIII": 8373,
      "Ġparish": 8374,
      "ĠCard": 8375,
      "Ġpreceding": 8376,
      "ĠMargaret": 8377,
      "Ġstomach": 8378,
      "Ġrealize": 8379,
      "times": 8380,
      "ONT": 8381,
      "Ġforever": 8382,
      "eded": 8383,
      "China": 8384,
      "headed": 8385,
      "Ġcents": 8386,
      "Ġreports": 8387,
      "Ġsuggestion": 8388,
      "Ġeconomic": 8389,
      "97": 8390,
      "vas": 8391,
      "ĠJacob": 8392,
      "Tom": 8393,
      "advant": 8394,
      "Bet": 8395,
      "gans": 8396,
      "Ġlimits": 8397,
      "ĠSecretary": 8398,
      "Ġperceived": 8399,
      "ĠBE": 8400,
      "Ġconception": 8401,
      "Thou": 8402,
      "Ġmistaken": 8403,
      "Ġplot": 8404,
      "Ġretire": 8405,
      "ĠSpirit": 8406,
      "treat": 8407,
      "ĊĊĠĠ": 8408,
      "ĠArmen": 8409,
      "Ġsank": 8410,
      "cel": 8411,
      "agree": 8412,
      "diffic": 8413,
      "object": 8414,
      "Ġsurvey": 8415,
      "94": 8416,
      "Ġ+": 8417,
      "igence": 8418,
      "Ġsomebody": 8419,
      "several": 8420,
      "exc": 8421,
      "works": 8422,
      "uther": 8423,
      "irth": 8424,
      "ĠSince": 8425,
      "Ġwarri": 8426,
      "iders": 8427,
      "ĠAbout": 8428,
      "Ġconsidering": 8429,
      "Ġpainter": 8430,
      "Ill": 8431,
      "Ġinferior": 8432,
      "sold": 8433,
      "grat": 8434,
      "Ġroot": 8435,
      "quet": 8436,
      "Ġdecide": 8437,
      "Ġfavorite": 8438,
      "Ġceremony": 8439,
      "lease": 8440,
      "Ġrifle": 8441,
      "ubes": 8442,
      "LD": 8443,
      "orace": 8444,
      "sea": 8445,
      "ĠRO": 8446,
      "ibus": 8447,
      "itan": 8448,
      "grand": 8449,
      "Ġbottle": 8450,
      "ĠProductions": 8451,
      "ĠDun": 8452,
      "Ġvaried": 8453,
      "Ġpicturesque": 8454,
      "ults": 8455,
      "spirit": 8456,
      "onday": 8457,
      "Ġrab": 8458,
      "vet": 8459,
      "Ġsisters": 8460,
      "Ġimprovement": 8461,
      "gels": 8462,
      "Ġpermission": 8463,
      "means": 8464,
      "whel": 8465,
      "Ġbishop": 8466,
      "Ġleis": 8467,
      "asty": 8468,
      "blance": 8469,
      "AGE": 8470,
      "ĠFed": 8471,
      "Ġknight": 8472,
      "Ġdaye": 8473,
      "Ġsunshine": 8474,
      "chester": 8475,
      "Ġsatisf": 8476,
      "Ġfolk": 8477,
      "ĠIllustr": 8478,
      "ĠTake": 8479,
      "Ġrays": 8480,
      "Ġanywhere": 8481,
      "eline": 8482,
      "Ġartists": 8483,
      "Ġuttered": 8484,
      "guard": 8485,
      "front": 8486,
      "ammed": 8487,
      "Ġdescended": 8488,
      "Ġau": 8489,
      "IP": 8490,
      "Ġgest": 8491,
      "Ġprepare": 8492,
      "ippines": 8493,
      "Ġensure": 8494,
      "Ġexhausted": 8495,
      "anes": 8496,
      "Ġvivid": 8497,
      "plom": 8498,
      "ĠHamilton": 8499,
      "Ġmagic": 8500,
      "uate": 8501,
      "ensions": 8502,
      "Ġwondering": 8503,
      "Ġimproved": 8504,
      "Ġpreparation": 8505,
      "itself": 8506,
      "ayed": 8507,
      "Ġpainful": 8508,
      "Ġthreatened": 8509,
      "zing": 8510,
      "Ġsixteen": 8511,
      "About": 8512,
      "number": 8513,
      "Ġbegged": 8514,
      "Ġraising": 8515,
      "Ġphrase": 8516,
      "Out": 8517,
      "zed": 8518,
      "Ġborrow": 8519,
      "ĠPR": 8520,
      "Ġslavery": 8521,
      "illes": 8522,
      "ĠLis": 8523,
      "Ġpoured": 8524,
      "Ġconvenient": 8525,
      "ĠBabylon": 8526,
      "Ġgent": 8527,
      "ĠGrace": 8528,
      "Ġplun": 8529,
      "icago": 8530,
      "Ġintegr": 8531,
      "Ġmedium": 8532,
      "affect": 8533,
      "Ġwash": 8534,
      "ĠGeor": 8535,
      "Ġsmell": 8536,
      "bound": 8537,
      "Ġpotential": 8538,
      "Ġconsequences": 8539,
      "ĠRad": 8540,
      "opin": 8541,
      "?âĢĻ": 8542,
      "achel": 8543,
      "Ġsmart": 8544,
      "iolet": 8545,
      "Ġseventy": 8546,
      "till": 8547,
      "Ġbath": 8548,
      "Ġ75": 8549,
      "ĠEp": 8550,
      "prot": 8551,
      "Ġfurniture": 8552,
      "Ġrat": 8553,
      "Ġcomr": 8554,
      "Ġpoems": 8555,
      "190": 8556,
      "Ġsurrounding": 8557,
      "wit": 8558,
      "uster": 8559,
      "Ġdrinking": 8560,
      "Under": 8561,
      "ĠNorthern": 8562,
      "Ġinstitutions": 8563,
      "says": 8564,
      "lessness": 8565,
      "ertainly": 8566,
      "ierre": 8567,
      "rug": 8568,
      "Ġeloqu": 8569,
      "Ġclothing": 8570,
      "Ġinjury": 8571,
      "Ġassembled": 8572,
      "erness": 8573,
      "Ġcandid": 8574,
      "Ġgifts": 8575,
      "nders": 8576,
      "church": 8577,
      "everal": 8578,
      "command": 8579,
      "Ġrested": 8580,
      "Ġsupre": 8581,
      "ĠVill": 8582,
      "Ġprevented": 8583,
      "reement": 8584,
      "allowed": 8585,
      "Ġstayed": 8586,
      "Ġsupreme": 8587,
      "BY": 8588,
      "borough": 8589,
      "ĠAR": 8590,
      "ĠBall": 8591,
      "Ġarmies": 8592,
      "DE": 8593,
      "especially": 8594,
      "andal": 8595,
      "ĠSto": 8596,
      "Ġworkers": 8597,
      "Ġbone": 8598,
      "ofty": 8599,
      "Ġpeop": 8600,
      "Ġvisitors": 8601,
      "Lou": 8602,
      "Ġinstruction": 8603,
      "apping": 8604,
      "Ġpreserve": 8605,
      "forward": 8606,
      "aria": 8607,
      "herself": 8608,
      "aphone": 8609,
      "urred": 8610,
      "Ġvine": 8611,
      "Ġ55": 8612,
      "SS": 8613,
      "Ġtribut": 8614,
      "mediately": 8615,
      "ĠPot": 8616,
      "experi": 8617,
      "Ġveins": 8618,
      "Ġconcealed": 8619,
      "ĠMah": 8620,
      "âĢĿâĢĶ": 8621,
      "Ġsubstant": 8622,
      "Ġmelancholy": 8623,
      "Mon": 8624,
      "ĠĠĠĠĠĠĠ": 8625,
      "ĠGar": 8626,
      "rot": 8627,
      "Ġthrowing": 8628,
      "pson": 8629,
      "Ġlanding": 8630,
      "poor": 8631,
      "Ġwives": 8632,
      "Ġdoth": 8633,
      "Ġwidely": 8634,
      "Ġdeny": 8635,
      "possible": 8636,
      "Ġfires": 8637,
      "ĠPenn": 8638,
      "Ġadj": 8639,
      "Ġgratitude": 8640,
      "urious": 8641,
      "ĠBern": 8642,
      "âĢĶâĢĿ": 8643,
      "Ġhastily": 8644,
      "GH": 8645,
      "Ġcourts": 8646,
      "OOD": 8647,
      "Î½": 8648,
      "aton": 8649,
      "Ġtomb": 8650,
      "ĠFord": 8651,
      "Ġobjection": 8652,
      "Ġvolumes": 8653,
      "Jack": 8654,
      "inery": 8655,
[...]
